{
  "version": "1.0",
  "truncation": null,
  "padding": null,
  "added_tokens": [
    {
      "id": 0,
      "content": "<s>",
      "single_word": false,
      "lstrip": false,
      "rstrip": false,
      "normalized": false,
      "special": true
    },
    {
      "id": 1,
      "content": "<pad>",
      "single_word": false,
      "lstrip": false,
      "rstrip": false,
      "normalized": false,
      "special": true
    },
    {
      "id": 2,
      "content": "</s>",
      "single_word": false,
      "lstrip": false,
      "rstrip": false,
      "normalized": false,
      "special": true
    },
    {
      "id": 3,
      "content": "<unk>",
      "single_word": false,
      "lstrip": false,
      "rstrip": false,
      "normalized": false,
      "special": true
    },
    {
      "id": 32000,
      "content": "<|im_start|>",
      "single_word": false,
      "lstrip": false,
      "rstrip": false,
      "normalized": false,
      "special": true
    },
    {
      "id": 32001,
      "content": "<|im_end|>",
      "single_word": false,
      "lstrip": false,
      "rstrip": false,
      "normalized": false,
      "special": true
    }
  ],
  "normalizer": null,
  "pre_tokenizer": {
    "type": "ByteLevel",
    "add_prefix_space": false,
    "trim_offsets": true,
    "use_regex": true
  },
  "post_processor": {
    "type": "ByteLevel",
    "add_prefix_space": true,
    "trim_offsets": false,
    "use_regex": true
  },
  "decoder": {
    "type": "ByteLevel",
    "add_prefix_space": true,
    "trim_offsets": true,
    "use_regex": true
  },
  "model": {
    "type": "BPE",
    "dropout": null,
    "unk_token": null,
    "continuing_subword_prefix": "",
    "end_of_word_suffix": "",
    "fuse_unk": false,
    "byte_fallback": false,
    "ignore_merges": false,
    "vocab": {
      "<s>": 0,
      "<pad>": 1,
      "</s>": 2,
      "<unk>": 3,
      "<mask>": 4,
      "!": 5,
      "\"": 6,
      "#": 7,
      "$": 8,
      "%": 9,
      "&": 10,
      "'": 11,
      "(": 12,
      ")": 13,
      "*": 14,
      "+": 15,
      ",": 16,
      "-": 17,
      ".": 18,
      "/": 19,
      "0": 20,
      "1": 21,
      "2": 22,
      "3": 23,
      "4": 24,
      "5": 25,
      "6": 26,
      "7": 27,
      "8": 28,
      "9": 29,
      ":": 30,
      ";": 31,
      "<": 32,
      "=": 33,
      ">": 34,
      "?": 35,
      "@": 36,
      "A": 37,
      "B": 38,
      "C": 39,
      "D": 40,
      "E": 41,
      "F": 42,
      "G": 43,
      "H": 44,
      "I": 45,
      "J": 46,
      "K": 47,
      "L": 48,
      "M": 49,
      "N": 50,
      "O": 51,
      "P": 52,
      "Q": 53,
      "R": 54,
      "S": 55,
      "T": 56,
      "U": 57,
      "V": 58,
      "W": 59,
      "X": 60,
      "Y": 61,
      "Z": 62,
      "[": 63,
      "\\": 64,
      "]": 65,
      "^": 66,
      "_": 67,
      "`": 68,
      "a": 69,
      "b": 70,
      "c": 71,
      "d": 72,
      "e": 73,
      "f": 74,
      "g": 75,
      "h": 76,
      "i": 77,
      "j": 78,
      "k": 79,
      "l": 80,
      "m": 81,
      "n": 82,
      "o": 83,
      "p": 84,
      "q": 85,
      "r": 86,
      "s": 87,
      "t": 88,
      "u": 89,
      "v": 90,
      "w": 91,
      "x": 92,
      "y": 93,
      "z": 94,
      "{": 95,
      "|": 96,
      "}": 97,
      "~": 98,
      "¡": 99,
      "¢": 100,
      "£": 101,
      "¤": 102,
      "¥": 103,
      "¦": 104,
      "§": 105,
      "¨": 106,
      "©": 107,
      "ª": 108,
      "«": 109,
      "¬": 110,
      "®": 111,
      "¯": 112,
      "°": 113,
      "±": 114,
      "²": 115,
      "³": 116,
      "´": 117,
      "µ": 118,
      "¶": 119,
      "·": 120,
      "¸": 121,
      "¹": 122,
      "º": 123,
      "»": 124,
      "¼": 125,
      "½": 126,
      "¾": 127,
      "¿": 128,
      "À": 129,
      "Á": 130,
      "Â": 131,
      "Ã": 132,
      "Ä": 133,
      "Å": 134,
      "Æ": 135,
      "Ç": 136,
      "È": 137,
      "É": 138,
      "Ê": 139,
      "Ë": 140,
      "Ì": 141,
      "Í": 142,
      "Î": 143,
      "Ï": 144,
      "Ð": 145,
      "Ñ": 146,
      "Ò": 147,
      "Ó": 148,
      "Ô": 149,
      "Õ": 150,
      "Ö": 151,
      "×": 152,
      "Ø": 153,
      "Ù": 154,
      "Ú": 155,
      "Û": 156,
      "Ü": 157,
      "Ý": 158,
      "Þ": 159,
      "ß": 160,
      "à": 161,
      "á": 162,
      "â": 163,
      "ã": 164,
      "ä": 165,
      "å": 166,
      "æ": 167,
      "ç": 168,
      "è": 169,
      "é": 170,
      "ê": 171,
      "ë": 172,
      "ì": 173,
      "í": 174,
      "î": 175,
      "ï": 176,
      "ð": 177,
      "ñ": 178,
      "ò": 179,
      "ó": 180,
      "ô": 181,
      "õ": 182,
      "ö": 183,
      "÷": 184,
      "ø": 185,
      "ù": 186,
      "ú": 187,
      "û": 188,
      "ü": 189,
      "ý": 190,
      "þ": 191,
      "ÿ": 192,
      "Ā": 193,
      "ā": 194,
      "Ă": 195,
      "ă": 196,
      "Ą": 197,
      "ą": 198,
      "Ć": 199,
      "ć": 200,
      "Ĉ": 201,
      "ĉ": 202,
      "Ċ": 203,
      "ċ": 204,
      "Č": 205,
      "č": 206,
      "Ď": 207,
      "ď": 208,
      "Đ": 209,
      "đ": 210,
      "Ē": 211,
      "ē": 212,
      "Ĕ": 213,
      "ĕ": 214,
      "Ė": 215,
      "ė": 216,
      "Ę": 217,
      "ę": 218,
      "Ě": 219,
      "ě": 220,
      "Ĝ": 221,
      "ĝ": 222,
      "Ğ": 223,
      "ğ": 224,
      "Ġ": 225,
      "ġ": 226,
      "Ģ": 227,
      "ģ": 228,
      "Ĥ": 229,
      "ĥ": 230,
      "Ħ": 231,
      "ħ": 232,
      "Ĩ": 233,
      "ĩ": 234,
      "Ī": 235,
      "ī": 236,
      "Ĭ": 237,
      "ĭ": 238,
      "Į": 239,
      "į": 240,
      "İ": 241,
      "ı": 242,
      "Ĳ": 243,
      "ĳ": 244,
      "Ĵ": 245,
      "ĵ": 246,
      "Ķ": 247,
      "ķ": 248,
      "ĸ": 249,
      "Ĺ": 250,
      "ĺ": 251,
      "Ļ": 252,
      "ļ": 253,
      "Ľ": 254,
      "ľ": 255,
      "Ŀ": 256,
      "ŀ": 257,
      "Ł": 258,
      "ł": 259,
      "Ń": 260,
      "§Ù": 261,
      "Ø§Ù": 262,
      "ĠÙ": 263,
      "ÙĬ": 264,
      "Ø§ÙĦ": 265,
      "ĠØ§ÙĦ": 266,
      "Ø±": 267,
      "Øª": 268,
      "Ùħ": 269,
      "ÙĨ": 270,
      "ÙĪ": 271,
      "Ø¨": 272,
      "Ø¹": 273,
      "Ø©": 274,
      "Ø¯": 275,
      "Ø³": 276,
      "ØŃ": 277,
      "ĠÙħ": 278,
      "Ùĩ": 279,
      "Ø£": 280,
      "ĠÙĪ": 281,
      "Ùĥ": 282,
      "ÙĤ": 283,
      "Ø¬": 284,
      "Ùģ": 285,
      "§Ø": 286,
      "Ø§Ø": 287,
      "ĠØ¨": 288,
      "ĠØ§ÙĦØ": 289,
      "ĠÙģ": 290,
      "ĠÙĦ": 291,
      "ĠØ£": 292,
      "§Øª": 293,
      "Ø§Øª": 294,
      "ĠØ¹": 295,
      "ØĮ": 296,
      "ĠØª": 297,
      "Ø·": 298,
      "ĠØ§ÙĦÙħ": 299,
      "Ùī": 300,
      "ÙĬØ©": 301,
      "Øµ": 302,
      "Ø´": 303,
      "§Ø±": 304,
      "Ø§ÙĨ": 305,
      "Ø§Ø±": 306,
      "Ø®": 307,
      "ĠÙģÙĬ": 308,
      "ĠÙħÙĨ": 309,
      "ĠÙĬ": 310,
      "Ø¥": 311,
      "ÙĬÙĨ": 312,
      "Ø²": 313,
      "Ø§Ùħ": 314,
      "Ø¶": 315,
      "ĦÙī": 316,
      "ÙĦÙī": 317,
      "Ø°": 318,
      "ĠÙĥ": 319,
      "Ø«": 320,
      "ĠØ¥": 321,
      "ĠØ§ÙĦØª": 322,
      "ÙĬØ±": 323,
      "ÙĩØ": 324,
      "ÙĩØ§": 325,
      "ĠÙĪØ§ÙĦ": 326,
      "ĠØ§ÙĦØ£": 327,
      "§Ø³": 328,
      "ÙĪÙĨ": 329,
      "Øº": 330,
      "ÙĪÙ": 331,
      "ÙĪÙĦ": 332,
      "Ø±ÙĬ": 333,
      "ĠØŃ": 334,
      "ĠØ³": 335,
      "§Ø¯": 336,
      "§Ø¨": 337,
      "Ø§Ø¡": 338,
      "Ø§Ø¯": 339,
      "Ø§Ø³": 340,
      "ĠÙĩ": 341,
      "Ø§Ø¨": 342,
      "ĠØ§ÙĦØ¹": 343,
      "ĠØ¹ÙĦÙī": 344,
      "ĦÙĬ": 345,
      "ÙĦÙĬ": 346,
      "ĠÙĤ": 347,
      "ĠÙĨ": 348,
      "ÙĪØ±": 349,
      "ĠÙĦÙ": 350,
      "§Ø¹": 351,
      "ĠÙĦÙĦ": 352,
      "Ø§Ø¹": 353,
      "Ø§Ø¦": 354,
      "ĠØ£ÙĨ": 355,
      "Ø¯ÙĬ": 356,
      "ĠØ¬": 357,
      "ĠØ§ÙĦØ³": 358,
      "ĠØ§ÙĦØŃ": 359,
      "Ùĭ": 360,
      "Ø§Ùģ": 361,
      "Ø¨ÙĬ": 362,
      "Ø¸": 363,
      "Ùİ": 364,
      "§ØŃ": 365,
      "ÙĪÙħ": 366,
      "ĠØ®": 367,
      "ĠØ´": 368,
      "ÙħØ": 369,
      "Ø§ÙĤ": 370,
      "Ø§ØŃ": 371,
      "ĠØ±": 372,
      "Ø³Øª": 373,
      "ÙħØ§": 374,
      "ĠØ¯": 375,
      "ÙħÙ": 376,
      "Ø§ÙĬ": 377,
      "ĠÙħØ¹": 378,
      "ÙħÙĦ": 379,
      "ĠØ¨Ø§ÙĦ": 380,
      "..": 381,
      "Ùĳ": 382,
      "ÙĬÙ": 383,
      "ÙĩÙħ": 384,
      "ĠØ¹ÙĨ": 385,
      "Ø¯Ø©": 386,
      "ÙĬÙĦ": 387,
      "§Ø¬": 388,
      "ĠØ§ÙĦØ¬": 389,
      "ĠØ§ÙĦÙĨ": 390,
      "Ø±Ø©": 391,
      "ĠØ§ÙĦÙģ": 392,
      "ĠØ§ÙĦÙĤ": 393,
      "ÙħÙĨ": 394,
      "ĦÙĥ": 395,
      "ÙĦÙĥ": 396,
      "Ø§Ø¬": 397,
      "ĠØĮ": 398,
      "ĠØ§ÙĦØ´": 399,
      "Ø¨Ø±": 400,
      "Ø¹Ø¯": 401,
      "ĠØ§ÙĦØ¥": 402,
      "Ø±Ùĥ": 403,
      "ØªÙħ": 404,
      "ĠØµ": 405,
      "ĠØ¥ÙĦÙī": 406,
      "ÙĪÙĤ": 407,
      "Ġ2": 408,
      "ÙĬØ": 409,
      "Ø±Ø¨": 410,
      "ĦØ©": 411,
      "ÙĦØ©": 412,
      "ĠØ§ÙĦØ¯": 413,
      "Ø§ÙĪ": 414,
      "ĠØ§ÙĦÙĥ": 415,
      "Ø§Ø±Ø©": 416,
      "ÙħØ©": 417,
      "ĠØ·": 418,
      "Ø°Ø": 419,
      "Ø°Ø§": 420,
      "ĠØ§ÙĦØ±": 421,
      "ĠØ§ÙĦØ®": 422,
      "ĠØ§ÙĦØµ": 423,
      "ĠØ§ÙĦØ¨": 424,
      "Ø§Ùĥ": 425,
      "ÙĬØ¯": 426,
      "Ø§Ùĩ": 427,
      "Ġ1": 428,
      "ØªØ±": 429,
      "Ø¦": 430,
      "Ø¹Ø©": 431,
      "Ø§Øµ": 432,
      "Ùı": 433,
      "Ø¹Ù": 434,
      "ÙĪØ¯": 435,
      "ĦÙħ": 436,
      "ĠØ§ÙĦÙ": 437,
      "Ø±ÙĪ": 438,
      "ÙĬØ§": 439,
      "ÙĬØ³": 440,
      "Ġ\"": 441,
      "ÙĤØ¯": 442,
      "ÙĥÙĨ": 443,
      "ĠØ§ÙĦÙĦ": 444,
      "ÙĤØ©": 445,
      "ÙĨØ": 446,
      "ÙĨØ§": 447,
      "ĠØ§ÙĦØªÙĬ": 448,
      "ĠØ§ÙĦØ°": 449,
      "âĢ": 450,
      "Ø¢": 451,
      "ĠØ£ÙĪ": 452,
      "ĠÙħØ": 453,
      "ÙģÙĬ": 454,
      "ÙħÙĬ": 455,
      "Ġ(": 456,
      "ĠÙħØŃ": 457,
      "Ø§Ø³Øª": 458,
      "Ø¹Ø±": 459,
      "ĠØ§ÙĨ": 460,
      "ĠÙĪØª": 461,
      "Ø§Ø·": 462,
      "ÙĦÙħ": 463,
      "Ø¹ÙĦ": 464,
      "ÙĲ": 465,
      "Ø¨Ø©": 466,
      "Ġ20": 467,
      "ÙĨÙĬ": 468,
      "ĠØ§ÙĦÙĪ": 469,
      "ÙĨØª": 470,
      "ĦØ": 471,
      "ÙĦØ": 472,
      "ÙĦØ§": 473,
      "ÙħÙĪ": 474,
      "Ø§Ø¶": 475,
      "ØªÙĬ": 476,
      "ÙĤÙĬ": 477,
      "ĠØº": 478,
      "ĠØ§ÙĦØ·": 479,
      "Ø§Ø®": 480,
      "Ø°Ùĩ": 481,
      "ÙĢ": 482,
      "ÙĬÙģ": 483,
      "Ø°ÙĦÙĥ": 484,
      "ÙħØ±": 485,
      "Ø§Ø²": 486,
      "Ġ-": 487,
      "ÙĨØ©": 488,
      "ÙĥÙ": 489,
      "ÙĥÙĦ": 490,
      "ĠØªØŃ": 491,
      "ĠÙħØ§": 492,
      "ØªØŃ": 493,
      "Ø³ÙĬ": 494,
      "ÙĪÙĬ": 495,
      "Ø¨Ù": 496,
      "Ø¨ÙĦ": 497,
      "Ø¬Ø±": 498,
      "ĠÙĦØ": 499,
      "ĠÙĦØ§": 500,
      "Ġ.": 501,
      "Ø¤": 502,
      "ÙĪØ¨": 503,
      "ØªÙĩ": 504,
      "Ø£ÙĨ": 505,
      "ĠÙĦÙħ": 506,
      "Ø§Ø±Ø§Øª": 507,
      "Ø®Ø±": 508,
      "ĠØ¢": 509,
      "ÙĪØ¬": 510,
      "Ø³Ø¨": 511,
      "ĠÙĩØ°Ø§": 512,
      "ĠÙĥØ§ÙĨ": 513,
      "ĠØ¹ÙĦÙĬ": 514,
      "ĦØ§ÙĦ": 515,
      "ÙĦØ§ÙĦ": 516,
      "Ø´Ø±": 517,
      "Ø¯Ùħ": 518,
      "ÙĥØ±": 519,
      "Ø§ÙĨÙĬ": 520,
      "Ø³Ùħ": 521,
      "ĠÙĥÙ": 522,
      "ĠÙĥÙĦ": 523,
      "ÙĪÙģ": 524,
      "ĠÙħØµ": 525,
      "ÙĥÙĪÙĨ": 526,
      "Ø§ÙĦÙħ": 527,
      "Ø§Ø´": 528,
      "ÙĬÙħ": 529,
      "ÙĪØ": 530,
      "ØµÙ": 531,
      "ØµÙĦ": 532,
      "ÙĴ": 533,
      "Ø³Ù": 534,
      "Ø³ÙĦ": 535,
      "ÙĬØ±Ø©": 536,
      "ĠØ§ÙĦØ«": 537,
      "ĦÙģ": 538,
      "ÙĦÙģ": 539,
      "Ø¯ÙĬØ¯": 540,
      "ĠÙĪÙħ": 541,
      "Ø¯Ø±": 542,
      "Ġ..": 543,
      "Ø¨Ø¯": 544,
      "ĠØ£ÙĬ": 545,
      "ĠØªØ¹": 546,
      "ĠÙĪØ£": 547,
      "ĠØ§Ø³Øª": 548,
      "ĠØ«": 549,
      "ÙĪØ¹": 550,
      "ĠÙĩØ°Ùĩ": 551,
      "ĠÙĪÙĩ": 552,
      "ÙĪØ³": 553,
      "ØŃØ¯": 554,
      "ĠØ§ÙĦÙħÙĨ": 555,
      "ĠØ§ÙĦØ°ÙĬ": 556,
      "Ø²ÙĬ": 557,
      "Ø¬Ù": 558,
      "Ø¬ÙĦ": 559,
      "ĠÙĩÙĪ": 560,
      "ĠØ§ÙĦÙĬ": 561,
      "Ø§Ø¯Ø©": 562,
      "ØŃØ©": 563,
      "Ø§Ø±ÙĬ": 564,
      "ØªØ¨": 565,
      "ĠØ¨ÙĬÙĨ": 566,
      "Ø§ÙĦÙĬ": 567,
      "Ø³Ø§Ø±Ø©": 568,
      "ÙĨØ¯": 569,
      "Ø«Ø±": 570,
      "ÙĪØ§": 571,
      "Ø¹Ùħ": 572,
      "ÙĩØ±": 573,
      "Ø·Ø©": 574,
      "ĠØ¨ÙĨ": 575,
      "ÙĤÙ": 576,
      "ÙĤÙĦ": 577,
      "00": 578,
      "Ø§Ø«": 579,
      "Ø±Ùģ": 580,
      "ĠÙħØª": 581,
      "Ø·Ù": 582,
      "Ø·ÙĦ": 583,
      "ĠØ§ÙĦÙĦÙĩ": 584,
      "ĠØ¥ÙĨ": 585,
      "ĠØ¨Ø¹Ø¯": 586,
      "ĠØ§ÙĦÙĩ": 587,
      "ĠØ§ÙĦÙħØŃ": 588,
      "ĠØ¶": 589,
      "ÙħÙĥÙĨ": 590,
      "Ø§ÙĬØ©": 591,
      "Ø¦ÙĬØ³": 592,
      "Ø±ÙĥØ©": 593,
      "ĠÙĪÙĬ": 594,
      "ĠØ£Ùĥ": 595,
      "Ø®Øµ": 596,
      "ÙĪØª": 597,
      "ÙħØ¯": 598,
      "ÙĤØ±": 599,
      "ĠâĢ": 600,
      "ĠØ§ÙĦØ§Ø³": 601,
      "Ġ201": 602,
      "ÙĥØ§ÙĨ": 603,
      "ĠØ³ÙĬ": 604,
      "ØªØµ": 605,
      "Ø¬Ùħ": 606,
      "ØŁ": 607,
      "ÙĥÙħ": 608,
      "ĠØ°ÙĦÙĥ": 609,
      "ÙĩØ¯": 610,
      "in": 611,
      "ĠÙĪØ§ÙĦÙħ": 612,
      "ĠØ®ÙĦØ§ÙĦ": 613,
      "ĠÙħÙĪ": 614,
      "Ø¹Ø¶": 615,
      "ĠÙħØ³": 616,
      "Ø§ÙĪÙ": 617,
      "Ø§ÙĪÙĦ": 618,
      "ĠØ§ÙĦÙħÙĪ": 619,
      "ĠØŃÙĬ": 620,
      "ĠÙħØ´": 621,
      "Ø±ÙĤ": 622,
      "Ø§ÙĦØ©": 623,
      "ĠØ§ÙĦÙħØª": 624,
      "ĠÙħØ¬": 625,
      "Ø±ÙĬÙĤ": 626,
      "ÙĪØ§Øª": 627,
      "Ø¥ÙĨ": 628,
      "Ø±Ø¶": 629,
      "ØŃÙĨ": 630,
      "ĠÙħØ·": 631,
      "ÙĪÙĦØ©": 632,
      "Ø¨ÙĬØ¹": 633,
      "ĠØªÙĨ": 634,
      "20": 635,
      "ØªÙĩØ§": 636,
      "ÙĪØ±Ø©": 637,
      "ĠÙĥØ³Ø§Ø±Ø©": 638,
      "ĠØ²": 639,
      "ÙģØ³": 640,
      "ÙģØ¶": 641,
      "ĠÙĪØ¨": 642,
      "Ø§ÙĦÙĬØ©": 643,
      "ĠÙĦØª": 644,
      "Ø§ÙĨÙĬØ©": 645,
      "ĠØ§ÙĦØº": 646,
      "er": 647,
      "Ø§ÙģØ©": 648,
      "ĠØ£Ùħ": 649,
      "Ø§Ø¹Ø©": 650,
      "Ø¹Ø¨": 651,
      "Ø«Ù": 652,
      "Ø«ÙĦ": 653,
      "ÙĥØ³": 654,
      "ØŃÙĬ": 655,
      "ĠÙĬÙħÙĥÙĨ": 656,
      "ĠÂ": 657,
      "ĠÙĪÙĤ": 658,
      "ĠØªÙħ": 659,
      "ÙģØ±": 660,
      "Ġ...": 661,
      "Ġ:": 662,
      "Ø§ÙħØ©": 663,
      "ĠØ§ÙĦØ£Ø³": 664,
      "Ġ3": 665,
      "ÙģØ©": 666,
      "ÙĨØ³": 667,
      "ĠØªÙĤ": 668,
      "ÙĨØ¹": 669,
      "ĠØ§ÙĦØ²": 670,
      "ĠÙħØ±": 671,
      "ĠÙħØ¯": 672,
      "Ø¨Ø§Ø±": 673,
      "ĠÙĬØ¹": 674,
      "ĠÙĩÙĬ": 675,
      "ÙĢÙĢ": 676,
      "ĠØ§ÙĦÙħØµ": 677,
      "ØªÙī": 678,
      "ĦØ¨": 679,
      "ÙĦØ¨": 680,
      "ÙĥØ©": 681,
      "ĠØ¨Ø¯": 682,
      "ĠØ§ÙĦØ£Ùħ": 683,
      "ĠÙĬØª": 684,
      "ÙĨÙĬØ©": 685,
      "ĠØ§ÙĦÙħØ³Øª": 686,
      "Ø®Ø¯": 687,
      "ÙĪØ±ÙĬ": 688,
      "ĠØ¨Ù": 689,
      "ĠØ¨ÙĦ": 690,
      "Ø¯Ø¯": 691,
      "ĠØ¨ÙĬ": 692,
      "ĠÙĤØ¯": 693,
      "ĠØ¨Ø´": 694,
      "ĠØ§ÙĦØ§ÙĨ": 695,
      "ĠØ°": 696,
      "ĠØ£Ø³": 697,
      "Ø«ÙĬØ±": 698,
      "ØªÙģ": 699,
      "ĠØ§ÙĦÙħØ¹": 700,
      "ĠÙĪØ¬": 701,
      "ÙĪÙĤØ¹": 702,
      "Ø§Ø°": 703,
      "ĠØ§ÙĦÙħØ´": 704,
      "ĠØ¨Ø±": 705,
      "ÙĪÙī": 706,
      "ĠØ¹Ø§Ùħ": 707,
      "ĠÙħØ³Øª": 708,
      "ĠØ§ÙĦÙħØ³": 709,
      "Ø·Ø±": 710,
      "Ø®Ù": 711,
      "Ø®ÙĦ": 712,
      "ĠÙĪØ³": 713,
      "ĠØ§Ø³": 714,
      "ÙĥÙĬ": 715,
      "ĠØ§ÙĦØ¢": 716,
      "Ø¬Ø©": 717,
      "ÙĪØ§ÙĨ": 718,
      "ĠØ§ÙĦØ³ÙĬ": 719,
      "ĠØŃÙĬØ«": 720,
      "ÙħÙĬØ¹": 721,
      "ÙĬÙĨØ©": 722,
      "ĠØ§ÙĦÙĬÙĪÙħ": 723,
      "ĠØªØµ": 724,
      "Ø¨ØŃ": 725,
      "ØŃÙĨØ©": 726,
      "ĠÙĪÙ": 727,
      "ĠÙĪÙĦ": 728,
      "ĠØ§ÙĦÙħØ±": 729,
      "ĠØªØ¬": 730,
      "ĠÙħØ®": 731,
      "ĠØ§ÙĦØ¹ÙħÙĦ": 732,
      "ÙİÙĳ": 733,
      "ĠØ¹ÙħÙĦ": 734,
      "ĠÙĦÙĩ": 735,
      "an": 736,
      "ĠÙĪØ§ÙĦØª": 737,
      "ĠÙģÙī": 738,
      "Ø§ÙħÙ": 739,
      "Ø§ÙħÙĦ": 740,
      "Ø³Ø©": 741,
      "ĠØ¹ÙĨØ¯": 742,
      "Ø±Ø¨ÙĬØ©": 743,
      "ĠØ¨Ùħ": 744,
      "ĠÙĥÙħØ§": 745,
      "ÙĥØª": 746,
      "ØŃÙĤ": 747,
      "ÙĤØ·": 748,
      "on": 749,
      "ÙĪÙĬØ©": 750,
      "ÙĪÙĥ": 751,
      "Ø±Ø§Ø¡": 752,
      "Ø£Ø³": 753,
      "ĠÙĤØ¨ÙĦ": 754,
      "ĠÙĦÙĬ": 755,
      "Ø§Ø¨Ø©": 756,
      "Ø§Ø¯ÙĬ": 757,
      "Ø¶Ø¹": 758,
      "ÙĪØ²": 759,
      "Â»": 760,
      "ĠØºÙĬØ±": 761,
      "ØµÙĪÙĦ": 762,
      "ĦØ§Ùħ": 763,
      "ÙĦØ§Ùħ": 764,
      "ĠÙĦÙĦÙħ": 765,
      "ĠØ¨Øª": 766,
      "ĠÙĪØ¹": 767,
      "Ø§Ø¦ÙĬØ©": 768,
      "Ø²Ø©": 769,
      "ĦØ§Øª": 770,
      "ÙĦØ§Øª": 771,
      "ĠØªØ±": 772,
      "ĠÙħØ·ØŃÙĨØ©": 773,
      "Ø§ÙĦØª": 774,
      "ĠØªØ´": 775,
      "ĠÙħÙĤ": 776,
      "ÙĬØ§Øª": 777,
      "§Ø©": 778,
      "Ø§Ø©": 779,
      "ĦØ³": 780,
      "ÙĦØ³": 781,
      "ĠØ§ÙĦØ¹Ø§ÙĦÙħ": 782,
      "ÙĪØ©": 783,
      "Ø¨Ø§Øª": 784,
      "ÙĦÙĬÙħ": 785,
      "ĠØªØ¯": 786,
      "ĠØªØª": 787,
      "ĠØŃØªÙī": 788,
      "ĠØ¨Ø¹Ø¶": 789,
      "or": 790,
      "ĠÙĪØŃ": 791,
      "ï»": 792,
      "ĠØ¨Ùĩ": 793,
      "ĠØ§ÙĦÙħØ¯": 794,
      "ĠØ§ÙĦÙī": 795,
      "ÙĬØ¨": 796,
      "Ø±Ø¯": 797,
      "Ø®Ø¯Ùħ": 798,
      "ĠÙĬÙĤ": 799,
      "ÙĪÙĦÙĬ": 800,
      "ĠÙĬØ¬": 801,
      "ĠØ£ÙĥØ«Ø±": 802,
      "ÙģØ¶Ù": 803,
      "ÙģØ¶ÙĦ": 804,
      "ĠØ§ÙĦØªØ¹": 805,
      "ĠÂ«": 806,
      "ØµØ±": 807,
      "Ø§ØµØ©": 808,
      "Ø®Ø¯Ø§Ùħ": 809,
      "Ø¨ÙĨ": 810,
      "ĠÙĪÙħÙĨ": 811,
      "\".": 812,
      "ĠØ§Ø®": 813,
      "ĠÙĥØ¨": 814,
      "ĠÙĬØŃ": 815,
      "ar": 816,
      "Ø§Ø¦ÙĬ": 817,
      "Ġ5": 818,
      "ĠØ¹ÙĦÙĬÙĩ": 819,
      "Ø·Ùħ": 820,
      "Ġ4": 821,
      "Ġ0": 822,
      "ÙĤØ¯Ùħ": 823,
      "ĠÙĬÙĪÙħ": 824,
      "ØŃÙħ": 825,
      "ĠØªØ³": 826,
      "ĠØ§ÙĦÙħØ¬": 827,
      "Ø¸Ø§Ùħ": 828,
      "Ø³Ø±": 829,
      "ĠØ£ÙĨÙĩ": 830,
      "ĠÙĪÙĥ": 831,
      "ĠØ§ØŃ": 832,
      "es": 833,
      "ÙģØ¹": 834,
      "ØµØ©": 835,
      "ĠÙĪØ²": 836,
      "Ø¯Ø": 837,
      "at": 838,
      "ÙĩÙ": 839,
      "ÙĩÙĦ": 840,
      "ÙĬØ¹": 841,
      "ĠØ§ÙĦÙħÙĤ": 842,
      "ÙĨØ§Ùĥ": 843,
      "ÙĬØ¬": 844,
      "ĠA": 845,
      "ĠÙĪØ§ØŃ": 846,
      "Ø¨ÙĬØ©": 847,
      "ĠØ¨ØŃ": 848,
      "ØªÙ": 849,
      "ØªÙĦ": 850,
      "Ø¹Ø§Ø±": 851,
      "Ø§Ø¹Ø¯": 852,
      "ĠÙĪØ¥": 853,
      "ÙĬØª": 854,
      "ØºÙĬØ±": 855,
      "ĠÙĪÙĨ": 856,
      "Ø´Ø§Ø±": 857,
      "Ø¯ÙĬØ¯Ø©": 858,
      "ØĽ": 859,
      "ĠÙĬÙĨ": 860,
      "ÙĥÙĪÙħ": 861,
      "ÙĦÙĥÙĨ": 862,
      "ØµÙģ": 863,
      "al": 864,
      "Ø¯Ø§": 865,
      "Ø§ÙħØ¬": 866,
      "ĠÙĬØªÙħ": 867,
      "ØªØ¯": 868,
      "ĠØ¢ÙĦØ©": 869,
      "ØªÙĦÙģ": 870,
      "ĠÙħØ¤": 871,
      "ĦÙĤ": 872,
      "ÙĦÙĤ": 873,
      "Ø§ÙĤØ©": 874,
      "ÙĤÙĬÙĤ": 875,
      "ïº": 876,
      "Ø®Ø±Ùī": 877,
      "Ġ,": 878,
      "en": 879,
      "ĠØ§ÙĦØ¶": 880,
      "ĠÙĪÙģ": 881,
      "ĠØ§Øª": 882,
      "ĦÙĬØ©": 883,
      "ÙĦÙĬØ©": 884,
      "ĠØ§ÙĦØ¬Ùħ": 885,
      "Ø¸Ø±": 886,
      "Ø¬Ùĩ": 887,
      "ĠÙħØŃØ·Ùħ": 888,
      "ĠÙħØ«ÙĦ": 889,
      "ÙĥÙĬØ©": 890,
      "Ø§ÙĦØ§Øª": 891,
      "ÙĪØ¯Ø©": 892,
      "ØªÙĥ": 893,
      "ĠP": 894,
      "ĠØ§ÙĦØŃØ¬Ø±": 895,
      "ĠØ§ÙĦØ¹Ø±": 896,
      "ĠÙĪØ§ÙĦØ£": 897,
      "Ø¹ÙħÙĦ": 898,
      "ĠÙĬÙĥÙĪÙĨ": 899,
      "ĠÙĪÙĦØ§": 900,
      "ØªÙĤ": 901,
      "ĠØ§Ø¨": 902,
      "Ġ|": 903,
      "ĠÙĥØ§ÙĨØª": 904,
      "ÙĪÙĨÙĬ": 905,
      "ĠÙĦØ£": 906,
      "Ø¶Ø": 907,
      "Ø¶Ø§": 908,
      "ĠØ¨Ø´ÙĥÙĦ": 909,
      "Ø§Ø³Ø©": 910,
      "ĠØ§ÙĦØ¨ÙĬ": 911,
      "ØªØ¬": 912,
      "ĠØ§ÙĦØ¨Ø±": 913,
      "ĠØ§ÙĦØ¹Ø§Ùħ": 914,
      "Ø±ÙĥØ§Øª": 915,
      "ĠÙĪÙĩÙĪ": 916,
      "ĠÙħØµØ±": 917,
      "ĦÙĩ": 918,
      "ÙĦÙĩ": 919,
      "ÙģØª": 920,
      "ĠS": 921,
      "ĠâĢĵ": 922,
      "ÙħØ§ÙĦ": 923,
      "Ø§Ø±ÙĬØ®": 924,
      "Ø¹ÙĪØ¯": 925,
      "ĠØ§ÙĦØªØŃ": 926,
      "Ø±Ø§Ø±": 927,
      "ĠØ·ØŃÙĨ": 928,
      "ĠØ¬ÙħÙĬØ¹": 929,
      "Ø§Ø¦Ù": 930,
      "Ø§Ø¦ÙĦ": 931,
      "Ø¹ÙĬ": 932,
      "ĠØ¹Ø¨Ø¯": 933,
      "ØªÙħØ§Ø¹": 934,
      "ÙĬØ²": 935,
      "ĠÙĪÙĦÙĥÙĨ": 936,
      "ÙĪØ§Ø±": 937,
      "Ø±ÙĬØ¯": 938,
      "ĠØ§Ø¹": 939,
      "Ø§Ø³ÙĬØ©": 940,
      "Ø§Ø³ÙĬ": 941,
      "Ø§ÙĦØ¨": 942,
      "ĠØ¥Ø°Ø§": 943,
      "ĠØ®Ø·": 944,
      "ĠØ¨Ø£": 945,
      "ĠØªÙĪ": 946,
      "ĠØ«Ùħ": 947,
      "ÙĩØ©": 948,
      "ĠØ§ÙĦÙħØªØŃ": 949,
      "Ġt": 950,
      "ĠØ§ÙĦØ§Øª": 951,
      "ĠØªØ£": 952,
      "ĠÙħØ¨": 953,
      "ÙĪØ£": 954,
      "Ø¬ÙĦØ³": 955,
      "ĠØ¹Ù": 956,
      "ĠØ¹ÙĦ": 957,
      "ÙĦÙĬÙ": 958,
      "ĠØ§ÙĦÙħØ®": 959,
      "ÙĦÙĬÙĦ": 960,
      "ĠØ±Ø¦ÙĬØ³": 961,
      "ÙĬÙĦØ©": 962,
      "Ø¯Ø§Øª": 963,
      "ÙħØ§Ø±": 964,
      "ĠØ§ÙĦØªØ¬": 965,
      "ĠØ£Ø¨": 966,
      "ĠØ§ÙĪ": 967,
      "Ø§Øº": 968,
      "Ø±ÙĬØ©": 969,
      "ÙĬØ¦": 970,
      "ĠC": 971,
      "Ø§ØŃØ©": 972,
      "Ø¯ÙĬÙħ": 973,
      "Ø¹Ø±Ùģ": 974,
      "Ø·ÙĤØ©": 975,
      "ĠÙģØ±": 976,
      "21": 977,
      "ĠØªØ·": 978,
      "Ø¹Øª": 979,
      "ĠØ§ÙĦØ±Ø¦ÙĬØ³": 980,
      "Ø±ÙĪØ¹": 981,
      "ĠØ¨ÙĩØ§": 982,
      "ĠÙĦÙĦØ¨ÙĬØ¹": 983,
      "Ø¯ÙĬØ«": 984,
      "ĠÙĦØ£ÙĨ": 985,
      "Ø¡": 986,
      "Ø§ÙĦØŃ": 987,
      "ĠM": 988,
      "ĠØ§ÙĦØªÙĨ": 989,
      "ÙĬÙĨÙĬ": 990,
      "ic": 991,
      "ĠÙĦÙĥÙĨ": 992,
      "Ġ19": 993,
      "ĠÙħÙ": 994,
      "ĠÙħÙĦ": 995,
      "ĠÙģØ¥ÙĨ": 996,
      "ĠØŃØ³": 997,
      "Ø³Ø¨Ø¨": 998,
      "ØŃÙĪ": 999,
      "ĠÙĨÙģØ³": 1000,
      "Ø³ÙĦØ§Ùħ": 1001,
      "ØµØ¯": 1002,
      "Ø§Ø±Ø¬": 1003,
      "ÙĬØ´": 1004,
      "ĠØ§Ùħ": 1005,
      "ĠØŃÙĪÙĦ": 1006,
      "ĠØ§ÙĦØ¨Ù": 1007,
      "ĠØ§ÙĦØ¨ÙĦ": 1008,
      "ÙĨØ§Ø¡": 1009,
      "ÙħØ§ÙĨ": 1010,
      "ĠØ§ÙĦØ§Ø³Øª": 1011,
      "ĠØ¯Ø±": 1012,
      "ĠØ¸": 1013,
      "ĠØ£ØŃØ¯": 1014,
      "ÙħØª": 1015,
      "Ø±ÙĥØ²": 1016,
      "Ø§Ø¯Ø±": 1017,
      "ÙĪØ±ÙĬØ©": 1018,
      "ĠÙħØŃÙħØ¯": 1019,
      "ĠØ¨Ø£ÙĨ": 1020,
      "Ùį": 1021,
      "Ø§Ø¶ÙĬ": 1022,
      "Ø²ÙĬØ¯": 1023,
      "ĠØ§ÙĦÙħØ¤": 1024,
      "Ø·Ùģ": 1025,
      "ÙĨÙĬÙĨ": 1026,
      "ĠØªØ³Øª": 1027,
      "Ø¹Ø¯ÙĬÙĨ": 1028,
      "Ø¹ÙĦÙħ": 1029,
      "ĠØ§ÙĦÙĪØ·": 1030,
      "ĠØ¹Ø¯Ø¯": 1031,
      "ÙĩØ¨": 1032,
      "ĠØ§ÙĦØ¯ÙĪÙĦ": 1033,
      "Ø´Ùģ": 1034,
      "ĠÙĩÙĨØ§Ùĥ": 1035,
      "ĠÙĤØ§ÙĦ": 1036,
      "ĠØ³Øª": 1037,
      "ĠØ§Ø±": 1038,
      "Ġp": 1039,
      "ĠÙĦÙĦØª": 1040,
      "ÙĪØ·": 1041,
      "ÙĪÙħØ§Øª": 1042,
      "Ø¦Ø©": 1043,
      "ÙĪØ§Ø¡": 1044,
      "Ġ6": 1045,
      "ĠÙĦÙĥ": 1046,
      "ÙĪØ¶": 1047,
      "ĠØ§ÙĦØ¹Ø±Ø¨ÙĬØ©": 1048,
      "ĠØ¹Ø¨Ø±": 1049,
      "ĠÙģÙĬÙĩØ§": 1050,
      "ĠØªÙģ": 1051,
      "ĦØ§Ø«": 1052,
      "ÙĦØ§Ø«": 1053,
      "ĠØ£ØŃ": 1054,
      "ĠØ£Ø¯": 1055,
      "ÙĪÙĨØ©": 1056,
      "ĠØªØŃØª": 1057,
      "Ġ/": 1058,
      "ĠØ´Ø±ÙĥØ©": 1059,
      "Ø¨Øª": 1060,
      "ĠÙĬØ³Øª": 1061,
      "ĠØ¯ÙĪÙĦ": 1062,
      "it": 1063,
      "Ø¨ÙĬÙĤ": 1064,
      "Ø§Ø±ÙĬØ©": 1065,
      "ÙĪØŃ": 1066,
      "Ø¯ÙĬÙĨ": 1067,
      "ĠØ³ÙĨ": 1068,
      "ĠØ§ÙĦØ¨ØŃ": 1069,
      "Ø¹ÙħØ§ÙĦ": 1070,
      "ĠØ§ÙĦØªØ¯": 1071,
      "Ø§Ø¨Ø§Øª": 1072,
      "Ø§ÙĤØªØµ": 1073,
      "ĠÙĦÙĨ": 1074,
      "ÙħØ³": 1075,
      "ÙĩÙĬ": 1076,
      "ĠÙĦÙĩØ§": 1077,
      "Ø§Ø¦Ø±": 1078,
      "Ø§ÙĨØ©": 1079,
      "ÙħÙĪØ¹Ø©": 1080,
      "Ø¨Ùĩ": 1081,
      "ĠØ¬Ùħ": 1082,
      "ĠÙħØµÙĨØ¹": 1083,
      "ĠØ§ÙĬ": 1084,
      "ĠØ¯ÙĬ": 1085,
      "Ø¨Ø¹": 1086,
      "ÙģÙ": 1087,
      "ÙģÙĦ": 1088,
      "ÙħÙĬØ©": 1089,
      "ĠÙĪØ±": 1090,
      "ĠÙĪÙģÙĬ": 1091,
      "ĠØ§ÙĦÙĪÙĤ": 1092,
      "ĠÙģÙĬÙĩ": 1093,
      "Ø§ÙĨÙĪÙĨ": 1094,
      "Ø§ÙģØ¸": 1095,
      "Ø§ÙĤØ¹": 1096,
      "Ø´ÙĬ": 1097,
      "Ø¯Ø«": 1098,
      "ĠØ§ÙĦÙħØªØŃØ¯Ø©": 1099,
      "Ø²Ù": 1100,
      "Ø²ÙĦ": 1101,
      "Ø¹Ø±Ø¶": 1102,
      "ÙĪÙĬØ±": 1103,
      "Ø§ØµÙ": 1104,
      "Ø§ØµÙĦ": 1105,
      "Ø±ÙĬÙĤØ©": 1106,
      "\"ØĮ": 1107,
      "ĠØ£Øµ": 1108,
      "Ø®Ø·": 1109,
      "Ø±ÙĬØ¨": 1110,
      "ĠØ§ÙĦÙħÙĨØª": 1111,
      "om": 1112,
      "ou": 1113,
      "et": 1114,
      "ØªØ§Ø¨": 1115,
      "Ø¹ÙĪØ¯ÙĬØ©": 1116,
      "ĠØªÙĥÙĪÙĨ": 1117,
      "ÙĨØ§ÙħØ¬": 1118,
      "Ø§ØªÙĩ": 1119,
      "...": 1120,
      "ĠØ²ÙĬ": 1121,
      "Ø¹ÙĪ": 1122,
      "ĠÙħÙĪÙĤØ¹": 1123,
      "Ø¸Ùħ": 1124,
      "ĠØ¨Ùĥ": 1125,
      "ĠÙħÙĦÙĬ": 1126,
      "ĠØ¹Ùħ": 1127,
      "ĠÙĦØ¥": 1128,
      "Ġ10": 1129,
      "Ø§ÙĨØ§Øª": 1130,
      "ÙĪØµ": 1131,
      "Ġ8": 1132,
      "ĠÙģÙĤØ·": 1133,
      "ĠÙĬØ¯": 1134,
      "ĠØŃÙĤ": 1135,
      "ĠØ§ÙĦÙĥØ±Ø©": 1136,
      "Ø¨ÙĤ": 1137,
      "is": 1138,
      "ĠØ¯ÙĪÙĨ": 1139,
      "ĠØ¨Ø§ÙĦÙħ": 1140,
      "ĠØ§ÙĦØ£ÙĪÙĦ": 1141,
      "ĠØ¥ÙĦÙĬ": 1142,
      "Ø¶Ø§ÙģØ©": 1143,
      "ĠØ¥ÙĦØ§": 1144,
      "ÙĪÙĩ": 1145,
      "ÙĥÙĪÙħØ©": 1146,
      "Ø±Ø¬": 1147,
      "ĠØ¨Ø·": 1148,
      "ĠÙĥÙĬÙģ": 1149,
      "Ġs": 1150,
      "ĠØ¨Ø¥": 1151,
      "ĠÙĪÙĤØ¯": 1152,
      "ĠØ§ÙĦØ°ÙĩØ¨": 1153,
      "ĠØ£ÙģØ¶ÙĦ": 1154,
      "ĠØ¨ÙĪ": 1155,
      "Ø±ÙĬØ§Ø¶": 1156,
      "ĠØ§ÙĦØ§Ø¬": 1157,
      "ĠÙĤØ·": 1158,
      "ĠØ§ÙĦØ°ÙĬÙĨ": 1159,
      "Ø§ÙĬØ§Øª": 1160,
      "ĠØ§ÙĦÙģØ±": 1161,
      "ĠØ§ÙĦØ³Ù": 1162,
      "ĠØ§ÙĦØ³ÙĦ": 1163,
      "Ø§Ø¹Ø§Øª": 1164,
      "ÙĪØ§ÙĦ": 1165,
      "ĠÙĨÙĤ": 1166,
      "ĠØ§ÙĦØ£Ø®": 1167,
      "Ø§ÙĬØ": 1168,
      "Ø§ÙĬØ§": 1169,
      "ĠÙħÙĨØ°": 1170,
      "Ġ7": 1171,
      "Ø¶Ø±": 1172,
      "ÙĦØ³Ø·": 1173,
      "ĠØ§ÙĦÙħØº": 1174,
      "ĠØ§ÙĦØ¹Ù": 1175,
      "ĠØ§ÙĦØ¹ÙĦ": 1176,
      "ed": 1177,
      "ÙĥØ¯": 1178,
      "Ġc": 1179,
      "201": 1180,
      "Ø¹Ø§Øª": 1181,
      "ĠÙĪÙĩÙĬ": 1182,
      "ØºÙĬ": 1183,
      "ĠØ¬ÙĨ": 1184,
      "ĠØ£Ø®Ø±Ùī": 1185,
      "Ø¬ÙĨ": 1186,
      "Ø¯Ø§Ø±Ø©": 1187,
      "ĠØ£ÙĬØ¶Ø§": 1188,
      "ĠØ£Ø®": 1189,
      "ĠÙĦÙĦØ£": 1190,
      "ĠØ£ÙĪÙĦ": 1191,
      "âĢı": 1192,
      "ĠØ§Ø³ØªØ®Ø¯Ø§Ùħ": 1193,
      "ĠØ®Ø§Ùħ": 1194,
      "Ø§Ø¯ÙĬØ©": 1195,
      "ĠÙĬØ¬Ø¨": 1196,
      "ÙĨÙī": 1197,
      "ĠÙĬØ³": 1198,
      "ĠØ§ÙĦØµØŃ": 1199,
      "ĠØ³Ø¹Ø±": 1200,
      "ĠØ§ÙĦØ§ØŃ": 1201,
      "ĠÙħÙĥ": 1202,
      "Ø°ÙĬ": 1203,
      "ÙĬØ§Ø©": 1204,
      "ÙĬÙģØ©": 1205,
      "ĠÙĪØ§ÙĦØªÙĬ": 1206,
      "Ø§Ø®Ù": 1207,
      "Ø§Ø®ÙĦ": 1208,
      "Ø§Ø¨Ø¹": 1209,
      "ĠØ§ÙĦØµÙĬÙĨ": 1210,
      "ĠØ¹ÙĦÙĬÙĩØ§": 1211,
      "Ø±Ø³": 1212,
      "ĠT": 1213,
      "Ø¬Ø²": 1214,
      "ØªØ®": 1215,
      "ĠØªÙĦÙĥ": 1216,
      "ÙĬÙĥ": 1217,
      "ĠØ¢Ø®Ø±": 1218,
      "Ø£Ø©": 1219,
      "ĠÙħÙĨÙĩØ§": 1220,
      "ĠØ§ÙĦÙĪØ²": 1221,
      "as": 1222,
      "ĠØ§ÙĦÙĤØ±": 1223,
      "ĠØ§ÙĦØ¥ÙĨ": 1224,
      "Ø¯Ùī": 1225,
      "ÙĨØªØ§Ø¬": 1226,
      ").": 1227,
      "ĠØ§ÙĦØªÙĪ": 1228,
      "ĠØ§ÙĦØ³Ø¹ÙĪØ¯ÙĬØ©": 1229,
      "ÙħÙĬÙĦ": 1230,
      "ĠØ§ÙĦØ¬Ø²": 1231,
      "ÙĬØ¡": 1232,
      "Ø§Ø¨ÙĤ": 1233,
      "ĠÙħØ¹Ø¯Ø§Øª": 1234,
      "ĠÙĥØ¨ÙĬØ±": 1235,
      "ĠÙĨØ³": 1236,
      "ĠØ¹ÙħÙĦÙĬØ©": 1237,
      "Ø¬Ø¯": 1238,
      "Ø±ÙĪØ·": 1239,
      "ĠØ§Ø¬": 1240,
      "ÙĬÙĩ": 1241,
      "ØºÙħ": 1242,
      "Ġm": 1243,
      "Ø¶Ø§Ùģ": 1244,
      "ĠÙĦÙĦØŃ": 1245,
      "ØªØ¨Ø±": 1246,
      "Ø¹ÙĬØ©": 1247,
      "Ø¨Ø§Ø¨": 1248,
      "ĠØ±Ø³": 1249,
      "Ø±ÙĬÙħ": 1250,
      "ĠÙĪØ°ÙĦÙĥ": 1251,
      "Ø§Ø°Ø": 1252,
      "Ø§Ø°Ø§": 1253,
      "Ø±ØŃ": 1254,
      "Ø§Ø¦Ø¯": 1255,
      "ØªØ¹": 1256,
      "ØªØ²": 1257,
      "ØºØ·": 1258,
      "ĠØ£Ø´": 1259,
      "ÙĪØ§Ø¹": 1260,
      "ĠØ´Ø®Øµ": 1261,
      "ÙĤÙĬÙĤØ©": 1262,
      "ĠØ§ÙĦØ§Ùħ": 1263,
      "ĠÙĬØ´": 1264,
      "ÙģØ§ÙĤ": 1265,
      "Ø§ÙĬØ±": 1266,
      "ĠØ§ÙĦÙĩÙĨØ¯": 1267,
      "ØºØ©": 1268,
      "le": 1269,
      "ĠÙĤÙĬ": 1270,
      "Ø¶ÙĪØ¹": 1271,
      "Ø§ÙĨØ¨": 1272,
      "ÙĩÙħØ§": 1273,
      "Ø¹ÙĬØ¯": 1274,
      "ĠØ§Ùĥ": 1275,
      "ĠÙĪØ£ÙĨ": 1276,
      "he": 1277,
      "ĠØ§ÙĦÙģÙĥ": 1278,
      "ĠØ£Ùģ": 1279,
      "ĠØ§ÙĦÙħØ·": 1280,
      "ÙĬØ¦Ø©": 1281,
      "ĠÙĪØ§ÙĦØŃ": 1282,
      "Ø§Ø±Ø³": 1283,
      "Ø¹ÙĦÙī": 1284,
      "Ø§ÙĦÙĥ": 1285,
      "Ø¹Ø§Ø¯Ø©": 1286,
      "ĠØ³Ø¨": 1287,
      "ĠØ§ÙĦÙĪÙĤØª": 1288,
      "ĠØªØ±Ùĥ": 1289,
      "ac": 1290,
      "ØªÙĬÙĨ": 1291,
      "ÙĤØ¨": 1292,
      "ĠÙĦØŃ": 1293,
      "ÙħÙĬÙĨ": 1294,
      "ĠÙĦÙĬØ³": 1295,
      "Ø´Ø©": 1296,
      "ÙĪØ§Ø¬": 1297,
      "Ø±Ùī": 1298,
      "ÙĪÙĬÙĦ": 1299,
      "ÙĬØ±Ø§ÙĨ": 1300,
      "ĠØ§ÙĦØ¹Ø±Ø§ÙĤ": 1301,
      "ÙģØ§Øª": 1302,
      "ing": 1303,
      "ĠØ§ÙĦÙĤÙĬ": 1304,
      "Ø§ÙĨØ": 1305,
      "Ø§ÙĨØ§": 1306,
      "Ġ)": 1307,
      "ÙĪÙĦÙī": 1308,
      "ØªØ±ÙĨØª": 1309,
      "Ø¶Ø©": 1310,
      "re": 1311,
      "Ø§ÙĨÙĬØ§": 1312,
      "ĠØ·Ø±ÙĬÙĤ": 1313,
      "ĠÙĦØ¯ÙĬ": 1314,
      "Ø¨Ø·": 1315,
      "ÙĪØ±ÙĥØ³": 1316,
      "ĠÙĪØ§ÙĦØ¥": 1317,
      "ÙĤÙħ": 1318,
      "ÙĦÙĬØ§Øª": 1319,
      "ĠØ§ÙĦØªÙĤ": 1320,
      "ÙĬÙĨØ": 1321,
      "ÙĬÙĨØ§": 1322,
      "ØºÙĬØ±Ø©": 1323,
      "ĠØ§ÙĦØ¥Ø³ÙĦØ§Ùħ": 1324,
      "ĠØ§ÙĦØ¹Ø¯ÙĬØ¯": 1325,
      "ÙĪÙĤÙģ": 1326,
      "ĠÙħØ®ØªÙĦÙģ": 1327,
      "Ø°ÙĥØ±": 1328,
      "Ø§Ø¦ÙħØ©": 1329,
      "ĠØ§ÙĦÙħÙ": 1330,
      "ĠØ§ÙĦÙħÙĦ": 1331,
      "ĠØ§ÙĦØ£ÙħØ±": 1332,
      "ÙħÙĬÙħ": 1333,
      "Ġ9": 1334,
      "Ø§Ø¨Ù": 1335,
      "Ø§Ø¨ÙĦ": 1336,
      "ØªÙħØ¹": 1337,
      "ÙĤÙĪÙĦ": 1338,
      "ĠØ§ÙĦØ¢ÙĨ": 1339,
      "ĠØ§ÙĦØ®Ø§ØµØ©": 1340,
      "Ø¶Ø§Ø¡": 1341,
      "ĠØ³ØŃÙĤ": 1342,
      "ÙĬØ§Ø±": 1343,
      "Ġ200": 1344,
      "ĠØ§ÙĦÙĥØ«ÙĬØ±": 1345,
      "ĠÙĪØ´": 1346,
      "ĠØ§ÙĦØ§Ø¬ØªÙħØ§Ø¹": 1347,
      "ØºÙ": 1348,
      "ØºÙĦ": 1349,
      "Ø¸ÙĬÙħ": 1350,
      "Ø±Ø§Øª": 1351,
      "ĠØ¹ÙĨØ¯ÙħØ§": 1352,
      "ĠÙĪØ§ÙĦØ¹": 1353,
      "ĠØ§Ùģ": 1354,
      "ÙģÙĤ": 1355,
      "ĠÙĪØ¯": 1356,
      "ÙĬØ·": 1357,
      "ĠØ°Ø§Øª": 1358,
      "ĠÙĦÙĪ": 1359,
      "ĠÙħØ¬ÙħÙĪØ¹Ø©": 1360,
      "Ø±Ø¨Ø¹": 1361,
      "Ø§Ø±Ùĥ": 1362,
      "ÙħÙĨØª": 1363,
      "ØªØ§Ø¬": 1364,
      "Ø§ÙĦØ£": 1365,
      "Ø§ÙħØ¹Ø©": 1366,
      "ÙĬØ±ÙĬ": 1367,
      "ĠØ§ÙĦØ£ÙħØ±ÙĬ": 1368,
      "Ø¬Ø±Ø§Ø¡": 1369,
      "Ø¹ÙĦØ§Ùħ": 1370,
      "ÙĬØ§Ø±Ø§Øª": 1371,
      "ĠØ§ÙĦØ³Ø¹Ø±": 1372,
      "ÙĨØ§Ø¹": 1373,
      "ĠB": 1374,
      "ÙĪØ§Ø¨": 1375,
      "ĠG": 1376,
      "ro": 1377,
      "ĠØªØ®": 1378,
      "Ø¸ÙĩØ±": 1379,
      "ÙĩÙĪØ±": 1380,
      "ÙħÙĦÙĥØ©": 1381,
      "Ø§Ø¯Ø§Øª": 1382,
      "ÙĪÙģØ±": 1383,
      "Ġ[": 1384,
      "ĠØ¬Ø¯ÙĬØ¯Ø©": 1385,
      "ÙĪØ«": 1386,
      "ĠØ§ÙĦÙĪÙĦ": 1387,
      "Ø³Ø§Øª": 1388,
      "ĠÙĥÙĨØª": 1389,
      "ĠØ§ÙĦØ®Ø·": 1390,
      "am": 1391,
      "Ø±ÙĬÙģ": 1392,
      "ĠÙĥØ¨ÙĬØ±Ø©": 1393,
      "ĠØµØŃ": 1394,
      "ØªÙĪ": 1395,
      "ad": 1396,
      "ÙĪØ¬Ø¯": 1397,
      "ĠØ³Ù": 1398,
      "ĠØ³ÙĦ": 1399,
      "ĠÙģÙĤØ¯": 1400,
      "ĠØ¨ÙħØ§": 1401,
      "Ø¨Ø¯Ø£": 1402,
      "ĠØ§ÙĦÙħÙĩ": 1403,
      "ÙĭØĮ": 1404,
      "ĠØ§ÙĦØ¹ÙĦÙħ": 1405,
      "ÙĨØ§ÙĨ": 1406,
      "ĠØ§ÙĦØ§Ø®": 1407,
      "ĠÙĦØ¬": 1408,
      "ĠØ¨Ø³Ø¨Ø¨": 1409,
      "Ø²Ø¨": 1410,
      "Ġ12": 1411,
      "Ø§Ø¹Ø¯Ø©": 1412,
      "ĠÙħÙħØ§": 1413,
      "ĠØ§ÙĦØ£ÙĨ": 1414,
      "ØºØ±": 1415,
      "Ø§Ø¦ÙĤ": 1416,
      "ĠØªÙĥ": 1417,
      "ĠØ¨Ø§ÙĦØ¥": 1418,
      "ØªØ±Ø©": 1419,
      "ĠØ§ÙĦØ¥Ùħ": 1420,
      "ĠØ§ÙĦÙħØ¨": 1421,
      "ĠÙĨÙĩ": 1422,
      "ÙĢÙĢÙĢÙĢ": 1423,
      "Ø³ÙĨ": 1424,
      "Ø§ÙĦÙģ": 1425,
      "Ø¨ÙĬØ±": 1426,
      "ĠØ§ÙĦÙĨØ§Ø³": 1427,
      "ĠØ§ÙĦØ§Ø¹": 1428,
      "ĠØ§ÙĦØ´Ø±": 1429,
      "ĠØŃØ¯": 1430,
      "ĠØ§ÙĦØ¹Ø§ÙħØ©": 1431,
      "el": 1432,
      "Ø¹Ø¨Ø©": 1433,
      "ĠÙĨÙĪØ¹": 1434,
      "ĠØ¬Ùĩ": 1435,
      "ĠÙħØ¬ÙĦØ³": 1436,
      "ÙĬÙĨÙĬØ©": 1437,
      "ØŃÙĦØ©": 1438,
      "us": 1439,
      "ĠØ¨ÙĤ": 1440,
      "ion": 1441,
      "Ø§Ø¦Ùħ": 1442,
      "Ø¸ÙħØ©": 1443,
      "ĠÙĪØ§ØŃØ¯": 1444,
      "ĠØ§ÙĦØ¯Ø±": 1445,
      "ĠØ§ÙĦØŃØ±": 1446,
      "ĦØª": 1447,
      "ÙĦØª": 1448,
      "ÙĪÙĨØ": 1449,
      "ÙĪÙĨØ§": 1450,
      "ĠÙĪØ¶Ø¹": 1451,
      "10": 1452,
      "ĠØ§ÙĦØ¥ÙĨØ³": 1453,
      "22": 1454,
      "ÙĤØ¨ÙĦ": 1455,
      "ĠÙĪØ§ÙĨ": 1456,
      "Ø§Ø³Ùħ": 1457,
      "ĠÙĪØ·": 1458,
      "ĠØ§ÙĦØ§ÙĤØªØµ": 1459,
      "il": 1460,
      "ÙĬØ±Ø": 1461,
      "ÙĬØ±Ø§": 1462,
      "ÙĨØ§Ø¹Ø©": 1463,
      "ĠØ§ÙĤ": 1464,
      "Ø³Ø·": 1465,
      "ØŃØ§Ø¯": 1466,
      "ØªØ±Ø§Øª": 1467,
      "Ġ2020": 1468,
      "ĠØ§ÙĦØªØ¹Ø¯ÙĬÙĨ": 1469,
      "Ø§ÙĪÙĨ": 1470,
      "Ø¹Ø¯Ø§Øª": 1471,
      "Ø¬ÙĬÙĦ": 1472,
      "ĠØ£ÙĩÙħ": 1473,
      "ĠD": 1474,
      "ĠØ§ÙĦØ¯ÙĪÙĦØ©": 1475,
      "ĠØ£Ø¬ÙĦ": 1476,
      "ĠØ¬Ø¯Ø§": 1477,
      "ØµØŃ": 1478,
      "ĠÙĪÙĥØ§ÙĨ": 1479,
      "Ø¨ÙĬÙĨ": 1480,
      "Ø³Ø§Ø±Ø§Øª": 1481,
      "ĠØ£ÙĨÙĩØ§": 1482,
      "ĠØ¨Ø³": 1483,
      "Ø·ÙĦÙĤ": 1484,
      "ĠÙĪÙĤØª": 1485,
      "ĠØ§ÙĦØ¹Ùħ": 1486,
      "ĠÙĪØ§ÙĦØ¯": 1487,
      "Ø§Ø¸": 1488,
      "Ø±ÙĪÙģ": 1489,
      "Ø·ÙģØ§ÙĦ": 1490,
      "ĠØ¯Ø§Ø®ÙĦ": 1491,
      ")ØĮ": 1492,
      "ÙĤØ§ÙĦ": 1493,
      "ĠÙĪØ®": 1494,
      "ĠØ§ÙĦØªØµ": 1495,
      "ĠÙĪØ§ÙĦÙĨ": 1496,
      "ĠØ§ÙĦØªØ·": 1497,
      "Ø¶ÙĬ": 1498,
      "ĠØ®Ø§ØµØ©": 1499,
      "ĠØ§ÙĦØ¬ÙĨ": 1500,
      "ÙĥØ«Ø±": 1501,
      "ÙĥØ": 1502,
      "ÙĥØ§": 1503,
      "ĠØ¬Ø¯ÙĬØ¯": 1504,
      "Ø¹Ø§Ùħ": 1505,
      "ĠØ£ÙħØ§Ùħ": 1506,
      "Ġ15": 1507,
      "Ø§ÙĦØ«": 1508,
      "Ø§ÙĦÙī": 1509,
      "ĠÙĬÙħÙĥÙĨÙĥ": 1510,
      "Ġ2021": 1511,
      "ĠF": 1512,
      "ĠØ§ÙĦÙĤØ·": 1513,
      "Ø§Ø¦ÙĬÙĦ": 1514,
      "Ø±Ø¨Ø©": 1515,
      "ĠÙĨØ¸Ø§Ùħ": 1516,
      "Ø±ÙģØ©": 1517,
      "ĠØ¬Ø²": 1518,
      "ÙĮ": 1519,
      "ĠØ§ÙĦØ´ÙĬ": 1520,
      "Ø²ÙĬØ²": 1521,
      "ĠØ§ÙĦØªÙģ": 1522,
      "ĠØŃÙħ": 1523,
      "Ø§ÙģÙĤ": 1524,
      "ĠØ§ÙĦØŃØ¯ÙĬØ¯": 1525,
      "ĠÙĪÙĦÙĬ": 1526,
      "Ø§ÙģÙĬ": 1527,
      "ĠØ§ÙĦØ£ÙĪÙĦÙī": 1528,
      "Ø§Ø·ÙĤ": 1529,
      "ĠÙħÙĨÙĩ": 1530,
      "ĠØ¶Ø¯": 1531,
      "ÙĲÙĳ": 1532,
      "ĠØ§ÙĦØ´Ø±ÙĥØ©": 1533,
      "ÙĥØªÙĪØ±": 1534,
      "ĠH": 1535,
      "ØªÙĨ": 1536,
      "Ø¯ÙĬØ©": 1537,
      "ÙĤØ§Ø¡": 1538,
      "Ø¯ÙħØ§Øª": 1539,
      "Ø§ÙĤØ§Øª": 1540,
      "Ø¨ÙĦØº": 1541,
      "ĠØ«ÙĦØ§Ø«": 1542,
      "Ø¶Ùħ": 1543,
      "Ø¯ÙĬÙĪ": 1544,
      "ĠØ§ÙĦØŃÙĥÙĪÙħØ©": 1545,
      "ÙĪÙģÙĬ": 1546,
      "ĠØ¹Ø¨": 1547,
      "ĠÙħØ¯ÙĬÙĨØ©": 1548,
      "ĠØ¯ÙĪØ±": 1549,
      "ĠØ¹Ø¯Ùħ": 1550,
      "Ø§ÙĦØ¯": 1551,
      "Ø¯ÙħØ©": 1552,
      "ĠÙģÙĩ": 1553,
      "ĠØ£Ø«": 1554,
      "ĠÙĪØ§ØŃØ¯Ø©": 1555,
      "ĠØ§ÙĦØ®Ø§Øµ": 1556,
      "Ø±Øª": 1557,
      "ĠØ§ÙĦØ«Ø§ÙĨÙĬ": 1558,
      "ĠØŃØ§ÙĦØ©": 1559,
      "Ġf": 1560,
      "ÙĦÙĥØªØ±": 1561,
      "ÙħÙĦØ©": 1562,
      "ĠØŃÙ": 1563,
      "ĠØŃÙĦ": 1564,
      "Ø§Ø¦Ø¨": 1565,
      "Ø¸ÙĬÙģ": 1566,
      "ĠL": 1567,
      "ĠR": 1568,
      "ĠØ±ÙĬ": 1569,
      "ÙĪØ¡": 1570,
      "ĠØŃØ§ÙĦ": 1571,
      "ĠØ§ÙĦØ±Ø³": 1572,
      "Ø³Ùĥ": 1573,
      "Ø¤ÙĪÙĦ": 1574,
      "Ø§ØªÙģ": 1575,
      "ÙĪØ¨ÙĬ": 1576,
      "ĠE": 1577,
      "ĠØ¯ÙĪÙĦØ§Ø±": 1578,
      "ĠØ¨Ø±ÙĨØ§ÙħØ¬": 1579,
      "Ø³ÙĬÙĨ": 1580,
      "ĠÙĨØª": 1581,
      "ab": 1582,
      "ĠØ§ÙĦØ£Ø¯": 1583,
      "ÙħØŃ": 1584,
      "ÙĩØ¯Ùģ": 1585,
      "ĠØ§ÙĦØ´Ø®Øµ": 1586,
      "ĠØ§ÙĦÙģÙĪØ±ÙĥØ³": 1587,
      "ÙĪØ³Ø·": 1588,
      "Ø§ÙħØ": 1589,
      "Ø§ÙħØ§": 1590,
      "ĠØ§ÙĦÙĨÙģ": 1591,
      "ĠÙĤØ±": 1592,
      "ÙĪØ±Ø¯": 1593,
      "ÙĦÙĬÙĤ": 1594,
      "ÙĪØ±ÙĬØ": 1595,
      "ÙĪØ±ÙĬØ§": 1596,
      "Ø·Ø§Ø±": 1597,
      "ĠØ´Ø±": 1598,
      "ÙģÙĬØ°": 1599,
      "Ø¨Ø§ØŃ": 1600,
      "ĠÙĪØ¬ÙĪØ¯": 1601,
      "ĠI": 1602,
      "Ġ14": 1603,
      "Ġd": 1604,
      "Ø§Ø³Ø¨": 1605,
      "ØªØ¨Ø§Ø±": 1606,
      "Ġ11": 1607,
      "Ø¨ØŃØ«": 1608,
      "Ø¹ÙĦÙĪÙħØ§Øª": 1609,
      "ĠØ§ÙĦØ®Ø§Ø±Ø¬": 1610,
      "Ø§Ø³ØªØ®Ø¯Ø§Ùħ": 1611,
      "ĠØŃØ¬Ø±": 1612,
      "ÙħØ¹": 1613,
      "ĠÙĪØµ": 1614,
      "ØªØ´": 1615,
      "ÙĪÙĦÙĪØ¬": 1616,
      "ĠØ¨Ø¹": 1617,
      "Ġb": 1618,
      "ĠÙĪÙĩØ°Ø§": 1619,
      "Ø§Ø¨Ø¹Ø©": 1620,
      "ĠØ§ÙĦØ¬Ùĩ": 1621,
      "ĠØ§ÙĦØ±ÙĬØ§Ø¶": 1622,
      "ĠÙĩÙĨØ§": 1623,
      "Ø¬ÙĬ": 1624,
      "ĠØ§ÙĦØ¹Ø±Ø¨ÙĬ": 1625,
      "ĠØŃÙĬÙĨ": 1626,
      "ĠØ§ÙĦØ£ÙħÙĨ": 1627,
      "Ø¬Ø¨": 1628,
      "ĠÙĬØ¤": 1629,
      "Ø§ÙĩØ¯": 1630,
      "Ø§ÙĩØ±Ø©": 1631,
      "ĠØ§ÙĦÙħØ§Ø¶ÙĬ": 1632,
      "Ùł": 1633,
      "Ø®Ø°": 1634,
      "ÙĩØ±Ø¨": 1635,
      "Ø§ÙħÙĦØ©": 1636,
      "ÙĩØ§Ø¨": 1637,
      "ĠÙĪÙħØ§": 1638,
      "ØªÙĩÙħ": 1639,
      "Ø§ØµØ±": 1640,
      "âĢĿ": 1641,
      "ĠØ§ÙĦÙħÙħÙĦÙĥØ©": 1642,
      "ĠÙħØ´Ø±ÙĪØ¹": 1643,
      "ĠØŁ": 1644,
      "ĠØ§ÙĦØªØ³": 1645,
      "ĠÙģÙĬÙħØ§": 1646,
      "ØµØ§ÙĦ": 1647,
      "ĠØ§ÙĦØ¹ÙĤ": 1648,
      "Ø²Ø§Ùħ": 1649,
      "Ø§Ø¬Ø©": 1650,
      "ĠÙħÙģ": 1651,
      "Ø±ÙĪØ³": 1652,
      "ÙĬÙĤ": 1653,
      "ot": 1654,
      "ĠÙĪØ²Ø§Ø±Ø©": 1655,
      "ĠØ§ÙĦÙģÙĦØ³Ø·": 1656,
      "Ø·ÙĦØ¨": 1657,
      "Ø¨ÙĬÙ": 1658,
      "Ø¨ÙĬÙĦ": 1659,
      "ĠØ®Ù": 1660,
      "ĠØ®ÙĦ": 1661,
      "ĠÙĪØºÙĬØ±": 1662,
      "ØŃØ§Øª": 1663,
      "Ø·Ø¨": 1664,
      "Ø´Ø§Ø¡": 1665,
      "Ø·ÙĦØ§ÙĤ": 1666,
      "ĠØ§ÙĦØªØ±": 1667,
      "Ø§ØŃÙĪÙĨØ©": 1668,
      "ĠÙĩÙ": 1669,
      "ĠÙĩÙĦ": 1670,
      "ĠØ´ÙĬØ¡": 1671,
      "Ø§ÙģÙĬØ©": 1672,
      "ĠØ¨ÙĬØ¹": 1673,
      "Ø¯Ùģ": 1674,
      "ĠØªØ·Ø¨ÙĬÙĤ": 1675,
      "ĠØ¨Ø¬": 1676,
      "ÙĪÙĨÙĬØ©": 1677,
      "ĠØ¹ÙĦÙħ": 1678,
      "ÛĮ": 1679,
      "ĠÙħØ¨Ø§Ø´": 1680,
      "Ø¬Ø§Øª": 1681,
      "ĠÙĪØªØŃ": 1682,
      "ĠÙĬØ±": 1683,
      "ĠØ¹Ø§ÙĦÙĬØ©": 1684,
      "Ø§ÙĦØ±": 1685,
      "ĠØ£ÙĥØ¨Ø±": 1686,
      "ĠØ¬Ø¯": 1687,
      "and": 1688,
      "ĠØ§ÙĦÙģØŃÙħ": 1689,
      "ĠØ§ÙĦØ¹ÙĨ": 1690,
      "ĠÙħÙĦÙĬÙĪÙĨ": 1691,
      "ØŃØ¨": 1692,
      "ĠÙħÙĬ": 1693,
      "ĠØ§ÙĦÙĨØ¸Ø§Ùħ": 1694,
      "ĠØ§ÙĦØªØ¯Ø§ÙĪÙĦ": 1695,
      "ÙĪÙĬØª": 1696,
      "ĠØ§ÙĦØ¸": 1697,
      "ĠØ§ÙĦØŃØµÙĪÙĦ": 1698,
      "Ø¬ÙħØ¹": 1699,
      "ÙħØ¤": 1700,
      "ĠØ§ÙĦØ´Ø¹Ø¨": 1701,
      "ĠØ§ÙĦÙħÙĦÙĥ": 1702,
      "ĠØ§ÙĦØ«ÙĤ": 1703,
      "ÙĨÙĬØ¹": 1704,
      "ĠØ§ÙĦØ§Ø±": 1705,
      "ĠÙĨØŃÙĪ": 1706,
      "ĠØ§Ø³Ùħ": 1707,
      "ĠÙħØ±Ø©": 1708,
      "ĠÙĥØ«ÙĬØ±": 1709,
      "ĠÙħØ§Ùĥ": 1710,
      "ÙĥÙĪ": 1711,
      "ĠØ§Ø´": 1712,
      "ĠØ£Ø±": 1713,
      "Ø¹Ø¯Ø§Ø¯": 1714,
      "Ø§Ø¦Ø¹": 1715,
      "ÙĪØ¹Ø©": 1716,
      "ĠØµÙģ": 1717,
      "ÙĨÙĤ": 1718,
      "ĠÙħÙĨØ·ÙĤØ©": 1719,
      "Ø³Ø§ÙĨ": 1720,
      "ĠØ¨Øµ": 1721,
      "Ø±ÙĬÙĤÙĬØ§": 1722,
      "ÙĬÙħÙĥÙĨ": 1723,
      "Ø§ÙģØ¸Ø©": 1724,
      "ĠÙħÙĥØ§ÙĨ": 1725,
      "ØªÙĬØ§Ø±": 1726,
      "ØªÙģØ§Ø¹": 1727,
      "Ø§ÙĨØ¹": 1728,
      "ol": 1729,
      "ØŃØ¯Ø«": 1730,
      "ĠØ£ÙĤ": 1731,
      "ÙĬÙĬÙĨ": 1732,
      "ĠØ§ÙĦØ¬Ø¯ÙĬØ¯": 1733,
      "ĠÙĪÙģÙĤ": 1734,
      "ĠØ³ÙĨØ©": 1735,
      "Ø¶Ù": 1736,
      "Ø¶ÙĦ": 1737,
      "ĠÙĨØ¬": 1738,
      "ĠØ³ÙĪÙģ": 1739,
      "Ø¶ØŃ": 1740,
      "Ġ#": 1741,
      "ĠØ¹Ø±Ø¶": 1742,
      "Ġ2018": 1743,
      "Ø±ÙĬÙĨ": 1744,
      "Ø¨Ø§ÙĦ": 1745,
      "Ø³Ø§Ø¡": 1746,
      "âĢ¦": 1747,
      "Ø´Ø±Ø©": 1748,
      "ĠW": 1749,
      "Ġ2019": 1750,
      "Ø§ÙĩÙħ": 1751,
      "ĠØ§ÙĦØ«ÙĦØ§Ø«": 1752,
      "Ø§Ø¦Ùģ": 1753,
      "Ø§Ø¯Ø±Ø©": 1754,
      "ĠÙĪÙĦÙħ": 1755,
      "Ġw": 1756,
      "Ø®ÙĪÙĦ": 1757,
      "11": 1758,
      "50": 1759,
      "ĠÙĪÙħØ¹": 1760,
      "ĠØªØ§Ø±ÙĬØ®": 1761,
      "ĠÙĬÙģ": 1762,
      "Ġh": 1763,
      "ĠØ¬ÙĨÙĪØ¨": 1764,
      "ĠÙĪØ§Ø³": 1765,
      "ĠØ§ÙĦØªØ´": 1766,
      "ĠØ§ÙĦÙħÙĨØ·ÙĤØ©": 1767,
      "ĠØ§ÙĦØ£ØŃ": 1768,
      "ĠØ§ÙĦÙĨÙĩ": 1769,
      "Ø§Ø³Ø§Øª": 1770,
      "ĠØ£Øº": 1771,
      "Ø§ØŃÙĬØ©": 1772,
      "ĠØ´ÙĩØ±": 1773,
      "ĠØ§ÙĦØ¨ÙĨ": 1774,
      "ĠØ§ÙĦØªØ¹ÙĦÙĬÙħ": 1775,
      "Ø±ÙĬØ·": 1776,
      "ØªØ±Ø§ØªÙĬØ¬": 1777,
      "Ø³Ø±Ø§Ø¦ÙĬÙĦ": 1778,
      "ØºÙĬÙĬØ±": 1779,
      "Ø®Ø§Øµ": 1780,
      "Ø§ØŃÙĨ": 1781,
      "Ø§Ø³Ø¨Ø©": 1782,
      "ÙĨØ³Ø¨Ø©": 1783,
      "ï¿": 1784,
      "Ø·Ø§Øª": 1785,
      "ï¿½": 1786,
      "ĠØ§ÙĦÙĪÙĦØ§ÙĬØ§Øª": 1787,
      "Ġ18": 1788,
      "ĠØ£ÙħØ±": 1789,
      "Ø±Ø¨ÙĬ": 1790,
      "Ø¬Ø§Ø±": 1791,
      "ØºÙĬÙĦ": 1792,
      "ĠØ£Ø¨ÙĪ": 1793,
      "ĠØ§ÙĦØ¯ÙĪÙĦÙĬ": 1794,
      "ĠÙĥÙħ": 1795,
      "ØªÙħØ±": 1796,
      "ĠÙĪØ²ÙĬØ±": 1797,
      "Ø«ÙħØ§Ø±": 1798,
      "ĠØ§ÙĦØ£ÙĪØ±": 1799,
      "ĠØ¶ÙħÙĨ": 1800,
      "ĠÙĦÙĥÙĦ": 1801,
      "ĠÙĪØ§ÙĦØ´": 1802,
      "ĠÙĪØ§ÙĦØ³": 1803,
      "ĠØŃØ³Ø§Ø¨": 1804,
      "ĠØ§ÙĦÙĪØ·ÙĨÙĬ": 1805,
      "ĠÙħØ«": 1806,
      "Ø§ÙĦØ¹": 1807,
      "ĠØ§ÙĦØ¬Ø¯ÙĬØ¯Ø©": 1808,
      "ĠØ§ÙĦØ£Ø±Ø¶": 1809,
      "12": 1810,
      "ÙĪØ¨Ø©": 1811,
      "ØµÙĪØ±": 1812,
      "ĠÙĦÙĦØ¥": 1813,
      "ĠÙĤØ§Ùħ": 1814,
      "Ġ100": 1815,
      "ĠØ§ÙĨØª": 1816,
      "ĠØ§ÙĦÙħØ²ÙĬØ¯": 1817,
      "ow": 1818,
      "ĠÙĨÙĬ": 1819,
      "ĠØ§ÙĦÙĦÙĬ": 1820,
      "ĠØ§ÙĦÙħÙģ": 1821,
      "Ø§Ø±Ø¯": 1822,
      "Ø§ØªÙĩØ§": 1823,
      "id": 1824,
      "ĠØ§ÙĦØŃÙĬØ§Ø©": 1825,
      "ĠØªØ¯Ø§ÙĪÙĦ": 1826,
      "ĠÙħÙĩ": 1827,
      "ĠØ£ÙĦÙģ": 1828,
      "ĠØªÙ": 1829,
      "ĠØ®Øµ": 1830,
      "ĠØªÙĦ": 1831,
      "ĠÙĬØ": 1832,
      "ĠÙĬØ§": 1833,
      "Ø¯ÙĬÙ": 1834,
      "Ø¯ÙĬÙĦ": 1835,
      "Ø·ÙĬØ¹": 1836,
      "ent": 1837,
      "Ø§ØµÙĬÙĦ": 1838,
      "ĠÙĦÙĦØ´": 1839,
      "Ø¨Ø§Ø±Ø§Ø©": 1840,
      "ÙĪØ¬Ùĩ": 1841,
      "ĠÙħØ³ØªÙĪÙī": 1842,
      "ĠÙħØ¶": 1843,
      "ĠØ´Ø±ÙĥØ§Øª": 1844,
      "ĠØ§ÙĦØ³ÙĪØ¯": 1845,
      "ĠÙħØ²": 1846,
      "ag": 1847,
      "ÙĥØ³Ø§Ø±Ø©": 1848,
      "ĠÙĦØ¨ÙĨ": 1849,
      "Ø²Ùħ": 1850,
      "ĠØ§ÙĦÙħÙĥ": 1851,
      "ĠØ§ÙĦÙħØ§ÙĦÙĬØ©": 1852,
      "ĠØ³Ø±": 1853,
      "ĠØ§ÙĦØ´Ø±ÙĥØ§Øª": 1854,
      "Ø¯Ø§Ø¯": 1855,
      "ĠÙĪØ¥ÙĨ": 1856,
      "ÙģØ§Ø¡": 1857,
      "of": 1858,
      "ĠØ§ÙĦØ¨ØŃØ«": 1859,
      "ĠÙĦØªØŃ": 1860,
      "!!": 1861,
      "ĠÙħØ§ÙĬ": 1862,
      "ĠØ§ÙĦØ³ÙĪÙĤ": 1863,
      "ĠØ´Ø¨": 1864,
      "ÙĥÙħØ§": 1865,
      "ĠØ§ÙĦØ¥ÙĨØ³Ø§ÙĨ": 1866,
      "ĠØµÙĪØ±": 1867,
      "Ø¹ÙĦÙĤ": 1868,
      "ĠÙĬØµ": 1869,
      "ĠØªØ¨": 1870,
      "ĠØ¥Ø°": 1871,
      "Ø§Ø¯Ù": 1872,
      "Ø§Ø¯ÙĦ": 1873,
      "ĠÙĬØ®": 1874,
      "ĠÙĦÙĩÙħ": 1875,
      "Ø§ØªØ¨": 1876,
      "Ø¹ÙĦÙĨ": 1877,
      "ĠØ£ÙĬØ¶": 1878,
      "Ø®Ø±Ø¬": 1879,
      "ĠØ§ÙĦØªØ£": 1880,
      "Ø³Ø¨ÙĪØ¹": 1881,
      "Ø§ÙĪÙĬ": 1882,
      "ÙĬÙĨØ§Øª": 1883,
      "Ø³ÙĥØ±": 1884,
      "ĠØ§ÙĦØ£Ø´": 1885,
      "ĠÙĪØ§ÙĦÙģ": 1886,
      "ĠØ§ÙĦØ£Ø®Ø±Ùī": 1887,
      "ÙĪÙĤØ§ÙĦ": 1888,
      "ĠÙĥÙĪØ±": 1889,
      "ĠØ§ÙĦØ¥ÙĦÙĥØªØ±": 1890,
      "Ø¬ÙĩØ²Ø©": 1891,
      "ĠØ§Ø¨ÙĨ": 1892,
      "ÙģØ¸": 1893,
      "ĠØ§ÙĦØ´ÙĬØ®": 1894,
      "19": 1895,
      "Ø§Ø¹Ø¨": 1896,
      "ĠØŃØ±": 1897,
      "ĠØ¹ÙĨÙĩ": 1898,
      "ĠÙĦØ°ÙĦÙĥ": 1899,
      "ĠØ§ÙĦÙĤØ§ÙĨÙĪÙĨ": 1900,
      "ec": 1901,
      "ĠÙħØ®Ø±ÙĪØ·": 1902,
      "ĠÙĥØªØ§Ø¨": 1903,
      "Ø£Øª": 1904,
      "ĠâĢľ": 1905,
      "ĠØ³ÙĨÙĪØ§Øª": 1906,
      "Ø§Ø´Ø©": 1907,
      "ĠÙħØ±ÙĥØ²": 1908,
      "ØªØ³": 1909,
      "ĠØ§ÙĦØ¨Ø·": 1910,
      "ÙĨØ¨": 1911,
      "ĠØ¥Ø¯Ø§Ø±Ø©": 1912,
      "ĠØ§ÙĦØªØ±Ùĥ": 1913,
      "Ø§Ø¦Ø¬": 1914,
      "ĠÙĦÙĢ": 1915,
      "ĠØ§ÙĦØŃØ¯ÙĬØ«": 1916,
      "ĠØ§ÙĦØ¯ÙĥØªÙĪØ±": 1917,
      "ÙĤØ±ÙĬØ±": 1918,
      "ĠØ±ÙĤÙħ": 1919,
      "Ø£ÙĬ": 1920,
      "ĠØ§ÙĦØ³Ø§Ø¹Ø©": 1921,
      "ĠØ§ÙĦØ¹Ø¯": 1922,
      "ĠÙĦÙħÙĨ": 1923,
      "ĠÙħØ¬Ø§ÙĦ": 1924,
      "Ø¹ÙĪØ¯ÙĬ": 1925,
      "ÙģØ§Ø¹": 1926,
      "Ġ30": 1927,
      "ĠØ§ÙĦÙħØµØ±ÙĬ": 1928,
      "ĠØ·Ø§ØŃÙĪÙĨØ©": 1929,
      "Ø®ÙĬ": 1930,
      "ÙħÙĬØ²": 1931,
      "ĠØ§ÙĦÙĬÙħÙĨ": 1932,
      "Ø³ÙĬØ·": 1933,
      "ĠN": 1934,
      "ĠØ·Ø±ÙĬÙĤØ©": 1935,
      "ĠÙĦØ¯Ùī": 1936,
      "ĠØ§ÙĦØ®Ø§Ùħ": 1937,
      "ÙĥÙĦÙģØ©": 1938,
      "ĠÙĦØ´": 1939,
      "ĠÂ»": 1940,
      "ĠØ¨Ø§ÙĦØ£": 1941,
      "ĠÙģÙ": 1942,
      "ĠÙģÙĦ": 1943,
      "ĠÙĨÙģ": 1944,
      "Ø§ÙĩØ": 1945,
      "Ø§ÙĩØ§": 1946,
      "Ø°ÙĩØ¨": 1947,
      "ĠØ§ÙĦØ£ÙħÙĬØ±": 1948,
      "ĠØ§ÙĦØ¯ÙĬÙĨ": 1949,
      "--": 1950,
      "ĠÙĦÙĦÙĨ": 1951,
      "ĠØ£ÙĪØ±": 1952,
      "ÙĪØ§ÙĤ": 1953,
      "ĠÙĤØµ": 1954,
      "ĠØ§ÙĦÙħÙĬ": 1955,
      "ĠÙĨÙģØ³Ùĩ": 1956,
      "Ø¬Ø§ÙĦ": 1957,
      "ĠÙĥØ³Ø§Ø±Ø§Øª": 1958,
      "Ø§Ø¨ÙĤØ©": 1959,
      "ĠØ¹Ø´Ø±": 1960,
      "Ø§ÙħÙĬ": 1961,
      "ĠØ§ÙĦØ¹Ø§ÙĦÙħÙĬØ©": 1962,
      "Ġ13": 1963,
      "ĠØªØ³ØªØ®Ø¯Ùħ": 1964,
      "ĠØ£ØŃÙħØ¯": 1965,
      "ĠÙģØ±ÙĬÙĤ": 1966,
      "ĦØ§Ø¡": 1967,
      "ÙĦØ§Ø¡": 1968,
      "ĠØ§ÙĦØŃØ¯": 1969,
      "ĠØ¨ÙĢ": 1970,
      "Ø¶ÙħÙĨ": 1971,
      "ĠÙĪØ§ÙĦØ°ÙĬ": 1972,
      "ĠÙĬÙĤÙĪÙĦ": 1973,
      "ĠØ±Ùħ": 1974,
      "ÙĳÙİ": 1975,
      "ÙĥÙĦØ©": 1976,
      "ĠØ¨ÙĨØ§Ø¡": 1977,
      "ÙĩÙħØ©": 1978,
      "ĠØ°ÙĥØ±": 1979,
      "Ø®ÙĪØ±": 1980,
      "ĠØ£Ø³Ø¹Ø§Ø±": 1981,
      "ĠØªÙĤØ¯Ùħ": 1982,
      "ĠÙĪØ§Ø³Øª": 1983,
      "ĠØ§ÙĦØ¯Ùħ": 1984,
      "ĠØ§ÙĦÙħØŃÙħ": 1985,
      "ĠØªÙĩ": 1986,
      "Ø¨ÙĬØ¨": 1987,
      "Ø³ÙĬÙĤ": 1988,
      "ĠÙĥÙĬÙģÙĬØ©": 1989,
      "ĠØ³Ùħ": 1990,
      "ĠØ§ÙĦØŃÙ": 1991,
      "ĠØ§ÙĦØŃÙĦ": 1992,
      "Ġl": 1993,
      "oo": 1994,
      "ĠÙĪØ§ÙĦÙĤ": 1995,
      "ØªÙĪÙĬ": 1996,
      "ĠØ£ÙĨÙĪØ§Ø¹": 1997,
      "ØŃÙĬØŃ": 1998,
      "ĠØ§ÙĦÙħØ§ÙĦ": 1999,
      "Ø¹Ùī": 2000,
      "ÙĪÙģÙĬØ±": 2001,
      "Ø³ØªØ±": 2002,
      "Ø§Ø±Ø¨": 2003,
      "ĠØ§ÙĦÙħØ¹ÙĦÙĪÙħØ§Øª": 2004,
      "ĠØ¹ÙħØ±": 2005,
      "ĠÙĤØ¶": 2006,
      "Ø§ÙĦØ¬Ø©": 2007,
      "ĠØµØºÙĬØ±Ø©": 2008,
      "ĠØ¥ÙĨØªØ§Ø¬": 2009,
      "Ø®Ø©": 2010,
      "ĠÙĨÙĤÙĦ": 2011,
      "ĠØ§ÙĦØŃÙĤ": 2012,
      "ĠØ§ÙĦÙħØ¬ØªÙħØ¹": 2013,
      "st": 2014,
      "Ġthe": 2015,
      "Ø®ØµØµ": 2016,
      "Ø²ÙħØ©": 2017,
      "ĠÙģØ¹": 2018,
      "Ø§Ø¬ÙĩØ©": 2019,
      "Ġ2017": 2020,
      "Ø¨ÙĪ": 2021,
      "ĠØ¬Ø±": 2022,
      "ÙĥØ±Ø©": 2023,
      "ĠØ§ÙĦØ£ÙħØ±ÙĬÙĥÙĬØ©": 2024,
      "Ġ2016": 2025,
      "Ø§Ø¦Ø¯Ø©": 2026,
      "Ø®Ø¯ÙħØ©": 2027,
      "ĠØ§ÙĦÙĤØ¯": 2028,
      "Ġin": 2029,
      "ĠØ¯ÙĪÙĦØ©": 2030,
      "Ø±Ø§Ø¹": 2031,
      "Ø§ÙĥÙ": 2032,
      "Ø§ÙĥÙĦ": 2033,
      "ĠØ§ÙĦØ¯Ø§Ø®": 2034,
      "ÙĨØ§Ø¦ÙĬØ©": 2035,
      "ĠÙĨØµ": 2036,
      "ÙĥÙĬÙģ": 2037,
      "ĠØ§ÙĦØ³ÙĨ": 2038,
      "ĠØ£Ø¹": 2039,
      "ĠØªØŃÙĤÙĬÙĤ": 2040,
      "Ø§ÙĪÙĦØ©": 2041,
      "Ø¬ÙĦÙĬ": 2042,
      "ĠÙħØ¹Ù": 2043,
      "ĠÙħØ¹ÙĦ": 2044,
      "ØµÙī": 2045,
      "ĠØ·ÙĨ": 2046,
      "ĠÙĨØ´": 2047,
      "ur": 2048,
      "Ø¨Ø³": 2049,
      "ĠØ§ÙĦÙħÙĪÙĤØ¹": 2050,
      "Ø¢ÙĨ": 2051,
      "ĠØ§ÙĦØ¥ÙħØ§Ø±Ø§Øª": 2052,
      "Ø§Ø¬Ø§Øª": 2053,
      "ĠÙĪØ¬Ùĩ": 2054,
      "ĠØ§ÙĦØŃÙĬ": 2055,
      "ĠØ§ÙĦÙĨÙĤ": 2056,
      "Ø«Ùħ": 2057,
      "Ø²Ø§ÙĦ": 2058,
      "Ø§Ø±ÙĥØ©": 2059,
      "ĠØ¯Ø§Ø¦": 2060,
      "ĠØ·ÙĦØ¨": 2061,
      "ĠÙĪØ¹ÙĦÙī": 2062,
      "ĠØ§ÙĦØ¯ÙĪÙĦÙĬØ©": 2063,
      "ÙĥØ§Ø±": 2064,
      "Ġ16": 2065,
      "Ø¬Ø§Ùĩ": 2066,
      "ĦØ§Ùģ": 2067,
      "ÙĦØ§Ùģ": 2068,
      "ĠÙĦÙĤ": 2069,
      "ĠØªÙĤØ¯ÙĬÙħ": 2070,
      "Ø¯Øª": 2071,
      "ĠÙĦØ§ÙĨ": 2072,
      "ĠØ¨Ø§ÙĦØ¥Ø¶Ø§ÙģØ©": 2073,
      "ĠØ¹Ø§ÙĦÙħ": 2074,
      "ĦØ¹": 2075,
      "ĠØ§ÙĦØ´Ø¹Ø±": 2076,
      "ÙĦØ¹": 2077,
      "ĠÙĪØ§ÙĦØµ": 2078,
      "Ø¥Ø°Ø§": 2079,
      "ĠÙĦØ³": 2080,
      "Ġ24": 2081,
      "ĠØµÙĨØ¹": 2082,
      "ĠØ§ÙĦØªÙī": 2083,
      "Ø¸Ø©": 2084,
      "ĠØ§ÙĦØ¥ÙĨØªØ±ÙĨØª": 2085,
      "30": 2086,
      "ĠØ¹Ø¯Ø©": 2087,
      "ĠØ±ÙĪ": 2088,
      "ĠÙĬØ¹ÙĨÙĬ": 2089,
      "ĠÙĨØ´Ø±": 2090,
      "ĠØ§ÙĦØ³ÙĦØ§Ùħ": 2091,
      "ĠØ§ÙĦÙĪØ·ÙĨÙĬØ©": 2092,
      "ĠØ§ÙĦØµÙģ": 2093,
      "ÙħØ·": 2094,
      "Ø§Ø¬Ùĩ": 2095,
      "ĠØ¬ÙĬØ¯": 2096,
      "ĠØªØªÙħ": 2097,
      "ĠØ§ÙĦØ´Ø±ÙĤ": 2098,
      "ÙĪÙĬÙĨ": 2099,
      "ÙħÙĬØ³": 2100,
      "ÙĥÙĨÙĪÙĦÙĪØ¬": 2101,
      "ĠØ§ÙĦÙħÙĪØ§Ø·": 2102,
      "ĠØ§ÙĦÙħØ«": 2103,
      "ĠÙĢ": 2104,
      "ĠO": 2105,
      "ÙĪÙĨØ³": 2106,
      "ĠØ§ÙĦÙħÙĪØ§Ø¯": 2107,
      "ay": 2108,
      "000": 2109,
      "ĠØ§ÙĦÙĢ": 2110,
      "ĠØ¥ÙĨÙĩ": 2111,
      "ĠÙģØªØŃ": 2112,
      "Ø§ÙĦØ³": 2113,
      "ĠØ§ÙĦØ«Ø§ÙĦØ«": 2114,
      "ÙĦØ³ÙĦØ©": 2115,
      "Ùĭ.": 2116,
      "Ø¯Ùĩ": 2117,
      "ĠÙĪØ³ÙĦÙħ": 2118,
      "ĠØ§ÙĦØªØ§Ø±ÙĬØ®": 2119,
      "ĠØ§ÙĦØ®ÙĬØ§Ø±Ø§Øª": 2120,
      "ĠØ¨ÙĥÙĦ": 2121,
      "ĠØ¨Ø§Ø±": 2122,
      "ĠØ£Ø«ÙĨØ§Ø¡": 2123,
      "Ø¬Ø§Ø²": 2124,
      "ĠØ±Ø¨": 2125,
      "ĠØ¬Ø§ÙĨØ¨": 2126,
      "Ø³Ø³Ø©": 2127,
      "ÙĨØ§Ø©": 2128,
      "ĠÙĬÙĥ": 2129,
      "ĠØ¹ÙĤ": 2130,
      "ĠÙĪØªØ¹": 2131,
      "ÙĪÙħØ©": 2132,
      "ĠØ¬Ø§Ø¡": 2133,
      "Ø§Ø¨ÙĬØ©": 2134,
      "ĠØ¯Ø¹": 2135,
      "ĠØ§ÙĦØ§ØªØŃØ§Ø¯": 2136,
      "ØŃÙĪÙĤ": 2137,
      "ĠØ§ÙĦÙĤØ¶": 2138,
      "ÙħØ«ÙĦ": 2139,
      "ØªÙħØ§Ùħ": 2140,
      "ÙĥÙħØ©": 2141,
      "ĠØ§ÙĦÙħØ±ÙĥØ²": 2142,
      "ĠØ¬ÙĬ": 2143,
      "Ø§Ø¬Ø±": 2144,
      "ØªÙĬØ¬Ø©": 2145,
      "ĠØŃØ³Ø¨": 2146,
      "ĠÙħØ¯ÙĬØ±": 2147,
      "ĠØ¨Ùģ": 2148,
      "Ø§ÙĦÙħÙĬ": 2149,
      "Ø§Ø¦ØŃ": 2150,
      "ÙĤØª": 2151,
      "ØµØ§Ø¨Ø©": 2152,
      "com": 2153,
      "ØŃØµ": 2154,
      "ĠØ§ÙĦØ¥Ø¹ÙĦØ§Ùħ": 2155,
      "ÙĩØ¯Ø§Ùģ": 2156,
      "ĠÙĦÙģ": 2157,
      "ĠÙĤØ§Ø¦ÙħØ©": 2158,
      "ĠØ®Ø§Ø±Ø¬": 2159,
      "ĠØ§ÙĦØ¹Ø±Ø¨": 2160,
      "ĠØ§ÙĦØ£Ø¹ÙħØ§ÙĦ": 2161,
      "ÙĨÙĬÙĩ": 2162,
      "ĠØ§ÙĨÙĩ": 2163,
      "ÙĪØªØ±": 2164,
      "ĠØ§ÙĦÙģÙĬ": 2165,
      "ĠÙģØ£": 2166,
      "ĠØªÙĤÙĪÙħ": 2167,
      "Ø§Ø¨ÙĬ": 2168,
      "ĠØ³Ø§Ø¹Ø©": 2169,
      "Ø¨ÙĬØ": 2170,
      "Ø¨ÙĬØ§": 2171,
      "ĠØ¨Ø§ÙĦÙĨØ³Ø¨Ø©": 2172,
      "ĠÙĬÙĤÙĪÙħ": 2173,
      "ĠØªØ¹ÙħÙĦ": 2174,
      "ĠÙħØ®ØªÙĦÙģØ©": 2175,
      "ĠÙģØ¹ÙĦ": 2176,
      "ĠÙĥØ§ÙģØ©": 2177,
      "Ø¬Ø§ÙĨ": 2178,
      "ĠØ§ÙĦØ¢Ø®Ø±": 2179,
      "ØªØ¬Ø§Øª": 2180,
      "ĠØªØŃÙħÙĬÙĦ": 2181,
      "ÙĪÙĦØ": 2182,
      "ÙĪÙĦØ§": 2183,
      "ĠØªØ¤": 2184,
      "ĠØªØ¹Ø§ÙĦÙī": 2185,
      "ĠØ§ÙĦØ´Ø¹": 2186,
      "Ø§Ø¯Ø«": 2187,
      "Ġ17": 2188,
      "ÙĦÙĬØ": 2189,
      "ÙĦÙĬØ§": 2190,
      "ĠÙĬØ£": 2191,
      "ĠØ§ÙĦÙħØ¯ÙĬÙĨØ©": 2192,
      "ĠÙĦØµ": 2193,
      "ĠØ§ÙĦØ¨ÙĦØ§Ø¯": 2194,
      "ÙĥØ§ÙĦ": 2195,
      "ĠØ§Ø¯": 2196,
      "ÙĤØ±Ø§Ø±": 2197,
      "Ø§Ø±Ø¹": 2198,
      "Ġa": 2199,
      "Ø±ÙĪØ¶": 2200,
      "ĠØ±Ø¤": 2201,
      "ØªÙħØ¯": 2202,
      "Ø±ÙĬÙ": 2203,
      "Ø±ÙĬÙĦ": 2204,
      "ĠØ¨Ø¯ÙĪÙĨ": 2205,
      "Ø³ØªØ§ÙĨ": 2206,
      "ĠÙĪÙĤØ§ÙĦ": 2207,
      "Ø·ÙĬ": 2208,
      "ÙıÙĳ": 2209,
      "ĠØ§ÙĦØ·Ø¨ÙĬØ¹": 2210,
      "ĠØ§ÙĦØ³Ø§Ø¨ÙĤ": 2211,
      "ri": 2212,
      "ĠÙĪØ¹Ø¯": 2213,
      "ÙĪØ¨ÙĬØ©": 2214,
      "ĠØ£ØµØ¨ØŃ": 2215,
      "ĠØªØ£Ø«ÙĬØ±": 2216,
      "ØªØ±Ùĥ": 2217,
      "ĠØ§ÙĦØ¬Ø±": 2218,
      "Ø³Ø¨Ø§Ø¨": 2219,
      "ÙĦØ§Ø©": 2220,
      "Ø¬ÙĨØ©": 2221,
      "ĠØ§ÙĦÙħØ³ÙĦÙħ": 2222,
      "Ø±ÙĬØŃ": 2223,
      "ĠÙĨØ¸Ø±": 2224,
      "ĠÙĦÙħØ§": 2225,
      "Ø³Ø³Ø§Øª": 2226,
      "Ø¬Ø±Ø§Ø¡Ø§Øª": 2227,
      "ch": 2228,
      "ĠØ¬ÙĩØ§Ø²": 2229,
      "Ø§ÙĦØ¬": 2230,
      "ĠØ§ÙĦØ±Ø¦ÙĬØ³ÙĬØ©": 2231,
      "Ø§ÙĥÙĨ": 2232,
      "Ø§ØŃÙ": 2233,
      "Ø§ØŃÙĦ": 2234,
      "ĠØŃÙĪ": 2235,
      "ĠØªØµÙĨÙĬØ¹": 2236,
      "ØªÙĨØ§": 2237,
      "ĠØ®Ø¯ÙħØ©": 2238,
      "ĠØ§ÙĦØ®Ø§Ø±Ø¬ÙĬØ©": 2239,
      "Ø°Ø±": 2240,
      "ĠØ§ÙĦØ³ÙĬØ§Ø³ÙĬØ©": 2241,
      "ĠÙģÙĨ": 2242,
      "ĠÙĦØ¯": 2243,
      "ÙĤÙĤ": 2244,
      "Ø°ÙĬØ©": 2245,
      "ĠØ§ÙĦØ«Ø§ÙĨÙĬØ©": 2246,
      "Ø·Ø§Ø¡": 2247,
      "ĠÙĥÙĪØ±ÙĪÙĨØ§": 2248,
      "ĠØµÙĦÙī": 2249,
      "ØŃØ§Ø¨": 2250,
      "ĠØ¨Ø§ÙĨ": 2251,
      "Ġg": 2252,
      "ĠØ¥Ùħ": 2253,
      "ØªØ®Ø§Ø¨Ø§Øª": 2254,
      "ĠÙĦÙĦØ¹": 2255,
      "Ø·Ø§ÙĨ": 2256,
      "Ġof": 2257,
      "ĠÙĬØ¹ÙħÙĦ": 2258,
      "Ø¨Ø¯ÙĪ": 2259,
      "Ø§ØŃØ¨": 2260,
      "ĠØµÙĨØ§Ø¹Ø©": 2261,
      "Ġ25": 2262,
      "Ø§Ø·Ø±": 2263,
      "ĠÙħØªØ±": 2264,
      "ĠØ§Øµ": 2265,
      "ĠØ´Ø±Ø§Ø¡": 2266,
      "Ø®Ø¨": 2267,
      "Â·": 2268,
      "ĠØ³ÙĪÙĤ": 2269,
      "ÙĩØ°Ø§": 2270,
      "Â».": 2271,
      "ĠØ³ÙĪØ§Ø¡": 2272,
      "ĠØ§ÙĦÙħØ²": 2273,
      "ÙĪÙĬØ§Øª": 2274,
      "ĠÙĤØ¯Ø±": 2275,
      "ĠØ³ÙĦØ³ÙĦØ©": 2276,
      "Ø§Ø¬Ø¹": 2277,
      "ÙĪØ´": 2278,
      "ĠØ§ÙĦØ£ØŃØ¯": 2279,
      "ĠØªØµÙħÙĬÙħ": 2280,
      "ĠÙģØªØ±Ø©": 2281,
      "ÙĥÙĬÙĦ": 2282,
      "ĠØ³ÙĪØ±ÙĬØ§": 2283,
      "ĠØ£ÙĬØ§Ùħ": 2284,
      "ĠÙĨÙĩØ§ÙĬØ©": 2285,
      "Ø§Ø¨Ø·": 2286,
      "....": 2287,
      "ĠØ§ÙĦÙħÙĪØ¬": 2288,
      "Ø§ÙĦÙĩ": 2289,
      "Ø±ÙĬØ±": 2290,
      "ĠÙĦÙĦØº": 2291,
      "em": 2292,
      "un": 2293,
      "Ø¨Ø¹Ø¯": 2294,
      "ĠØ§ÙĦØ§Ø¨": 2295,
      "ĠÂ·": 2296,
      "14": 2297,
      "ĠÙħØ¹Ø¯": 2298,
      "ĠØ±Ø£Ø³": 2299,
      "ÙħØµ": 2300,
      "ĠØ§ÙĦØ¥Ø±": 2301,
      "Ø±ÙĬØ¹": 2302,
      "Ø§ÙĦÙĬØ§": 2303,
      "ĠØ§ÙĦØ·Ø§ÙĤØ©": 2304,
      "ÙĥØ³ÙĬØ±": 2305,
      "ĠÙĪØªÙħ": 2306,
      "ĠØ¥ÙĦÙĬÙĩ": 2307,
      "ĠÙĪØ¸": 2308,
      "ĠØŃØ¬Ùħ": 2309,
      "Ø§ÙĩØ±": 2310,
      "ĠØ§ÙĦÙħØµØ±ÙĬØ©": 2311,
      "ÙģÙĬÙĨ": 2312,
      "ĠØ¹ÙĦÙĬÙĥ": 2313,
      "ÙĪØ¨Ø": 2314,
      "ÙĪØ¨Ø§": 2315,
      "Ø§ÙĬÙĨ": 2316,
      "ĠÙħØ³Ø§Ø¡": 2317,
      "Ø§ÙĦØ¥": 2318,
      "Ø§Ø¦ÙĦØ©": 2319,
      "ĠØ¨Ø§ÙĦÙĤ": 2320,
      "ĠØ£Ø¬": 2321,
      "ice": 2322,
      "ĠÙĦÙħØ¯Ø©": 2323,
      "ĠØ§ÙĦØªØ¬Ø§Ø±ÙĬØ©": 2324,
      "ÙĨØ¯ÙĤ": 2325,
      "Ø§Ø¹ÙĬ": 2326,
      "ĠØ§ÙĦØªÙĪØ§ØµÙĦ": 2327,
      "ĠØ£Ø¹ÙħØ§ÙĦ": 2328,
      "ĠÙĪÙĥØ°ÙĦÙĥ": 2329,
      "ÙĪÙĨÙĬÙĪ": 2330,
      "ĠÙĤØ·Ø¹": 2331,
      "ĠØŃØ¯ÙĬØ«": 2332,
      "ĠØ²ÙĪØ¬": 2333,
      "Ġand": 2334,
      "ĠØ§ÙĦØ¹ÙħÙĦØ§Øª": 2335,
      "ĠÙĨØ¸": 2336,
      "ĠØ¨ÙħÙĨ": 2337,
      "ĠØ§ÙĦÙħØ¬ÙĦØ³": 2338,
      "Ø³ØªØ®Ø¯Ùħ": 2339,
      "ĠØ§ÙĦÙģØ±ÙĬÙĤ": 2340,
      "ĠÙĩÙħ": 2341,
      "ĠØ¢ÙĦØ§Øª": 2342,
      "ĠØ§ÙĦØ£Ø·ÙģØ§ÙĦ": 2343,
      "ĠØ§ÙĦØµØ®ÙĪØ±": 2344,
      "ĠÙĬÙĪØ¬Ø¯": 2345,
      "ĠØ§ÙĦÙĨÙģØ·": 2346,
      "ÙĪØ¶ØŃ": 2347,
      "ĠØ®Ø§Øµ": 2348,
      "Ø³ÙĦØ³ÙĦ": 2349,
      "ĠÙħÙĤØ§Ø¨ÙĦ": 2350,
      "ĠØ§ÙĦØ´Ø¨Ø§Ø¨": 2351,
      "ĠØ²ÙĬØ§Ø¯Ø©": 2352,
      "ĠÙĦØ¨ÙĨØ§ÙĨ": 2353,
      "ĠØ§ÙĦØ£Ø®ÙĬØ±Ø©": 2354,
      "ĠÙĨØŃÙĨ": 2355,
      "Ø±ÙĪØ¬": 2356,
      "ĦÙ": 2357,
      "ĠØ§ÙĦØ¬Ù": 2358,
      "Ø¹Ø¶Ø§Ø¡": 2359,
      "ĠÙĬÙ": 2360,
      "ĠÙĬÙĦ": 2361,
      "ÙĪÙĦÙĩ": 2362,
      "Ø¶ÙĪØ±": 2363,
      "ÙĦÙħØ§ÙĨ": 2364,
      "ĠØ§ÙĦØ¬ÙĦ": 2365,
      "ÙĪØ±Ø§Øª": 2366,
      "ĠØ§ÙĦØŃØ³": 2367,
      "ĠØ¹ÙĨÙĩØ§": 2368,
      "Ø¨Ø§Ø¡": 2369,
      "ĠØ§ÙĦÙħØ±Ø£Ø©": 2370,
      "ÙĨÙģ": 2371,
      "ĠÙħØŃØ·Ø©": 2372,
      "ĠØ¨Ø§ÙĦÙģ": 2373,
      "Ø²ÙĬÙĨ": 2374,
      "ĠØ§ÙĦÙħØ®ØªÙĦÙģ": 2375,
      "Ø§Ø¯ÙĤ": 2376,
      "Ø¬ÙĪÙħ": 2377,
      "ĠØ£ÙģØ±ÙĬÙĤÙĬØ§": 2378,
      "ĠØ§ÙĦÙĥÙĩØ±Ø¨": 2379,
      "ĦØ§Ø¨": 2380,
      "ÙĦØ§Ø¨": 2381,
      "ĠÙĥØªØ¨": 2382,
      "ÙĨØ³ÙĬØ©": 2383,
      "ĠÙĤØ±Ø§Ø±": 2384,
      "ØªÙĦØ§ÙĦ": 2385,
      "Ø¹ÙĦØ§ÙĨ": 2386,
      "ĠÙĪÙĦÙĬØ³": 2387,
      "Ø§Ø¦Ø¹Ø©": 2388,
      "ØŃØ±": 2389,
      "ĠØ§ÙĦØ±Ø³Ùħ": 2390,
      "ĠÙģÙĩÙĪ": 2391,
      "ĠØ§ÙĦØ³Ùħ": 2392,
      "ÙħØ´": 2393,
      "ØªØ§Ø±": 2394,
      "ØªÙħØ±Ø§Ø±": 2395,
      "Ø´Ù": 2396,
      "Ø³ÙĥØ±ÙĬØ©": 2397,
      "ĦÙĦ": 2398,
      "ĠÙĪÙĪ": 2399,
      "ÙĬØ³ÙĬ": 2400,
      "ĠÙĦÙĥÙħ": 2401,
      "ĠØ¬Ø¹ÙĦ": 2402,
      "ĠØ«ÙĤ": 2403,
      "ĠÙĤØ§ÙĨÙĪÙĨ": 2404,
      "ĠØ´ÙĥÙĦ": 2405,
      "ĠU": 2406,
      "ĠØ§ÙĦØ³Ø¨": 2407,
      "ĠÙĥØ«": 2408,
      "ĠØ§ÙĦØ§Ø¬ØªÙħØ§Ø¹ÙĬ": 2409,
      "ĠÙĥÙĬ": 2410,
      "Ø§ÙĩØ¯Ø©": 2411,
      "ĠØ§ÙĦÙħØ´Ø±ÙĪØ¹": 2412,
      "Ø§ÙĪØ²": 2413,
      "ĠØ¨Ø§ÙĦØª": 2414,
      "ĠØ£ÙħØ§": 2415,
      "ĠØ§ÙĦØ³ÙĬØ§Ø³ÙĬ": 2416,
      "ia": 2417,
      "ĠÙħØ¨Ø§Ø´Ø±Ø©": 2418,
      "ore": 2419,
      "Ø²ÙĬØ©": 2420,
      "ĠØ§ÙĦÙģÙĨ": 2421,
      "ĠÙĪØ§Ø¶": 2422,
      "ĠâĢ¦": 2423,
      "ÙĥØ§Ùħ": 2424,
      "Ø´ÙĦ": 2425,
      "ĠØ§Ø¶": 2426,
      "Ø§ÙĬØ¯": 2427,
      "ĠØ¬Ø§ÙħØ¹Ø©": 2428,
      "ÙĤØ¯ÙħØ©": 2429,
      "Ø§ÙĥÙħ": 2430,
      "Ø§Ø¦Ùĩ": 2431,
      "Ø§ØµÙħØ©": 2432,
      "ĠØ§ÙĦØ®ÙĦÙĬ": 2433,
      "ĠØ§ÙĦØ³ÙĪØ±ÙĬ": 2434,
      "ub": 2435,
      "ĠÙĪØ§ÙĦØ®": 2436,
      "ĠØ·ÙĪ": 2437,
      "ĠØ§ÙĦØ³Ø¹ÙĪØ¯ÙĬ": 2438,
      "ĠØ§ÙĦØµØŃØ©": 2439,
      "ĠÙĤØ¯Ùħ": 2440,
      "Ø§ÙĦÙĤ": 2441,
      "ĠØ£ÙĤÙĦ": 2442,
      "ÙĦÙĦ": 2443,
      "ĠØ¨Ø§Ø³ØªØ®Ø¯Ø§Ùħ": 2444,
      "ĠØ¹Ø¯": 2445,
      "ÙĦÙĬÙģ": 2446,
      "ĠÙĪØªÙĨ": 2447,
      "ĠÙĦÙĨØ§": 2448,
      "Ø§Ø¤": 2449,
      "Ø§Ø¨Ø³": 2450,
      "ĠØ§ÙĦØªØ·Ø¨ÙĬÙĤ": 2451,
      "ĠØ§ÙĦØŃØ¬": 2452,
      "ĠÙĦÙĬØ³Øª": 2453,
      "ĠØ§ÙĦÙħÙĬØ§Ùĩ": 2454,
      "ØµÙĦØ§ØŃ": 2455,
      "Ġ2022": 2456,
      "Ø§Ø¯ÙĨ": 2457,
      "Ø±Ø¹": 2458,
      "ĠØ¥Ù": 2459,
      "ĠØ¥ÙĦ": 2460,
      "ÙĨÙĤÙĦØ©": 2461,
      "ĠÙħÙĪØ¬": 2462,
      "Ø®ÙĦØµ": 2463,
      "ÙħØ¨Ø±": 2464,
      "ÙĪÙħÙĬ": 2465,
      "Ø§ÙĦØ±Ø¦ÙĬØ³": 2466,
      "ÙĪØ£Ø¶Ø§Ùģ": 2467,
      "ĠÙĬÙĥÙĨ": 2468,
      "ĠÙĪÙĥÙĦ": 2469,
      "Ø§Ø±ÙĬØ¹": 2470,
      "ÙĥÙĨÙĪÙĦÙĪØ¬ÙĬØ§": 2471,
      "ĠØ¨Øº": 2472,
      "ĠØªØ¹Ø¯ÙĬÙĨ": 2473,
      "15": 2474,
      "ĠØ§ÙĦÙħÙĪØ¶ÙĪØ¹": 2475,
      "ĠØ§ÙĦÙħØ®ØªÙĦÙģØ©": 2476,
      "ĠÙģÙĪÙĤ": 2477,
      "ÙĤÙĬÙħ": 2478,
      "ĠØ§ÙĦØ±ÙĤ": 2479,
      "ĠØ¨Ø§Ø³Ùħ": 2480,
      "Ø¨Ø": 2481,
      "Ø¨Ø§": 2482,
      "Ø§ÙģØ±": 2483,
      "ĠÙĨÙħÙĪ": 2484,
      "Ø¹Ø±Ø§Ø¶": 2485,
      "ĠØ¥Ø¶Ø§ÙģØ©": 2486,
      "ĠØ¯Ø±Ø¬Ø©": 2487,
      "ÙĩÙĨ": 2488,
      "ĠØ§ÙĦØ¬ÙĬØ´": 2489,
      "ĠØ§ÙĦÙģØªØ±Ø©": 2490,
      "Ø´Ø±ÙĬÙĨ": 2491,
      "ĠÙħÙĨÙĩÙħ": 2492,
      "ĠÙĥØ±": 2493,
      "ĠØ§ÙĦØŃØ±Ø¨": 2494,
      "ĠØ§ÙĦØ¬Ø³Ùħ": 2495,
      "Ø¬Ø±Ø©": 2496,
      "ew": 2497,
      "ÙĩÙĪØ±ÙĬØ©": 2498,
      "ĠÙĦÙĦÙģ": 2499,
      "Ø®ÙģØ¶": 2500,
      "ĠØ£ÙħØ±ÙĬ": 2501,
      "ĠÙħØªÙĨ": 2502,
      "Â«": 2503,
      "Ø¤Ø§ÙĦ": 2504,
      "ĠÙĥØª": 2505,
      "tp": 2506,
      "ĠØ¹ÙĤØ¯": 2507,
      "ĠØ¬Ù": 2508,
      "ĠØ¬ÙĦ": 2509,
      "ĠØ§ÙĦÙħØ¹Ø¯Ø§Øª": 2510,
      "Ø·Ø§ÙĤ": 2511,
      "ĠÙħØº": 2512,
      "Ø¯Ø±Ø³Ø©": 2513,
      "Ø±ÙĬØ¯Ø©": 2514,
      "Ø§ÙĦØµ": 2515,
      "ĠØ£Ø¨ÙĬ": 2516,
      "ĠÙĦÙĩØ°Ø§": 2517,
      "ĠÙĨØ³Ø¨Ø©": 2518,
      "ØŃÙĬØ«": 2519,
      "Ø¹Ø±ÙģØ©": 2520,
      "ĠØ§ÙĦØ±ÙĪ": 2521,
      "ĠÙĥÙĪÙĨ": 2522,
      "im": 2523,
      "Ø®Ø§Ùħ": 2524,
      "ĠØ¥Ø¹Ø§Ø¯Ø©": 2525,
      "ĠØ§ÙĦÙĪØ²Ø±Ø§Ø¡": 2526,
      "Ø¨ÙĨØ§Ø¡": 2527,
      "ĠØ¥ÙĤ": 2528,
      "ter": 2529,
      "pp": 2530,
      "Ø¯ÙĬØ§Øª": 2531,
      "Ø§ÙĩØªÙħØ§Ùħ": 2532,
      "ØºØ¨": 2533,
      "ĠØ¹Ø¶": 2534,
      "ĠØ¯Ø¹Ùħ": 2535,
      "Ø´Ø±Ø§Øª": 2536,
      "ĠØ§ÙĦØºØ°": 2537,
      "Ø«Ø§Ø±": 2538,
      "ĠØ§ÙĦÙħØµÙĨ": 2539,
      "ĠØ´ÙĬ": 2540,
      "Ø§ÙĦÙĨ": 2541,
      "ĠØ¨ÙĬÙĨÙħØ§": 2542,
      "ĠØ§ÙĦØ£Ø±": 2543,
      "Ø§Ø¯Ùĩ": 2544,
      "ÙĨØ¯Ø": 2545,
      "ÙĨØ¯Ø§": 2546,
      "ØªØŃØ¯Ø«": 2547,
      "ĠÙĦÙĦØ¯": 2548,
      "Ø³ÙĦØŃØ©": 2549,
      "Ø§ØªÙĬ": 2550,
      "Ø³Ø¨Ø©": 2551,
      "ĠØ§ÙĦÙĤØ¯Ùħ": 2552,
      "ĠÙħÙĦÙģ": 2553,
      "ØªÙĪØ¨Ø±": 2554,
      "ig": 2555,
      "ĠØ£ÙĩÙĦ": 2556,
      "Ø§Ø³Ø·Ø©": 2557,
      "ĠØ§ÙĦØµÙĨØ§Ø¹": 2558,
      "Ø§ÙĩÙĬÙħ": 2559,
      "ĠØªØ±ÙĥÙĬØ§": 2560,
      "Ø£Ù": 2561,
      "Ø£ÙĦ": 2562,
      "ĠØ§ÙĦÙģÙĦØ³Ø·ÙĬÙĨÙĬ": 2563,
      "ÙĪØ§Ø¦Ø¯": 2564,
      "Ø¨ÙĬÙĪØªØ±": 2565,
      "ĠÙĪØ¢": 2566,
      "ÙħØ«": 2567,
      "ĠØªØŃØ¯ÙĬØ¯": 2568,
      "ĠØ§ÙĦØ«ÙĨØ§Ø¦ÙĬØ©": 2569,
      "ĠØ£ÙĨØ": 2570,
      "ĠØ£ÙĨØ§": 2571,
      "ĠØ£Ø¹ÙĦÙī": 2572,
      "âĢ¬": 2573,
      "ĠØ§ÙĦØ£Ùģ": 2574,
      "Ø¶Ø§ÙĨ": 2575,
      "Ø°Ø©": 2576,
      "ĠØ§ÙĦØ®Ø¯ÙħØ§Øª": 2577,
      "ĠØ§ÙĨØªÙĩ": 2578,
      "ĠÙħØ³ØŃÙĪÙĤ": 2579,
      "ĠØ§ÙĦØ£Ø³Ø¹Ø§Ø±": 2580,
      "ĠÙģÙĦØ³Ø·": 2581,
      "ation": 2582,
      "ĠÙĦÙĦÙĤ": 2583,
      "ĠÙĨØªÙĬØ¬Ø©": 2584,
      "ĠØµÙ": 2585,
      "ĠØµÙĦ": 2586,
      "ĠØ§ÙĦØ¨Ø¯": 2587,
      "ĠØ§Ø«": 2588,
      "ØªØª": 2589,
      "ĠØ§ÙĦØ£Ø³ÙĩÙħ": 2590,
      "ĠÙĦÙĦØ³": 2591,
      "ĠÙĬÙĨØª": 2592,
      "ÙĬØ±Ø§Øª": 2593,
      "ĠØ§ÙĦØŃÙħ": 2594,
      "ĠØµØ¨Ø§ØŃ": 2595,
      "Â»ØĮ": 2596,
      "Ø±Ø¨Ø¹Ø§Ø¡": 2597,
      "Ø°Ø¨": 2598,
      "ĠØ§ÙĦÙĤØ§Ø¯": 2599,
      "ĠØ§ÙĦÙħØ§Ø¡": 2600,
      "ĠØ§ÙĦØ¬ÙħØ¹Ø©": 2601,
      "Ù¡": 2602,
      "ÙģÙĬÙģ": 2603,
      "Ø±ÙĬØ§Øª": 2604,
      "ĠÙĪØ§ÙĦÙĥ": 2605,
      "ĠÙĪØªÙĤ": 2606,
      "Ø¨Ø±Ø²": 2607,
      "ĠØ§ÙĦØ³ÙĬØ¯": 2608,
      "ir": 2609,
      "ĠØŃÙĤÙĪÙĤ": 2610,
      "18": 2611,
      "ĠØªØº": 2612,
      "ĠØ¨Ø´Ø£ÙĨ": 2613,
      "ĠØ§Ø±ØªÙģØ§Ø¹": 2614,
      "ĠØ«ÙĦØ§Ø«Ø©": 2615,
      "ĠÙħØ¹ÙĦÙĪÙħØ§Øª": 2616,
      "ĠÙĪØ§ÙĦÙħÙĨ": 2617,
      "ĠØ¬Ø²Ø¡": 2618,
      "ÙĦÙħØ§Øª": 2619,
      "ĠØ¯Ø¨ÙĬ": 2620,
      "ĠØ£Ù": 2621,
      "ĠÙĪØµÙĦ": 2622,
      "ĠØ£ÙĦ": 2623,
      "ĠÙĪØ§ÙĦØ±": 2624,
      "Ø®Ø¨Ø§Ø±": 2625,
      "ÙĪÙģÙħØ¨Ø±": 2626,
      "Ø§ÙĨØ¯": 2627,
      "ĠÙĪÙĬÙĨ": 2628,
      "Ø¬Ø±Ø¯": 2629,
      "ÙĤØ±Ø§Ø·": 2630,
      "ĠØ¸Ù": 2631,
      "ĠØ¸ÙĦ": 2632,
      "ĠØ§Ø¬ØªÙħØ§Ø¹": 2633,
      "Ø§Ø¶ÙĬØ©": 2634,
      "ĠØªÙĨØ§ÙĪÙĦ": 2635,
      "ĠØ¹Ø¨Ø¯Ø§ÙĦ": 2636,
      "Ø«ÙĬ": 2637,
      "ĠV": 2638,
      "ut": 2639,
      "ØŃÙ": 2640,
      "ØŃÙĦ": 2641,
      "ĠØ§ÙĦØŃÙĥÙĪÙħ": 2642,
      "ĠØªØ¹Ø±Ùģ": 2643,
      "ĠØ£ÙħØ³": 2644,
      "ĠØ§ÙĦØ£ÙĥØ«Ø±": 2645,
      "ĠÙħÙĪØ§ÙĤØ¹": 2646,
      "Ø¬Ø¹": 2647,
      "Ø³Ø§Ùħ": 2648,
      "ĠØ¨Ø§ÙĦØ¹": 2649,
      "ĠØ§ÙĦÙĦØ¨ÙĨ": 2650,
      "ĠØ§ÙĦØµØºÙĬØ±Ø©": 2651,
      "Ø§ÙĤÙĬ": 2652,
      "ĠÙĦÙĤØ¯": 2653,
      "ÙģØ§Ø¸": 2654,
      "16": 2655,
      "ĠØ§ÙĦÙĨØ¨Ø§Øª": 2656,
      "ĠÙĬØ³Ùħ": 2657,
      "ĠØ§ÙĦÙĨØµ": 2658,
      "Ø³ÙħØ¨Ø±": 2659,
      "Ø§ÙĪÙĬØ©": 2660,
      "Ġn": 2661,
      "ĠØ§ÙĦÙĪØ§ÙĤØ¹": 2662,
      "ĠÙģØ¶": 2663,
      "ĠØ¨Ø¯Ø§ÙĬØ©": 2664,
      "ĠØ¬ÙĪ": 2665,
      "25": 2666,
      "ØªØ©": 2667,
      "ĠØ§ÙĦØ¯Ø§Ø®ÙĦÙĬØ©": 2668,
      "ĠÙĪØ§ÙĦØ«": 2669,
      "ĠâĢı": 2670,
      "ĠØ§ÙĦÙĥØ±": 2671,
      "Ġ>": 2672,
      "ĠÙĦØ¹": 2673,
      "Ġï»": 2674,
      "ĠÙĪØ§ÙĦØ¬": 2675,
      "ĠØ§ÙĦØ®Ù": 2676,
      "ĠØ§ÙĦØ®ÙĦ": 2677,
      "Ø§Ø¦ÙĩØ§": 2678,
      "ØªØ±Ø§ØªÙĬØ¬ÙĬØ©": 2679,
      "Ġïº": 2680,
      "Ø°Ø¬": 2681,
      "ĠØ§ÙĦØ¥Ø³ÙĦØ§ÙħÙĬØ©": 2682,
      "Ø°Ùĥ": 2683,
      "ØªÙħØ¨Ø±": 2684,
      "ÙģØ§Ø¶": 2685,
      "24": 2686,
      "Ø±ÙĬØ³": 2687,
      "ĠØ£ÙĦÙħ": 2688,
      "ÙĪØ¯ÙĬØ©": 2689,
      "ĠØ§ÙĦØ£ÙħØ±ÙĬÙĥÙĬ": 2690,
      "ĠØ®Ø¯ÙħØ§Øª": 2691,
      "ĠØ§ÙĦØ®ÙħÙĬØ³": 2692,
      "ĠÙĪØ§ÙĦØªØ¹": 2693,
      "Ø§ÙĨÙĩ": 2694,
      "ÙĨÙĩ": 2695,
      "Ø§Ø¦Ø±Ø©": 2696,
      "ĠÙħØ¹Ø¸Ùħ": 2697,
      "ĠØªÙĨÙģÙĬØ°": 2698,
      "ĠØ§ÙĦØ³ÙĬØ§Ø±Ø§Øª": 2699,
      "ĠØ£Ø´ÙĩØ±": 2700,
      "ĠÙĪØ¨Ø¹Ø¯": 2701,
      "Ø±ÙĬØ¨Ø©": 2702,
      "ĠÙĦÙĦØ¬": 2703,
      "ĠØ¨Ø§ÙĦØŃ": 2704,
      "Ø³ÙĥØ±ÙĬ": 2705,
      "ĠØ³Ø¨ÙĬÙĦ": 2706,
      "ul": 2707,
      "ĠØ§ÙĦØ£Ø¬ÙĨ": 2708,
      "Ø¯Ø§ÙĨ": 2709,
      "ĠØ§Ø®ØªÙĬØ§Ø±": 2710,
      "ĠÙĪØ³ÙĬ": 2711,
      "ĠØ§ÙĦÙħØŃØª": 2712,
      "ĠÙĪÙĬÙħÙĥÙĨ": 2713,
      "ÙĪÙĦØ§Øª": 2714,
      "ĠÙĬÙĨØ§ÙĬØ±": 2715,
      "ĠØ§ÙĦØ´Ùĩ": 2716,
      "ĠØ¹ÙħÙĦÙĬØ§Øª": 2717,
      "Ġ50": 2718,
      "ĠØ§ÙĦÙħÙĨØªØ¬Ø§Øª": 2719,
      "Ø¯ÙĬÙĨØ": 2720,
      "Ø¯ÙĬÙĨØ§": 2721,
      "ĠØ§ÙĦØ¯ÙģØ§Ø¹": 2722,
      "Ġto": 2723,
      "ĠØ§ÙĦØ¹Ø§ÙĦÙħÙĬ": 2724,
      "ĠÙģØ§ÙĦ": 2725,
      "13": 2726,
      "ĠØ§ÙĦØ±ØŃ": 2727,
      "Ø±ÙĪØ": 2728,
      "Ø±ÙĪØ§": 2729,
      "ĠØ¹Ø§ÙħØ": 2730,
      "ĠØ¹Ø§ÙħØ§": 2731,
      "Ø±Ø§Ø¡Ø©": 2732,
      "ÙĪÙĦÙĬÙĪ": 2733,
      "ĠØ¥Ø³Ø±Ø§Ø¦ÙĬÙĦ": 2734,
      "ĠØ§ÙĦØ³Ùģ": 2735,
      "ĠØµÙĬ": 2736,
      "ĠØ¨Ø§ÙĦÙĥ": 2737,
      "qu": 2738,
      "ĠØ§ÙĦØ®Ø¨Ø±": 2739,
      "200": 2740,
      "ÙħÙĪØ§ÙĦ": 2741,
      "ĠØ£Ø³Ø§Ø³": 2742,
      "ÙģØ±Ø§Ø¯": 2743,
      "Ø§ÙĦØªØ§ÙĦÙĬ": 2744,
      "ÙĪÙħØ": 2745,
      "ÙĪÙħØ§": 2746,
      "ÙĤÙĩ": 2747,
      "Ø§Ø²Ù": 2748,
      "Ø§Ø²ÙĦ": 2749,
      "Ø§ÙĦØ±Ø¦ÙĬØ³ÙĬØ©": 2750,
      "ĠÙħØ§Ø±Ø³": 2751,
      "ÙĨÙĬØ§": 2752,
      "Ø§ÙĬÙ": 2753,
      "ĠØ§ÙĦÙĤØ§ÙĩØ±Ø©": 2754,
      "Ø§ÙĬÙĦ": 2755,
      "Ø§Ø²ÙĬ": 2756,
      "ĠÙĥØ°ÙĦÙĥ": 2757,
      "Ø§ÙĪÙħØ©": 2758,
      "ĠÙĦØ£ÙĨÙĩ": 2759,
      "ÙĪÙħÙĨ": 2760,
      "ĠØ§ÙĦÙĥÙ": 2761,
      "ĠØ§ÙĦÙĥÙĦ": 2762,
      "ĠÙĥØ§ÙħÙĦ": 2763,
      "ĠØ§ÙĦØ§ÙĨØªØ±ÙĨØª": 2764,
      "ht": 2765,
      "ĠÙĪØµÙģ": 2766,
      "ĠÙħÙĦÙĬØ§Ø±": 2767,
      "ĠÙģØª": 2768,
      "ĠØ§ÙĦØ³ÙĪ": 2769,
      "ØŃØ§Ø³": 2770,
      "ĠØ£ÙĥØªÙĪØ¨Ø±": 2771,
      "ĠØ§ÙĦØ³Ø±": 2772,
      "ĠØ§ÙĦÙħØ±Ùĥ": 2773,
      "ÙĥÙĬØ¯": 2774,
      "Ø¯ÙĬÙħÙĤØ±Ø§Ø·": 2775,
      "ĠÙĤÙĪØ§Øª": 2776,
      "ĠØ§Ø·": 2777,
      "Ø¬Ø§Ø¬": 2778,
      "ĠØ§ÙĦØ¨ÙĨØ§Ø¡": 2779,
      "ĠØ§ÙĦØ¬ÙĩØ§Ø²": 2780,
      "ĠØ¨ÙĬØ±": 2781,
      "ĠØ§ÙĦØ±ÙĬ": 2782,
      "ĠØ§ÙĦØ·Ø¨": 2783,
      "Ø·ØŃ": 2784,
      "ĠØ§ÙĦØ£Ø±Ø¯": 2785,
      "ĠÙĦÙĦÙĩ": 2786,
      "ĠØ§ÙĦÙĥØªØ§Ø¨": 2787,
      "ĠØ§ÙĦØ£Øµ": 2788,
      "ve": 2789,
      "ĠØ§ÙĦØ±Ø¨": 2790,
      "ØªØ": 2791,
      "ØªØ§": 2792,
      "ĠØ§ÙĦÙĪØµÙĪÙĦ": 2793,
      "ĠØªØ·ÙĪÙĬØ±": 2794,
      "ĠØµÙĪØ±Ø©": 2795,
      "ØªÙĤØ§ÙĦ": 2796,
      "ĠØ¨Ø§Øª": 2797,
      "ĠØ§ÙĦØµØŃÙĬØ©": 2798,
      "ĠØªØ¹ÙĦÙĬÙĤ": 2799,
      "ĠØ§ÙĦÙħØºØ±Ø¨": 2800,
      "ĠÙģÙĦØ§": 2801,
      "ĠÙĬØ¹Ø¯": 2802,
      "Ø§Ø¦ÙĬÙĦÙĬ": 2803,
      "Ø·Ø¹": 2804,
      "ĠØ§ÙĦØ¥ÙĤ": 2805,
      "ĠÙĤØ·Ø§Ø¹": 2806,
      "ĠØ§ÙĦØ¬ÙĬØ±ÙĬ": 2807,
      "ĠÙħØŃÙħ": 2808,
      "ĠÙĪÙħØŃ": 2809,
      "ĠØ§ÙĦÙĪØ±": 2810,
      "ĠØ§ÙĦÙĥÙĪÙĬØª": 2811,
      "ÙĩÙĪÙĦØ©": 2812,
      "ĠØ§ÙĦÙĤØµ": 2813,
      "Ø±ÙĪØ¨": 2814,
      "ĠÙĪØºÙĬØ±ÙĩØ§": 2815,
      "ĠØªÙĨØª": 2816,
      "ĠØ§ÙĦÙĨØ¸Ø±": 2817,
      "ĠÙĪÙħÙĪ": 2818,
      "ĠØ§ÙĦØ«ÙĦØ§Ø«Ø§Ø¡": 2819,
      "ÙĦÙĬÙĩ": 2820,
      "ĠÙħÙĪØ¶ÙĪØ¹": 2821,
      "ĠØªÙĨØ¸ÙĬÙħ": 2822,
      "ĠØ¶Ø±": 2823,
      "ĠØ§ÙĦÙĪØŃ": 2824,
      "ĠØ¨Ø§Ø¨": 2825,
      "Ø§ÙģØ¹": 2826,
      "ine": 2827,
      "ÙĥØ§Øª": 2828,
      "ĠØ´Ø¨ÙĥØ©": 2829,
      "ĠÙĪØ§ÙĦÙħÙĪ": 2830,
      "ĠØ§ÙĦØµÙĪØ±": 2831,
      "Ø´Ø§Ø±Ø©": 2832,
      "ĠJ": 2833,
      "ĠØ¥Ø¯": 2834,
      "ĠØ§ÙĦØŃØ§ÙĦÙĬ": 2835,
      "ĠØ§ÙĦØ±ØºÙħ": 2836,
      "ĠØ¨ÙĤÙĬ": 2837,
      "ĠØ¥ØŃØ¯": 2838,
      "ĠØ§ÙĦÙħÙĨØ§Ø·ÙĤ": 2839,
      "ĠØ±Ø¯": 2840,
      "ĠØ§ÙĦØ¨Ø´Ø±": 2841,
      "ĠÙĦØ·": 2842,
      "ĠØŃØ±ÙĥØ©": 2843,
      "ĠØ§ÙĦÙħÙĨØ²ÙĦ": 2844,
      "Ø§ÙħØ¨": 2845,
      "ers": 2846,
      "ÙĦØ¨ÙĬØ©": 2847,
      "Ø§Ø¹Ø±": 2848,
      "ĠÙĪØ³Ø§Ø¦ÙĦ": 2849,
      "ĠØ¨ÙĬØ§ÙĨ": 2850,
      "ĠÙĪØ³Ø·": 2851,
      "ĠØ§ÙĦØ¨ØŃØ±": 2852,
      "ĠØ¬ÙĨÙĬÙĩ": 2853,
      "ĠÙĤÙĪ": 2854,
      "Ġv": 2855,
      "Ġ22": 2856,
      "Ø«Ø©": 2857,
      "Ġ2015": 2858,
      "ĠØªØ²": 2859,
      "ĠØŃØ¯Ø«": 2860,
      "ĠØ§ÙĦØ¹Ø¨": 2861,
      "ÙĤÙĬÙĬÙħ": 2862,
      "§Ø§Ø": 2863,
      "ĠØ´Ø¹Ø¨": 2864,
      "ĠÙĥÙĦÙħØ©": 2865,
      "ĠØ¥ÙĬØ±Ø§ÙĨ": 2866,
      "ÙĪÙĥØ§ÙĨ": 2867,
      "ÙģØ³ÙĬØ±": 2868,
      "ÙĪÙĨØ§Øª": 2869,
      "ÙģÙĬØ©": 2870,
      "Ø®Ø±Ø§Ø¬": 2871,
      "ĠÙħØ¹Ø§ÙĦØ¬Ø©": 2872,
      "ĠØµØ§ØŃØ¨": 2873,
      "ĠØ§ÙĦØªØ¬Ø§Ø±Ø©": 2874,
      "ĠÙĪØº": 2875,
      "ĠØªØ±ÙĬØ¯": 2876,
      "Ġ23": 2877,
      "ĠÙĦÙĦØºØ§ÙĬØ©": 2878,
      "ĠØ±Ø³Ùħ": 2879,
      "ĠØ¯ÙĬÙĨ": 2880,
      "ĠÙĪØŃØ¯": 2881,
      "Ø±ÙĬØª": 2882,
      "ĠØ±ÙĪØ³": 2883,
      "ĠØ§ÙĦØ£Ø³Ø¨ÙĪØ¹": 2884,
      "ĠØ§ÙĦÙĦØºØ©": 2885,
      "ĠØ±ÙģØ¹": 2886,
      "ĠÙĦØ¹Ø¨Ø©": 2887,
      "ĠÙĬØ¹Ø±Ùģ": 2888,
      "ØªÙĤØ¯": 2889,
      "ĠØ§ÙĦØ§ÙĤØªØµØ§Ø¯ÙĬØ©": 2890,
      "ÙħÙĦÙĥ": 2891,
      "ĠØ£Ø®Ø¨Ø§Ø±": 2892,
      "ÙĪÙĪ": 2893,
      "ĠØ¨ÙĪØ§Ø³Ø·Ø©": 2894,
      "ĠØµØŃÙĬÙģØ©": 2895,
      "Ø§ØªÙĩÙħ": 2896,
      "Ø¬Ø§ØŃ": 2897,
      "ww": 2898,
      "ĠØ§ÙĦØ¨Ø±ÙĨØ§ÙħØ¬": 2899,
      "Ø³ÙĬØ©": 2900,
      "ĠØ¹ÙĦØ§Ø¬": 2901,
      "ÙĬØ±ÙĪØ³": 2902,
      "Ġ21": 2903,
      "ĠØ±ØºÙħ": 2904,
      "ÙĦØ¹Ø§Ø¨": 2905,
      "ĠØ§ÙĦØ¹ÙħÙĦÙĬØ©": 2906,
      "ĠØ§ÙĦÙĦØ¬ÙĨØ©": 2907,
      "ĠÙĤÙĬÙħØ©": 2908,
      "Ø§Ø²ÙħØ©": 2909,
      "ĠØ³ÙĪ": 2910,
      "ÙĬØ±ÙĬØ©": 2911,
      "ÙĬØ§Ùħ": 2912,
      "ĠØ£ÙħÙĨ": 2913,
      "ĠØ§ÙĦÙĤØ±Ø¢ÙĨ": 2914,
      "ĠØ§ÙĦØ´ÙĩØ±": 2915,
      "ĠØ§ÙĦØ§Ø´": 2916,
      "âĢĤ": 2917,
      "Ø§ØŃØ¸": 2918,
      "ĠØ´Ø¹": 2919,
      "ĠØ¯ÙģØ¹": 2920,
      "ĠÙĤØ·Ø±": 2921,
      "ĠØ§ÙĦØ§ÙĪ": 2922,
      "ra": 2923,
      "ĠØ§ÙĦØ§Ø«": 2924,
      "Ø§ÙħÙĬØ©": 2925,
      "ĠÙĬØ¬Ø¹ÙĦ": 2926,
      "Ø§ÙĦØ´": 2927,
      "ĠØ³ÙĬÙĥÙĪÙĨ": 2928,
      "ÙĩØ§Ø¯": 2929,
      "ÙĨÙĬÙģ": 2930,
      "ÙĤØ": 2931,
      "ÙĤØ§": 2932,
      "Ø¨Ø¹Ø¶": 2933,
      "Ø§Ø¦ØŃØ©": 2934,
      "ĠÙĤÙ": 2935,
      "ĠÙĤÙĦ": 2936,
      "Ø±ÙģØ¹": 2937,
      "Ø±ÙĬÙĥ": 2938,
      "ĠØ§ÙĦÙĨØ¨ÙĬ": 2939,
      "ĠØ¥ÙĦÙĬÙĩØ§": 2940,
      "Ø§Ø¯Øª": 2941,
      "Ø¤ÙĪÙĨ": 2942,
      "Ø§Ø·Ø©": 2943,
      "ĠÙĨÙĪÙģÙħØ¨Ø±": 2944,
      "17": 2945,
      "ĠØ±ÙĬØ§ÙĦ": 2946,
      "Ø¦Ø§Ø³Ø©": 2947,
      "ĠØªØŃØªØ§Ø¬": 2948,
      "ĠÙĬÙĪ": 2949,
      "Ø±ÙĬÙħØ©": 2950,
      "os": 2951,
      "//": 2952,
      "ĠØªØ¹Ø¯": 2953,
      "ØªÙħØ§Ø¯": 2954,
      "ĠØ¨ÙĦØº": 2955,
      "ĠÙĨÙĤØ·Ø©": 2956,
      "ĠØŃØ²Ø¨": 2957,
      "ĠØ§ÙĦØ§Ø³ØªØ«ÙħØ§Ø±": 2958,
      "ĠØ§ÙĦÙħØ·Ø±": 2959,
      "ĠÙĬÙĪÙĨÙĬÙĪ": 2960,
      "Ø¨Ø±Ø§ÙĬØ±": 2961,
      "ÙĤØ¯Ø±": 2962,
      "eb": 2963,
      "ĠØ§ÙĦØ¬Ø²Ø§Ø¦Ø±": 2964,
      "ĠØ§ÙĦØ£Ù": 2965,
      "ĠØ§ÙĦØ£ÙĦ": 2966,
      "ØŃØª": 2967,
      "ĠØ¯Ø§Ø¦ÙħØ§": 2968,
      "ĠÙĪØ§ÙĦØ§Ø³Øª": 2969,
      "ĠØ³ÙĬØ±": 2970,
      "ØµØ§Ø±": 2971,
      "op": 2972,
      "ĠØŃØ³ÙĨ": 2973,
      "rice": 2974,
      "Ø¯ÙĬØ": 2975,
      "Ø¯ÙĬØ§": 2976,
      "ĠØ¨Ø§ÙĦÙĨ": 2977,
      "Ø¨ÙĬØ¹Ø©": 2978,
      "ĠØ§ØªÙģØ§ÙĤ": 2979,
      "ĠÙħØµØ¯Ø±": 2980,
      "ĠÙħØ¨Ø§Ø±Ø§Ø©": 2981,
      "ÙĪØŃØ©": 2982,
      "Ø´ÙģÙī": 2983,
      "ÙģÙĬØ§Øª": 2984,
      "ĠÙĦØ¬ÙĨØ©": 2985,
      "ØªØ¯Ø§Ø¡": 2986,
      "ĠØŃÙĪØ§ÙĦÙĬ": 2987,
      "ĠK": 2988,
      "ĠØ§ÙĦØ³Ø¨Øª": 2989,
      "ĠØ¨Ø§ÙĦØ³": 2990,
      "ĠØµØ¯": 2991,
      "ĠØ§ÙĦÙħØ³ÙĦÙħÙĬÙĨ": 2992,
      "ĠÙĬÙĤØ¯Ùħ": 2993,
      "Ø±ÙĬØ¶": 2994,
      "Ø§ÙħØ§Øª": 2995,
      "ĠØ§ÙĦÙħØ¹Ø¯": 2996,
      "Ø¨ÙĬØª": 2997,
      "Ø§Ø±ÙĨØ©": 2998,
      "ĠØ§ÙĦØ¨Ø¹Ø¶": 2999,
      "ĠØ§ÙĦØ¬ÙħÙĬØ¹": 3000,
      "Ø¨Ø±Ùī": 3001,
      "ĠØ¥ÙĬ": 3002,
      "ĠØ¯ÙĬØ³ÙħØ¨Ø±": 3003,
      "ĠØ§ÙĦÙĪØ·ÙĨ": 3004,
      "Ù¢": 3005,
      "Ġ2014": 3006,
      "ĠÙĬØ¹ØªØ¨Ø±": 3007,
      "Ø·Ø§ÙĦ": 3008,
      "Ø±ÙĬØ¹Ø©": 3009,
      "ÙĪØ®": 3010,
      "ĠØ§ÙĦÙħØŃÙĦÙĬØ©": 3011,
      "ĠØ§ÙĦØ§Ø¬ØªÙħØ§Ø¹ÙĬØ©": 3012,
      "Ø±Ø£": 3013,
      "ĠØ§ÙĦØ£ÙĤ": 3014,
      "ĠØ³Ø§Ø¨ÙĤ": 3015,
      "Ø²ÙĬÙĦ": 3016,
      "ĠÙĪØªØ´": 3017,
      "Ø¹ÙĦÙĨØª": 3018,
      "Ø¨ÙĤÙī": 3019,
      "ĠØ§ÙĦÙħØ³Ø¤ÙĪÙĦ": 3020,
      "ĠØ¨ÙĨØ³Ø¨Ø©": 3021,
      "Ø§ÙħÙĬÙĨ": 3022,
      "ĠØ±ÙħØ¶Ø§ÙĨ": 3023,
      "Ø¹ØªØ¨Ø±": 3024,
      "ÙĪØ¨Ø§Øª": 3025,
      "Ø·ÙĨ": 3026,
      "ĠØ§ÙĦÙĥØ¨ÙĬØ±": 3027,
      "ĠÙħÙĪØ³": 3028,
      "ĠØ§ÙĦÙĥØ±ÙĬÙħ": 3029,
      "ÙħÙĨØ": 3030,
      "ÙħÙĨØ§": 3031,
      "ĠÙĤØ³Ùħ": 3032,
      "ĠØ§ÙĦØ³ÙĨØ©": 3033,
      "ĠÙģÙĩÙĬ": 3034,
      "Ø§ÙģØŃØ©": 3035,
      "ĠØŃØ¨": 3036,
      "ĠØ§ÙĦØŃØ¨": 3037,
      "ĠØ®ÙĦÙģ": 3038,
      "ĠØ§ÙĦÙĥÙħ": 3039,
      "Ø§ØŃØ«": 3040,
      "ĠØ±Ø³ÙĪÙĦ": 3041,
      "Ø«ÙħØ±": 3042,
      "ĠØ³Ø¨ØªÙħØ¨Ø±": 3043,
      "ÙĬØŃ": 3044,
      "Ø·ÙĪÙĬØ±": 3045,
      "ĠÙħØ³Ø¤ÙĪÙĦ": 3046,
      "ĠØªØºÙĬÙĬØ±": 3047,
      "ĠÙĦØ§Ø³Øª": 3048,
      "ĠØ§ÙĦØ¨ÙĬØ§ÙĨØ§Øª": 3049,
      "ĠØ§ÙĦÙħØµÙĨØ¹Ø©": 3050,
      "ĠØ¯ÙĤÙĬÙĤØ©": 3051,
      "ĠØ§ÙĦØ·ÙģÙĦ": 3052,
      "ĠØ§ÙĦØ´Ùħ": 3053,
      "ĠØ¹ÙĦÙĬÙĩÙħ": 3054,
      "ĠØ§ÙĦÙħØ·ÙĦ": 3055,
      "ĠØ§ÙĦÙĨØ³Ø§Ø¡": 3056,
      "ĠØ¥Ø·Ø§Ø±": 3057,
      "ĠØ§ÙĦØ¥ÙĦÙĥØªØ±ÙĪÙĨÙĬ": 3058,
      "ÙĤÙĬØ©": 3059,
      "ĠÙħÙĬÙĦ": 3060,
      "ĠØ¯Ø±Ø§Ø³Ø©": 3061,
      "ĠØ¨Ø°ÙĦÙĥ": 3062,
      "ĠÙĦØªÙĨ": 3063,
      "Ġ{": 3064,
      "ess": 3065,
      "ĠØ§ÙĦØ¥ÙĬØ±": 3066,
      "ÙħÙĨØ©": 3067,
      "ĠØ§ÙĦØ§Ø³ÙħÙĨØª": 3068,
      "ĠØ§ÙĦØ±ÙħÙĦ": 3069,
      "ĠØ§ÙĦØ³ÙĦØ·Ø©": 3070,
      "ĠØµØºÙĬØ±": 3071,
      "ĠÙĩØ¯Ùģ": 3072,
      "Ø¹ÙĬÙĨ": 3073,
      "Ø·ÙĪØ±": 3074,
      "ĠØ·ÙĪÙĬÙĦØ©": 3075,
      "ÙĨØ¯ÙĪÙĤ": 3076,
      "ĠÙĦÙħÙĪ": 3077,
      "ĠØ§ÙĦØ£ÙĦÙħ": 3078,
      "ĠØªØ¶": 3079,
      "ĠØ§ÙĦØ§ØªØµØ§ÙĦ": 3080,
      "Ġ*": 3081,
      "ĠØ±Ø£": 3082,
      "Ø¯ÙĬÙħØ©": 3083,
      "ĠØ§ÙĦØ®Øµ": 3084,
      "ÙħØ¬": 3085,
      "ĠÙĪØŃØ¯Ø©": 3086,
      "ĠØ§ÙĦØ·Ø±ÙĬÙĤ": 3087,
      "ĠØ·Ø¨ÙĬØ¹": 3088,
      "Ø¹Ø§ÙĬØ©": 3089,
      "ĠØªÙĤØ±ÙĬØ±": 3090,
      "ĠØ§ÙĦØ£Ø±Ø¨Ø¹Ø§Ø¡": 3091,
      "ĠÙĪØ§Øª": 3092,
      "ĠÙĦÙĦÙħÙĪ": 3093,
      "ĠØªØµÙĦ": 3094,
      "ØªÙĦØ§Ùģ": 3095,
      "ÙĪØº": 3096,
      "ĠØ§ÙĦÙĤØ·Ø§Ø¹": 3097,
      "ÙĤØ·Ø¹": 3098,
      "ĠØ§ÙĦÙģÙĦØ³Ø·ÙĬÙĨÙĬØ©": 3099,
      "ind": 3100,
      "ØµØ¯Ø§Ø±": 3101,
      "ĠØ£ÙĩÙħÙĬØ©": 3102,
      "ĠØ§ÙģØ¶ÙĦ": 3103,
      "ĠÙħØ¹Ùĩ": 3104,
      "ct": 3105,
      "ĠØ§ÙĦØŃÙĥÙħ": 3106,
      "li": 3107,
      "ĠØªÙĥÙĦÙģØ©": 3108,
      "ĠØ§ÙĦÙħÙĤØ¨ÙĦ": 3109,
      "2021": 3110,
      "ĠØªÙĪÙģÙĬØ±": 3111,
      "ĠØ§ÙĦÙĥØ¨": 3112,
      "Ø´Ø¨": 3113,
      "ØµÙĬÙĦ": 3114,
      "Ø§Ø¹Ùħ": 3115,
      "ØŁØŁ": 3116,
      "Ø§Ø´Ø±": 3117,
      "ÙĩÙĩ": 3118,
      "ĠØ¨ÙĩØ°Ø§": 3119,
      "Ø§ÙĤÙ": 3120,
      "Ø§ÙĤÙĦ": 3121,
      "ĠÙħØ§ÙĬÙĪ": 3122,
      "Ø³Ø·Ø³": 3123,
      "hat": 3124,
      "ĠØ¸ÙĩØ±": 3125,
      "ĠØ§ÙĦØ£Ø´Ø®Ø§Øµ": 3126,
      "ĠØ²ÙĬØª": 3127,
      "ĠY": 3128,
      "ĠÙĪØ«": 3129,
      "ØŃÙĬÙĨ": 3130,
      "Ø´Ø·Ø©": 3131,
      "ĠØ§ÙĦÙħØ³ØªØ®Ø¯ÙħØ©": 3132,
      "ĠØªØ³Ø¬ÙĬÙĦ": 3133,
      "ĠØªØ³Ùħ": 3134,
      "ĠØ§ÙĦØ£Ø³Ø§Ø³ÙĬØ©": 3135,
      "ØªØ±Ø§Ùĥ": 3136,
      "ĠÙĦØ¯ÙĬÙĨØ§": 3137,
      "ĠÙĬØµÙĦ": 3138,
      "ÙĪØ¬ÙĬÙĩ": 3139,
      "ÙħÙħ": 3140,
      "Ø±Ø§Ø¹Ø©": 3141,
      "ĠØ§ÙĦØ¬Ø§Ùħ": 3142,
      "Ø¨Ø±Ø©": 3143,
      "ĠÙĩØ§ØªÙģ": 3144,
      "um": 3145,
      "Ø§ÙĦØº": 3146,
      "ï»Ł": 3147,
      "ĠÙĪØªØ±": 3148,
      "ÙĩÙĬÙĦ": 3149,
      "Ø§Ø¦Ø©": 3150,
      "Ø¶Ø§Øª": 3151,
      "ĠØ£Ø±Ø¨": 3152,
      "Ø´Ø§Ø±ÙĥØ©": 3153,
      "Ø¹ÙĦØ§Ø¬": 3154,
      "Ø´Ø±Ø§Ø¡": 3155,
      "://": 3156,
      "ĠØ§ÙĦØ³ÙĪØ¯Ø§ÙĨ": 3157,
      "ĠØĽ": 3158,
      "Ø§ÙĥØ²": 3159,
      "ĠØ§ÙĦÙħØ±ØŃÙĦØ©": 3160,
      "Ø´Ø§Ø±Ùĥ": 3161,
      "23": 3162,
      "ĠØ£Ø±Ø¶": 3163,
      "Ø®ØµØµØ©": 3164,
      "ĠØ¨ØŃØ«": 3165,
      "ĠØŃÙĬØ§Ø©": 3166,
      "Ġe": 3167,
      "ĠØ¬ÙĩØ©": 3168,
      "ĠØ§ÙĦØµØŃÙĬ": 3169,
      "ĠØŃØµÙĦ": 3170,
      "ÙĤØ±Ø±": 3171,
      "ĠÙĤÙĪØ©": 3172,
      "ĠØ§ÙĦØ·Ø±ÙĤ": 3173,
      "ÙħØ§Ø±Ø³Ø©": 3174,
      "ĠØ§ÙĦØ±ÙħØ§ÙĦ": 3175,
      "ĠØ´Ùĥ": 3176,
      "ĠÙĪÙĦØ§ÙĬØ©": 3177,
      "ĠÙĨØ·Ø§ÙĤ": 3178,
      "Ø¨ÙĬØ¶": 3179,
      "ØµØ¨ØŃ": 3180,
      "ĠÙĩØ¤": 3181,
      "ĠÙĦÙĦØŃØµÙĪÙĦ": 3182,
      "Ġ2013": 3183,
      "ĠØ§ÙĦÙħÙĦÙģ": 3184,
      "ĠØ§ÙĦØªØ¹Ø§ÙĪÙĨ": 3185,
      "ĠØ§ÙĦÙħÙĪØ§Ø·ÙĨÙĬÙĨ": 3186,
      "ĠÙĩÙĬØ¦Ø©": 3187,
      "ÙĪÙĤØ¯": 3188,
      "ĠØŃÙĥÙħ": 3189,
      "ĠÙĩØ¤ÙĦØ§Ø¡": 3190,
      "ĠØ¨Ø§ÙĦØ´": 3191,
      "Ġ26": 3192,
      "Ø¦Ø§Øª": 3193,
      "Ø¨ÙĪÙĦ": 3194,
      "ĠØ§ÙĦÙħØ´Ø§Ø±ÙĥØ©": 3195,
      "Ø³ØªØ§Ø°": 3196,
      "ĠØ§ÙĦÙħØ³ØªØ®Ø¯Ùħ": 3197,
      "ĠÙĬØ±ÙĬØ¯": 3198,
      "ØªÙģØ¹": 3199,
      "ĠØ§ÙĦÙĤØ±ÙĨ": 3200,
      "ĠØ¹Ø²": 3201,
      "05": 3202,
      "ØµÙĬ": 3203,
      "Ø³Ø±Ø§Ø¦ÙĬÙĦÙĬ": 3204,
      "ĠIn": 3205,
      "ĠØ§ÙĦÙĤÙĬØ§Ùħ": 3206,
      "Ø¬Ø§Ø¨": 3207,
      "ĠÙħÙĨØªØ¬Ø§Øª": 3208,
      "ØŃØ§Ø¡": 3209,
      "ĠÙħØ§Ø±": 3210,
      "ĠØ®Ø¨Ø±": 3211,
      "ÙĨØ¯ÙħØ§": 3212,
      "est": 3213,
      "Ø§Ø²Ø§Øª": 3214,
      "Ø±ÙĬØ¨Ø": 3215,
      "Ø±ÙĬØ¨Ø§": 3216,
      "oc": 3217,
      "ĠØ§ÙĦØ§Ùģ": 3218,
      "Ø³ÙĪÙĨ": 3219,
      "ĠØ§ÙĦØ¥ÙĨØªØ§Ø¬": 3220,
      "ĠØ·Ø±ÙĤ": 3221,
      "ĠÙĤÙĨØ§Ø©": 3222,
      "ĠØ§ÙĦØ£Ùĥ": 3223,
      "Ø²ÙĬØ¹": 3224,
      "ĠØ§ÙĦÙħØ±Ø¶": 3225,
      "ĠÙħØ±Ø¶": 3226,
      "ĠØ§ÙĦØ¥Ø³": 3227,
      "ĠÙĨØªØ§Ø¦Ø¬": 3228,
      "ĠØ£ÙĪØ±ÙĪØ¨Ø§": 3229,
      "Ø§ÙĬÙĬÙĨ": 3230,
      "ĠØªØŃØ¯ÙĬØ«": 3231,
      "ĠØ§ÙĦØ¬Ø¯": 3232,
      "ĠØ§ÙĦÙħØ§Ø¶ÙĬØ©": 3233,
      "Ø³ÙħØ§Ø¡": 3234,
      "ĠØ¨Ø±ÙĪ": 3235,
      "ĠÙħÙĨØ§Ø·ÙĤ": 3236,
      "ĠØ§ÙĦØ´Ø®ØµÙĬØ©": 3237,
      "ĠØ§ÙĦØ´ÙħØ³": 3238,
      "ĠØªØ¹Ø±Ø¶": 3239,
      "ĠØ¥ÙĨØ´Ø§Ø¡": 3240,
      "ØªØ¨Ø¹": 3241,
      "ĠØ§ÙĦØ±Ø¬ÙĦ": 3242,
      "ÙģÙĨ": 3243,
      "ÙĦÙĬØ¨": 3244,
      "ĠØ§ÙĦØ·Ø¹Ø§Ùħ": 3245,
      "ÙģÙĪ": 3246,
      "ĠØ§ÙĦÙĨÙģØ³": 3247,
      "ĠØ§ÙĦÙĨÙĪØ¹": 3248,
      "ĠÙĬØŃØ¯Ø«": 3249,
      "Ø·Ø±Ø©": 3250,
      "ĠÙħØµØ§Ø¯Ø±": 3251,
      "ĠÙħØ¯Ùī": 3252,
      "ÙħÙĪØ¹": 3253,
      "Ø¹Ø¯Ø¯Ø©": 3254,
      "Ø¬ÙĦØ©": 3255,
      "Ø£ÙĥØ¯": 3256,
      "Ø§Ø±Ùĩ": 3257,
      "01": 3258,
      "ÙĨØ³ÙĬ": 3259,
      "ĠØ§ÙĦØ£Ùĩ": 3260,
      "03": 3261,
      "ÙĥØ§ÙĨÙĬØ©": 3262,
      "Ø§Ø¦ÙĨ": 3263,
      "ĠØ§ÙĤØªØµ": 3264,
      "Ø¬ÙħØ©": 3265,
      "ĠØ§ÙĦÙĨØŃØ§Ø³": 3266,
      "ÙģØ§ÙĦ": 3267,
      "Ø·Ø¨ÙĬÙĤ": 3268,
      "ØµØ¨": 3269,
      "Ø²Ø§ÙĦØ©": 3270,
      "ĠØ§ÙĦØ§ØŃØªÙĦØ§ÙĦ": 3271,
      "ïºİ": 3272,
      "ĠØ§ÙĦÙĬØ¯": 3273,
      "ĠÙĪØ§ÙĦØ¨": 3274,
      "ĠØ¥Ø³Øª": 3275,
      "ÙħØ²": 3276,
      "ÙģÙĬØ¯": 3277,
      "Ø¹ÙħÙĦØ©": 3278,
      "ĠÙĪØ¨Ø§ÙĦØªØ§ÙĦÙĬ": 3279,
      "ĠØ§ÙĦØ§Øµ": 3280,
      "ĠØ¨Ø±Ø§ÙħØ¬": 3281,
      "ĠØ£ÙĨØª": 3282,
      "Ġ199": 3283,
      "ĠØ³ÙĬÙĨ": 3284,
      "ĠÙĪØ¨ÙĬÙĨ": 3285,
      "ĠØ¶Ø¹": 3286,
      "Ø´ÙĬØ§Ø¡": 3287,
      "ĠØªØ´ØºÙĬÙĦ": 3288,
      "Ø§Ø¨ÙĦØ©": 3289,
      "ĠØ¨ÙĪØ±": 3290,
      "ĠØ±ÙĪØ³ÙĬØ§": 3291,
      "ĠØ§ÙĦÙĤÙĪØ§Øª": 3292,
      "Ø³ÙĬÙĦ": 3293,
      "ÙĤÙĬÙĤÙĬ": 3294,
      "Ø®Ø§Ø°": 3295,
      "Ø³Ø¯": 3296,
      "06": 3297,
      "ÙĨØ§Ø¦ÙĬ": 3298,
      "ĠÙģØ¨Ø±Ø§ÙĬØ±": 3299,
      "ĠØ§ÙĦÙĨØ³": 3300,
      "Ø®Ùħ": 3301,
      "ĠØ§ÙĦØ§": 3302,
      "ÙĬÙĪÙĨ": 3303,
      "Ø¹Ø§Ø¡": 3304,
      "ĠÙĬÙĪÙĦÙĬÙĪ": 3305,
      "ĠØ§ÙĦÙģÙĬØ¯ÙĬÙĪ": 3306,
      "ĠÙģÙĦØ³Ø·ÙĬÙĨ": 3307,
      "ĠÙĪØ§ÙĦØ·": 3308,
      "ĠØ§ÙĦÙĪØ¶Ø¹": 3309,
      "ĠØ¯ÙĦÙĬÙĦ": 3310,
      "ĠØ®ÙĬØ§Ø±Ø§Øª": 3311,
      "ĠØ§ÙĦØ¯ÙĪØ±ÙĬ": 3312,
      "ĠØ§ÙĦØ³ÙĪØ±ÙĬØ©": 3313,
      "ĠØ§ÙĦØªØ¹Ø§ÙħÙĦ": 3314,
      "ĠØ§ÙĦÙħØŃÙħÙĪÙĦ": 3315,
      "ĠØ§ÙĦØ¯ÙĬ": 3316,
      "ĠØ§ÙĦÙħÙĨØªØ¬": 3317,
      "ĠÙĤÙĦÙĬ": 3318,
      "Ø²Ø¹": 3319,
      "Ġ27": 3320,
      "ĠØ¥ØŃØ¯Ùī": 3321,
      "Ø¬Ø²Ø§Ø¡": 3322,
      "ĠÙħØ¨Ø§Ø´Ø±": 3323,
      "ĠØ·Ø¨": 3324,
      "ĠØ²ÙĬØ§Ø±Ø©": 3325,
      "Ø§Ø¹ÙĬØ©": 3326,
      "Ø¹Ø¯Ø¯": 3327,
      "Ø§Ø±ÙĤ": 3328,
      "ÙĨØ³Ø": 3329,
      "ÙĨØ³Ø§": 3330,
      "ĠÙ¢": 3331,
      "ĠØ§ÙĦØ¹ÙĦØ§Ø¬": 3332,
      "ĠÙħÙĥØªØ¨": 3333,
      "ĠØ§ÙĦÙħØ¶": 3334,
      "ĠØ¨Ø¹ÙĬØ¯": 3335,
      "âĢİ": 3336,
      "her": 3337,
      "Ø§ÙĤØ¨Ø©": 3338,
      "ĠÙħØŃØ¯": 3339,
      "Ø¨Ø§Ø±Ùĥ": 3340,
      "ĠØ§ÙĦÙħØ³ØªÙĤØ¨ÙĦ": 3341,
      "ĠØ´ÙħØ§ÙĦ": 3342,
      "ĠÙģÙĩÙħ": 3343,
      "Ø¯ÙĪÙĨ": 3344,
      "Ø§ÙħÙĨ": 3345,
      "ĠØ¨Ø£ÙĨÙĩ": 3346,
      "Ġ28": 3347,
      "Ø±Ø¯Ø´Ø©": 3348,
      "ĠØ¨ÙħÙĪ": 3349,
      "Ø§Ø¨Ùĩ": 3350,
      "Ø±ÙĪØ©": 3351,
      "ÙĪÙĤØ§Øª": 3352,
      "Ø§ÙĨØª": 3353,
      "ĠØ§Øº": 3354,
      "ĠØ·Ø§ÙĦØ¨": 3355,
      "ĠØ§ÙĦÙĤØ±Ø§Ø±": 3356,
      "ĠØ¹Ø¨Ø§Ø±Ø©": 3357,
      "ĠØªÙĥØ³ÙĬØ±": 3358,
      "ĠÙĦÙĩØ°Ùĩ": 3359,
      "ĠÙ¡": 3360,
      "ĠØ¨Ø§ÙĦØ¬": 3361,
      "Ø®ÙģØ§Ø¶": 3362,
      "Ø§Ø±ÙĬØ§Øª": 3363,
      "ĠØ¹Ø´": 3364,
      "ÙĥÙĪØ±": 3365,
      "ĠØ´ÙĩØ¯": 3366,
      "ĠØªØ¹ÙĦÙħ": 3367,
      "ĠÙĬØªØ¹ÙĦÙĤ": 3368,
      "ĠØªÙĪÙģØ±": 3369,
      "04": 3370,
      "ĠÙĪÙħØ±": 3371,
      "Ø®Ø¯ÙħØ§Øª": 3372,
      "Ø§Ø¬Ø¦": 3373,
      "ĠÙĥØ§ÙĨÙĪØ§": 3374,
      "ÙĩØ§Ø±": 3375,
      "ĠØ§ÙĦØ¬Ø§ÙħØ¹Ø©": 3376,
      "ÙĬØ¯Ø±": 3377,
      "ĠØ§ÙĦØ¹Ø§ØµÙħØ©": 3378,
      "ĠØ§ÙĦÙĩØ§ØªÙģ": 3379,
      "Ø¹ÙĨ": 3380,
      "Ø§ØŃØ§Øª": 3381,
      "ĠØ¥ÙĬØ¬": 3382,
      "ĠØ§ÙĦØ¹ÙħØ±": 3383,
      "ĠÙĥØ«ÙĬØ±Ø": 3384,
      "ĠÙĥØ«ÙĬØ±Ø§": 3385,
      "26": 3386,
      "Ø¢Ø®Ø±": 3387,
      "ĠØ§ÙĦØ¹ÙħÙĦØ§Ø¡": 3388,
      "Ø¬ÙĬØ±": 3389,
      "ĠØ§ÙĦØ§ØªÙģØ§ÙĤ": 3390,
      "ĠØªØ¹ØªØ¨Ø±": 3391,
      "ĠØ§ÙĦØ¹Ø³ÙĥØ±ÙĬØ©": 3392,
      "ĠØ¥Ø·ÙĦØ§ÙĤ": 3393,
      "Ø¬ÙĦÙĬØ²ÙĬØ©": 3394,
      "ĦÙĬÙĨ": 3395,
      "ÙĦÙĬÙĨ": 3396,
      "ĠØªØ³Ø§Ø¹Ø¯": 3397,
      "ĠØ¥Ø±": 3398,
      "09": 3399,
      "08": 3400,
      "ĠÙĪØ§Ø¹": 3401,
      "Ø¹Ø": 3402,
      "Ø¹Ø§": 3403,
      "ÙĩØ§Ø¯Ø©": 3404,
      "ĠØ§ÙĦØ¥Ø¯Ø§Ø±Ø©": 3405,
      "ĠØ§ÙĦÙĨÙĪ": 3406,
      "Ġ'": 3407,
      "ĠØŃØµ": 3408,
      "Ġon": 3409,
      "Ø§ØŃÙĬ": 3410,
      "Ø§Ø¦Ø²Ø©": 3411,
      "ĠØ¥Ø¬Ø±Ø§Ø¡": 3412,
      "ĠÙħØŃØ§ÙģØ¸Ø©": 3413,
      "Ġ&": 3414,
      "07": 3415,
      "ĠØ§ÙĦÙĩÙĬØ¦Ø©": 3416,
      "ĠÙĨÙĬÙĪØ²": 3417,
      "ĠÙĥØ§Ø±": 3418,
      "ĠØ¬ÙĬØ¯Ø©": 3419,
      "ĠØ¢Ù": 3420,
      "Ø²ÙĨ": 3421,
      "ĠØ§ÙĦØ®ÙĦÙĬØ¬": 3422,
      "Ø«ÙĦØ§Ø«": 3423,
      "ĠØ§ÙĦÙħØ¹Ø§Ø¯ÙĨ": 3424,
      "ĠÙĦØ¯ÙĬÙĥ": 3425,
      "ÙĬÙĦØ": 3426,
      "ÙĬÙĦØ§": 3427,
      "ĠØ¢ÙĦ": 3428,
      "ĠÙĬØªØŃ": 3429,
      "ĠØ§ÙĦØ¹ÙĦØ§ÙĤØ§Øª": 3430,
      "ĠÙĦÙĦÙħÙĨ": 3431,
      "ĠÙĪÙĩÙħ": 3432,
      "ĠÙĪØŃØªÙī": 3433,
      "ĠØ¨Ø§ÙĦØ¯": 3434,
      "ĠØ¨Ø§ÙĦÙ": 3435,
      "ĠØ¨Ø§ÙĦÙĦ": 3436,
      "all": 3437,
      "Ø§ÙħØ±": 3438,
      "ĠØ§ÙĦØ¨Ø±ÙĬØ·": 3439,
      "ĠÙĨØ§Ø¯ÙĬ": 3440,
      "Ø²ÙĬØ§Ø¯Ø©": 3441,
      "ĠÙĬØ³ØªØ®Ø¯Ùħ": 3442,
      "Ùª": 3443,
      "ĠPM": 3444,
      "ÙģØ§Ø¡Ø©": 3445,
      "ĠØ§ÙĦØ¨ÙĨÙĥ": 3446,
      "ĠØ§ÙĦØ§ÙĨØªØ®Ø§Ø¨Ø§Øª": 3447,
      "âĢĵ": 3448,
      "27": 3449,
      "Ø±ÙĬØ": 3450,
      "Ø±ÙĬØ§": 3451,
      "ĠÙĬØŃØªØ§Ø¬": 3452,
      "ÙĪØ±Ø¯ÙĬÙĨ": 3453,
      "ĠØ¨Ø§Ø³Øª": 3454,
      "Ø¦ÙĦØ©": 3455,
      "ĠÙĦØ±": 3456,
      "ĠÙĪÙģÙĤØ": 3457,
      "ĠÙĪÙģÙĤØ§": 3458,
      "ĠÙħØ¹Ø±ÙģØ©": 3459,
      "ØŃÙĤÙĤ": 3460,
      "ĠØ§ÙĦØ§ÙĤ": 3461,
      "ÙĥØªØ¨": 3462,
      "28": 3463,
      "Ø§ÙĦÙĬØ§Øª": 3464,
      "ÙĥÙĬÙĨ": 3465,
      "ĠÙĪØ§ÙĦØªÙĨ": 3466,
      "ĠØ§ÙĦØ£ÙĪØ±ÙĪØ¨ÙĬ": 3467,
      "ĠØªØŃÙħÙĦ": 3468,
      "Ø¶ÙĬÙģ": 3469,
      "ÙĥÙĬØ±": 3470,
      "ĠØ±Ø¬ÙĦ": 3471,
      "ĠØ¯Ø§Ø±": 3472,
      "ĠØ§ÙĦØŃÙħÙĦ": 3473,
      "ĠØ§ÙĦØ£ÙĪØ³Ø·": 3474,
      "Ø§ÙĨÙĬØª": 3475,
      "ĠØ§ÙĦØ£ÙħÙĪØ±": 3476,
      "ĠØµÙĪØª": 3477,
      "Ø·ÙĪØ§ÙĨ": 3478,
      "ĠØ§ÙĦÙħØ·Ø±ÙĤØ©": 3479,
      "ĠØ§Ùĩ": 3480,
      "ĠÙĬØ¤Ø¯ÙĬ": 3481,
      "ĠØ§ÙĦØ³Ø§Ø¨ÙĤØ©": 3482,
      "ĠØ§ÙĦØ§ÙĤØªØµØ§Ø¯": 3483,
      "ÙħØªØ§Ø²": 3484,
      "ĠØ³Ø§Ø¹Ø§Øª": 3485,
      "ĠØ¨Ø³Ø±": 3486,
      "ĠØ§ÙĦØ®Ø¯ÙħØ©": 3487,
      "ĠØªÙĨØ¸ÙĬÙģ": 3488,
      "Ġy": 3489,
      "ĠÙĥÙĨ": 3490,
      "Ø·ÙĦØ¹": 3491,
      "ĠÙĬØ³Ø§Ø¹Ø¯": 3492,
      "ĠÙģÙĤØ§ÙĦ": 3493,
      "ĠØªØ¬Ø§Ùĩ": 3494,
      "ĠØ§ÙĦØ£ÙħÙħ": 3495,
      "ĠØ§ÙĦØ´Ø§Ø´Ø©": 3496,
      "ĠØ§ÙĦÙģØª": 3497,
      "Ø¯ÙĬÙĤ": 3498,
      "ĠØ§ÙĦØ·Ø¨ÙĬØ©": 3499,
      "Ø®ÙĬØµ": 3500,
      "Ø¢ÙĦØ©": 3501,
      "ĠØ§ÙĦÙĤÙĦØ¨": 3502,
      "ĠØ¨ÙĪÙĦ": 3503,
      "ĠØ§ÙĦØ£Ø¬ÙĨØ¨ÙĬØ©": 3504,
      "ÙħØ¯ÙĬÙĨØ©": 3505,
      "ĠØ§ÙĦØ¥Ø¯": 3506,
      "ĠØ´Ø¹Ø±": 3507,
      "ĠÙħØ´ÙĥÙĦØ©": 3508,
      "ĠØ³ÙĬØ¯": 3509,
      "ĠØ±ÙģØ¶": 3510,
      "Ø§ÙĬØª": 3511,
      "ĠØ±ØŃ": 3512,
      "ĠØŃÙĥÙĪÙħØ©": 3513,
      "ĠØ§ÙĦØªØ§ÙĦÙĬØ©": 3514,
      "ĠØ§ÙĦØ¬Ø§ÙĨØ¨": 3515,
      "ÙĪØ±Ø": 3516,
      "ÙĪØ±Ø§": 3517,
      "ĠÙħØªÙĨÙĤÙĦØ©": 3518,
      "Ø³ÙĬÙħ": 3519,
      "ĠØ¨ÙĨØ§": 3520,
      "ĠØ¹ÙĬØ¯": 3521,
      "ĠØ³ÙĬØªÙħ": 3522,
      "ĠØªÙħØ§ÙħØ§": 3523,
      "ĠØ´Ùĩ": 3524,
      "ĠØ§ÙĦØ¯ÙĬÙħÙĤØ±Ø§Ø·": 3525,
      "ÙĪØ³Ùģ": 3526,
      "ĠÙĥØ«ÙĬØ±Ø©": 3527,
      "ĠÙĨØµÙģ": 3528,
      "ĠØªØŃØ¯Ø«": 3529,
      "ĠÙĪØ§Ø´": 3530,
      "ĠØ³Ø¨Ø¨": 3531,
      "ĠÙĪØªØ³": 3532,
      "ĠØ¨ÙĩØ°Ùĩ": 3533,
      "ĠÙĤØªÙĦ": 3534,
      "ĠÙĨÙģØ³ÙĩØ§": 3535,
      "ĠØ§ÙĦÙħØ¹Ø§Ø±": 3536,
      "ÙĪÙĬÙħ": 3537,
      "Ø§Ø¹Ø´": 3538,
      "ĠØ§ÙĦÙĬÙĩ": 3539,
      "ĠØ§ÙĦØ¯Ø¹Ùħ": 3540,
      "ÙĤØ±Ø§Ø¡": 3541,
      "ĠØ§ÙĦØ¥ÙĦÙĥØªØ±ÙĪÙĨÙĬØ©": 3542,
      "Ø§Ø±Ø¨Ø©": 3543,
      "ĠØ§ÙĦÙħØ³ÙĬ": 3544,
      "ĠØ§ÙĦØ°Ùī": 3545,
      "ĠØ±Ø¤ÙĬØ©": 3546,
      "ĠØ§ÙĦÙĥØ³Ø§Ø±Ø§Øª": 3547,
      "ĠÙĬØ£ØªÙĬ": 3548,
      "ĠØ¨Ø®": 3549,
      "ĠØªÙħØª": 3550,
      "Ø³ÙĬØ·Ø©": 3551,
      "ĠØ®Ø·Ø©": 3552,
      "Ø§ÙĤÙĬØ©": 3553,
      "ĠØ±Ø³Ø§ÙĦØ©": 3554,
      "ĠÙħÙĪÙĤÙģ": 3555,
      "ĠØŃØ§ÙĦÙĬØ§": 3556,
      "ÙģÙĩ": 3557,
      "ĠØ§ÙĦØ·ÙĦØ¨": 3558,
      "ĠØ§ÙĦØ¬ÙĪØ¯Ø©": 3559,
      "ĠØµØŃÙĬØŃ": 3560,
      "ak": 3561,
      "ÙĪØ§ØµÙĦ": 3562,
      "ĠØ¨ÙĩØ¯Ùģ": 3563,
      "ØµØ§ÙĦØ§Øª": 3564,
      "ĠØ¨Ø§Ø¹": 3565,
      "ÙĥØ°Ø§": 3566,
      "ĠØ§ÙĦØµÙĪØ±Ø©": 3567,
      "ĠÙĦØ§ØŃ": 3568,
      "ĠØ§ÙĦÙħØ«Ø§ÙĦ": 3569,
      "ĠØ§ÙĦÙħØ³ØªÙĪÙī": 3570,
      "ĠÙĦÙĦØ§Ø³Øª": 3571,
      "Ø§ÙĪØ±": 3572,
      "02": 3573,
      "Ø¨ÙĬØ¹Ø§Øª": 3574,
      "ĠÙĪØ§ÙĦØº": 3575,
      "ĠÙĥØ§ÙĦ": 3576,
      "ÙĪØ§ÙĨÙĬÙĨ": 3577,
      "ĠÙĪÙĥØ§ÙĨØª": 3578,
      "ØµØ§Øª": 3579,
      "ĠÙģÙĬØ¯ÙĬÙĪ": 3580,
      "ÙĬØ±Ùĩ": 3581,
      "ÙĪÙĨØ¯": 3582,
      "ØªÙĬØ¨": 3583,
      "ĠØ§ÙĦÙħØµÙĨØ¹": 3584,
      "ĠØ¬ÙĪØ¯Ø©": 3585,
      "ĠØ§ÙĦÙĨØª": 3586,
      "ÙĨØ¯ÙĬ": 3587,
      "ĠØ£Ø¨Ø±ÙĬÙĦ": 3588,
      "ÙĪØ¬Ø©": 3589,
      "our": 3590,
      "ĠØ§ÙĦØ¯Ø®ÙĪÙĦ": 3591,
      "ĠÙĦÙĦØ·": 3592,
      "ĠØ¨Ø¯Ø¡": 3593,
      "Ø¯Ø§Ø¡": 3594,
      "Ġ+": 3595,
      "ĠÙĪØ¹Ø¯Ùħ": 3596,
      "ÙĪÙĨÙĩ": 3597,
      "Ø§ÙģØ§Øª": 3598,
      "ĠÙĥÙĬÙĦ": 3599,
      "ĠÙħÙģØª": 3600,
      "ĠÙĦØº": 3601,
      "ĠÙģÙħÙĨ": 3602,
      "ĠÙĦÙĦØ¹ÙħÙĦ": 3603,
      "ÙĨÙĬØ§Øª": 3604,
      "ĠÙħØ±ØŃÙĦØ©": 3605,
      "ĠØ¨Ø§ÙĦØ·": 3606,
      "ÙĤØ§Ø¦ÙĤ": 3607,
      "Ø¸Ø§Ø±": 3608,
      "ĠÙħØ§ÙĦÙĬ": 3609,
      "ĠÙħÙĩÙħØ©": 3610,
      "ĠØ£ÙħÙĬØ±": 3611,
      "ĠØ¨ØŃÙĬØ«": 3612,
      "ĠÙħÙħ": 3613,
      "ĠÙĥØ£Ø³": 3614,
      "ØªÙħÙĬØ²": 3615,
      "Ø´Ø§Ø·": 3616,
      "rus": 3617,
      "ÙĢÙĢÙĢ": 3618,
      "ĠØ¨Ø¯Ø£Øª": 3619,
      "ĠØ§ÙĦØµÙĨØ§Ø¹ÙĬØ©": 3620,
      "ĠØ¨ÙĨÙģØ³": 3621,
      "ĠØ§ÙĦÙĥÙĬ": 3622,
      "ÙĦÙĬØ³": 3623,
      "ÙĪÙĬÙĤ": 3624,
      "Ø®Ø·ÙĬØ·": 3625,
      "Ø®ØµÙĪØµ": 3626,
      "Ø¨ÙĬÙĩ": 3627,
      "ĠØ§ÙĦÙħØŃØ¯": 3628,
      "ĠÙĥØ§ÙħÙĦØ©": 3629,
      "ap": 3630,
      "ĠØ§ÙĦØŃØ§ÙĦØ©": 3631,
      "Ø´Ø±Ùģ": 3632,
      "Ø§ØµÙģØ§Øª": 3633,
      "ĠÙĪØ§ÙĦÙħØ¹": 3634,
      "ĠÙħÙĥØª": 3635,
      "ĠØ§ÙĦØ¹Ø¶": 3636,
      "ĠØ§ÙĦÙĤØ¯Ø³": 3637,
      "ĠØªÙĦÙĤ": 3638,
      "ĠÙĪØ¶": 3639,
      "ĠØ§ÙĦØ§Ø¯": 3640,
      "ĠØ§ÙĦØ¨ÙĬØª": 3641,
      "ÙĥÙĪÙĨØ§Øª": 3642,
      "Ø§Ø¬Ø¹Ø©": 3643,
      "ĠØ§ÙĦÙħØ§Ø¯Ø©": 3644,
      "ĠØªØ±Ø§ÙħØ¨": 3645,
      "ĠÙĪÙĥØ§ÙĦØ©": 3646,
      "ĠØ§ÙĦÙĨØ§Ø±": 3647,
      "ĠØ§ÙĦÙħØ¯ÙĨÙĬ": 3648,
      "Ø«ÙĪØ±": 3649,
      "ĠØ§ÙĦØŃØ±ÙĥØ©": 3650,
      "ĠØ·Ø±Ùģ": 3651,
      "40": 3652,
      "ÙĦÙĬÙĥ": 3653,
      "ÙħÙĬØ²Ø©": 3654,
      "ÙĪØ±ÙĪ": 3655,
      "ĠÙħØ¤Ø´Ø±": 3656,
      "ĠØ§ÙĦÙģÙĨÙĬ": 3657,
      "ĠØ§ÙĦØ§ÙĤØªØµØ§Ø¯ÙĬ": 3658,
      "ĠØ§ÙĦÙħÙĥØ§ÙĨ": 3659,
      "ĠÙģØ±ØµØ©": 3660,
      "ÙĪØ²Ø§Ø±Ø©": 3661,
      "ĠØªÙģØ§ØµÙĬÙĦ": 3662,
      "ØªÙħÙĬ": 3663,
      "ĠÙĤÙĦØ¨": 3664,
      "ĠØ§ÙĦÙħØŃÙħÙĪÙĦØ©": 3665,
      "Ø§Ø¹Ø¨ÙĬÙĨ": 3666,
      "Ø±Ø": 3667,
      "Ø±Ø§": 3668,
      "ĠØ¨ÙĨÙĬ": 3669,
      "ĠÙħÙĪØ§Ø¯": 3670,
      "ĠØ¯Ø®ÙĪÙĦ": 3671,
      "ĠØ£ØµØŃØ§Ø¨": 3672,
      "ĠØ£ØºØ³Ø·Ø³": 3673,
      "ĠØ¥Ø¹": 3674,
      "Ø¦ÙĬ": 3675,
      "ĠÙĦÙħØ³": 3676,
      "Ø§ÙĦØ": 3677,
      "Ø§ÙĦØ§": 3678,
      "ĠÙħÙĦÙĥ": 3679,
      "ĠØ¥Ø¨Ø±": 3680,
      "ĠØ§ÙĦØªØ§ÙĦÙĬ": 3681,
      "ÙĪÙħÙĬØ©": 3682,
      "ĠÙĤÙħ": 3683,
      "ØªØµÙģ": 3684,
      "Ø³Ø§Ø¯": 3685,
      "ĠØ§ÙĥØ«Ø±": 3686,
      "Ø³Ø³": 3687,
      "29": 3688,
      "ĠØºØ±": 3689,
      "ĦÙĪ": 3690,
      "ÙĦÙĪ": 3691,
      "ĠØºØ²Ø©": 3692,
      "ĠÙħØ·Ø§ØŃÙĨ": 3693,
      "ov": 3694,
      "ĠØ§ÙĦØ¯ÙĪØ±": 3695,
      "ĠØ§ÙĦÙħÙĪØ³Ùħ": 3696,
      "**": 3697,
      "ĠØŃÙħØ§ÙĬØ©": 3698,
      "Ġ2011": 3699,
      "Ø¸Ùģ": 3700,
      "Ø¹ÙĦÙĤØ©": 3701,
      "ØŃÙĤÙĪÙĤ": 3702,
      "ĠØ®ØµÙĪØµ": 3703,
      "ØªØ¯Ùī": 3704,
      "ook": 3705,
      "Ġ2012": 3706,
      "ĠØ¨Ø¯Ø£": 3707,
      "ĠØ¨Ø·Ø±ÙĬÙĤØ©": 3708,
      "Ø¨ÙĦØ©": 3709,
      "ĠØ§ÙĦØ¬ÙħÙĩÙĪØ±ÙĬØ©": 3710,
      "Ø´Ø¯": 3711,
      "ÙĩÙĪÙĨ": 3712,
      "ĠØ¬ÙħØ¹": 3713,
      "ĠØ§ÙĦØ·Ø¨ÙĬØ¹ÙĬØ©": 3714,
      "Ġ29": 3715,
      "ØªØ±ÙĬ": 3716,
      "ĠÙģÙĬÙĦÙħ": 3717,
      "ĠÙĦÙĦØ±": 3718,
      "ĠØ¹Ø§Ø¯Ø©": 3719,
      "ÙĢÙĢÙĢÙĢÙĢÙĢÙĢÙĢ": 3720,
      "ĠØ§ÙĦØªØ±Ø¨ÙĬØ©": 3721,
      "Ø¯Ø§ÙĪÙĦ": 3722,
      "ĠÙĪØ§ÙĦÙħØ±": 3723,
      "ĠØ§ÙĦÙĨÙħÙĪ": 3724,
      "ĠÙĪØµÙĪÙĦ": 3725,
      "Ġ!": 3726,
      "ÙģØ§Ùģ": 3727,
      "ØªÙĬØŃ": 3728,
      "ØªØ®Ø¨": 3729,
      "Ø®Ø±Ø©": 3730,
      "ĠØ´ÙĬØ¦": 3731,
      "ĠØ§ÙĦÙĪØ²Ø§Ø±Ø©": 3732,
      "ÙħÙĩ": 3733,
      "ĠØ§ÙĦÙħØ¬Ø§ÙĦ": 3734,
      "ĠÙħÙħÙĥÙĨ": 3735,
      "Ø¶Ø¨": 3736,
      "ĠØ§ÙĦÙĥØ³Ø§Ø±Ø©": 3737,
      "ØºØ§ÙĦ": 3738,
      "ĠØ§ÙĦØ´Ø±Ø·Ø©": 3739,
      "ĠÙĦØ§ÙĬ": 3740,
      "ĠØ§ÙĦØ£Ø³ÙħÙĨØª": 3741,
      "ÙħØ·ØŃÙĨØ©": 3742,
      "ÙĬÙĢ": 3743,
      "ĠÙĦØ§Ø¨": 3744,
      "ĠØ£Ø¬ÙĩØ²Ø©": 3745,
      "ĠØ§ÙĦØ£Ø®ÙĬØ±": 3746,
      "ÙĩÙĦØ©": 3747,
      "ĠØµØ§ÙĦØŃ": 3748,
      "ĠØ¨ØªØŃ": 3749,
      "ĠØ§Ø°Ø§": 3750,
      "Ø§Ø±ÙĬØ±": 3751,
      "ĠÙĬØŃØªÙĪÙĬ": 3752,
      "Ø±Ø³Ø§ÙĦ": 3753,
      "ĠØ¹Øµ": 3754,
      "ĠØ§ÙĦØ§Ø«ÙĨÙĬÙĨ": 3755,
      "ĠØªÙħÙĪ": 3756,
      "ĠÙĬØ¨Ø¯ÙĪ": 3757,
      "Ø§ÙĦØ®": 3758,
      "ĠØ¨ÙĬØª": 3759,
      "ÙĬØµ": 3760,
      "ĠÙħØ¬Ø§ÙĨØ§": 3761,
      "ill": 3762,
      "ĠÙĪØ§ÙĦØªØŃ": 3763,
      "ĠÙĪØ§ÙĦÙħØ³": 3764,
      "ĠØŃÙħÙĦ": 3765,
      "ĠØ§ÙĦÙħÙĨØ´": 3766,
      "ĠØ§ÙĦÙħØ¨Ø§Ø±Ø§Ø©": 3767,
      "ĠØ§ÙĦÙĨÙĬ": 3768,
      "ĠÙĬÙħÙĨ": 3769,
      "ĠØ§ÙĦØ²ÙĬ": 3770,
      "ĠÙģØ¥ÙĨÙĩ": 3771,
      "ĠØ§ÙĦØ´Ø¨": 3772,
      "ĠÙħÙĨØ¸ÙħØ©": 3773,
      "ĠÙħØ§ÙĥÙĬÙĨØ©": 3774,
      "Ø¸Ù": 3775,
      "ÙĦØ§ÙĦØ©": 3776,
      "Ø§Ø¬Ø¯": 3777,
      "ĠØ§ÙĦØ·Ø±ÙĬÙĤØ©": 3778,
      "Ø§ØŃØµÙĦ": 3779,
      "ĠØŃØ±Ø¨": 3780,
      "ĠÙĦØ°Ø§": 3781,
      "ĠØ§ÙĦØ¥Ø³ÙĦØ§ÙħÙĬ": 3782,
      "ĠØ¨Ø§Ùĥ": 3783,
      "Ø§Ø¦Ø²": 3784,
      "ĠØ§ÙĦØ¥Ø³Ø±Ø§Ø¦ÙĬÙĦÙĬ": 3785,
      "âĢ¢": 3786,
      "ĠØ£Ø¹Ø¶Ø§Ø¡": 3787,
      "th": 3788,
      "ĠØ£ÙĨØŃØ§Ø¡": 3789,
      "Ø£ÙħØ§": 3790,
      "ĠØ§ÙĦØ¯Ø±Ø§Ø³Ø©": 3791,
      "Ø§Ø±Ø": 3792,
      "Ø§Ø±Ø§": 3793,
      "ĠØ§ÙĦÙĪØ§ØŃ": 3794,
      "ĠØ§ÙĦØ¬Ø²Ø¡": 3795,
      "ĠØªØŃØªÙĪÙĬ": 3796,
      "ĠÙĨØ§Ø¦Ø¨": 3797,
      "ĠÙĪÙĥÙĬÙģ": 3798,
      "ĠØ·Ø±": 3799,
      "Ø§Ø¨Ø±": 3800,
      "ĠÙĦÙĥÙĬ": 3801,
      "Ø¸ÙĦ": 3802,
      "ĠØ§ÙĦØ±Ø³ÙħÙĬ": 3803,
      "ĠØªØ¹ÙĦÙĬÙħ": 3804,
      "ĠØ³Ø¬ÙĦ": 3805,
      "ĠØ£ÙĥØ¯": 3806,
      "ĠØ§ÙĦÙĩÙĪØ§Ø¡": 3807,
      "ĠØ³ÙĪÙī": 3808,
      "ĠØ³Ø¹ÙĬØ¯": 3809,
      "ĠÙĦØªÙĤ": 3810,
      "ĠØ§ÙĦØ®ÙĬØ§Ø±": 3811,
      "ÙĨØ¯Ø³": 3812,
      "ÙĪÙĦÙĬØ©": 3813,
      "ÙĪØ¯ÙĬ": 3814,
      "ĠØ¥Ø³": 3815,
      "ĠØ§ÙĦÙĪØ¬Ùĩ": 3816,
      "ÙĬÙħØ§ÙĨ": 3817,
      "Ø§Ø¯Ùħ": 3818,
      "ĠØ§ÙĦØ¯Ø¹": 3819,
      "ĠÙħØµØ§ÙĨØ¹": 3820,
      "ĠØ®Ø§ÙĦØ¯": 3821,
      "Ø¹Ø§Ø¯": 3822,
      "ĠØ§ÙĦÙĥØ¨ÙĬØ±Ø©": 3823,
      "od": 3824,
      "ĠØ¨ÙĬØ§ÙĨØ§Øª": 3825,
      "ØªØ±Ùģ": 3826,
      "ĠØ§ÙĬØ¶Ø§": 3827,
      "ĠØ§ÙĦØ§Ø·": 3828,
      "ØŃÙĬØ©": 3829,
      "ĠØ§ÙĦØ«Ø§ÙĨ": 3830,
      "ĠÙĪÙĬØ³": 3831,
      "ĠØ¨Ø°": 3832,
      "ĠØ§ÙĦØºØ±Ø¨ÙĬØ©": 3833,
      "ÙĥØ±Ø": 3834,
      "ÙĥØ±Ø§": 3835,
      "ĠÙħØ¬Ø§ÙĨÙĬØ©": 3836,
      "ĠÙĦÙĦØµ": 3837,
      "ĠØªØªØŃ": 3838,
      "ĠØ§ÙĦÙĥØª": 3839,
      "ÙĩØ§Ùħ": 3840,
      "ĠØ§ÙĦØªÙĨÙħÙĬØ©": 3841,
      "ĠØ¸ÙĩÙĪØ±": 3842,
      "ĠØ§ÙĦØ·ÙĦØ§Ø¨": 3843,
      "ĠØ±Ø¨ÙħØ§": 3844,
      "Ġfor": 3845,
      "ĠØ§ÙĦØ§Ùĥ": 3846,
      "ĠØ¯Ø®ÙĦ": 3847,
      "ĠØ§ÙĦØ¯Ø³Øª": 3848,
      "ĠØ§ÙĦÙĥÙħØ¨ÙĬÙĪØªØ±": 3849,
      "Ġi": 3850,
      "ĠÙĥØ±Ø©": 3851,
      "ÙĪÙĤÙĬØª": 3852,
      "Ø§Ø·ÙĨ": 3853,
      "ĠØ§ÙĦÙĬØ§Ø¨": 3854,
      "ÙĨØ§Ùĩ": 3855,
      "ĠØ¨ØŃØ³Ø¨": 3856,
      "ĠØºØ±Ø¨": 3857,
      "ÙĪØ£Ø´Ø§Ø±": 3858,
      "ĠØ§ÙĦÙĨÙĤØ¯": 3859,
      "ĠÙĦÙĦÙħØ±": 3860,
      "ÙĤÙģ": 3861,
      "ÙĨØ§Ùģ": 3862,
      "ĠØ§ÙĦÙĤØ¯ÙĬÙħØ©": 3863,
      "ÙĤØ§Ø·": 3864,
      "Ø·Ø±Ø§Ùģ": 3865,
      "ĠØ§ÙĦØ²ÙħÙĨ": 3866,
      "ĠØ£ÙĦÙħØ§ÙĨÙĬØ§": 3867,
      "ĠÙħÙĪØ§Ø¬ÙĩØ©": 3868,
      "Ġ40": 3869,
      "ĠÙģÙĬØ±ÙĪØ³": 3870,
      "ĠØ¹ÙĦÙĬÙĨØ§": 3871,
      "ce": 3872,
      "ĠØ§ÙĦØµÙģØŃØ©": 3873,
      "Ø§ÙĤÙģ": 3874,
      "ĠÙĪØ§Ø®": 3875,
      "ang": 3876,
      "Ø¸ÙĬ": 3877,
      "ĠØªÙĥÙĨ": 3878,
      "ÙĬØ±ÙĬØ§": 3879,
      "ĠØªÙĤØ¯": 3880,
      "ĠØ§Ø®Ø¨Ø§Ø±": 3881,
      "ĠØ£ØŃØ¯Ø«": 3882,
      "ĠÙĤØ§Ø¦": 3883,
      "ÙĩØ±Ø¬Ø§ÙĨ": 3884,
      "Ø±ÙĬØŃØ§Øª": 3885,
      "ĠØ³ÙĬØ§Ø±Ø©": 3886,
      "ĠÙħØ¤Ø³Ø³Ø©": 3887,
      "ĠØ£ÙĩØ¯Ø§Ùģ": 3888,
      "2020": 3889,
      "Ø¹ÙĬÙħ": 3890,
      "Ø¨ØºÙĬ": 3891,
      "ĠØ£Ø¨Ø±Ø²": 3892,
      "ĠØ§ÙĦØ£ÙĤÙĦ": 3893,
      "ĠØ§ÙĦÙħØŃÙĦÙĬ": 3894,
      "Ø´ØŃ": 3895,
      "ĠØ®ÙĬØ§Ø±": 3896,
      "ĠÙħØ¤Ùĥ": 3897,
      "ĠÙĪØ¨Ø±": 3898,
      "ĠØ¥Ùģ": 3899,
      "ĠÙĪØ³Øª": 3900,
      "ĠÙģØ§ÙĨ": 3901,
      "ĠPrice": 3902,
      "ĠÙħØ´Ø§ÙĩØ¯Ø©": 3903,
      "Ø±ÙĪÙĬØ¯": 3904,
      "Ø¬Ø§Ø¨Ø©": 3905,
      "ÙĪØ£ÙĪØ¶ØŃ": 3906,
      "ÙĬÙĦÙħ": 3907,
      "ÙĪØ§ÙħÙĦ": 3908,
      "ÙħØ³Ø©": 3909,
      "Ġr": 3910,
      "Ø±ÙģØ¶": 3911,
      "ĠÙĪÙħØ³": 3912,
      "Ø¯ÙĬØ±": 3913,
      "ĠÙĦÙĦØªØ¹": 3914,
      "ÙħØ¦": 3915,
      "ÙĪØ±Ùĥ": 3916,
      "ÙĪØ£ÙĥØ¯": 3917,
      "ĠÙĪÙĬØ±": 3918,
      "ĠØ¨Ø§ÙĦÙģØ¹ÙĦ": 3919,
      "ĠØŃØ§ÙĦØ§Øª": 3920,
      "ĠÙħÙĨØµØ©": 3921,
      "ĠØ§ÙĦÙħÙĪØ¬ÙĪØ¯Ø©": 3922,
      "ĠØªØ¸ÙĩØ±": 3923,
      "ÙĤÙĬÙĤÙĬØ©": 3924,
      "Ġis": 3925,
      "ĠÙĪØ¹ÙĨ": 3926,
      "ĠØ§ÙĦØ¹Ø§ÙħÙĦ": 3927,
      "ĠÙħÙĩÙħ": 3928,
      "ĠØ¥ÙĨÙĩØ§": 3929,
      "ÙĤØ±Ø©": 3930,
      "og": 3931,
      "ĠØ§ÙĦØ£Ø®Ø¨Ø§Ø±": 3932,
      "ĠØªÙĪØ¬Ø¯": 3933,
      "ĠØ¨Ø´Ø±": 3934,
      "ĠÙĦÙĬØ¨ÙĬØ§": 3935,
      "ĠÙĤØ§ÙħØª": 3936,
      "Ø¬ÙĬÙĨ": 3937,
      "ĠØ§ÙĦØ£Ø²": 3938,
      "ĠÙĦØ§Ø¹Ø¨": 3939,
      "Ø¯Ø±Ø¬Ø©": 3940,
      "ĠØ¯ÙĪ": 3941,
      "ĠØ§ÙĦØŃØ²Ø¨": 3942,
      "ĠØ£ÙĨÙĩÙħ": 3943,
      "ĠÙĪØ±Ø§Ø¡": 3944,
      "ĠØ§ÙĦØ¹Ø±Ø¶": 3945,
      "Ø¹ÙħÙĦÙĬØ©": 3946,
      "ĠØ´Ø£ÙĨ": 3947,
      "Ø³Ø§Ø¨": 3948,
      "ĠÙĬÙĩ": 3949,
      "Ø§ÙģÙĤØ©": 3950,
      "ĠØ§ÙĦØ§ÙĬ": 3951,
      "ĠØªØ´ÙĥÙĬÙĦ": 3952,
      "ĦØ¨Ø©": 3953,
      "ÙĦØ¨Ø©": 3954,
      "ĠØ§ÙĦØ¶Ø±": 3955,
      "ĠØ¨ØªÙĨ": 3956,
      "ĠÙħØŃÙħÙĪØ¯": 3957,
      "ĠÙĪØ§ÙĦØ§ÙĨ": 3958,
      "ĠÙĤØ¯Ø±Ø©": 3959,
      "Ø§Ø²Ùħ": 3960,
      "ØŃØ³Ø¨": 3961,
      "ĠÙĤØ±Ø§Ø¡Ø©": 3962,
      "ĠØ£Ø³Ø¨ÙĪØ¹": 3963,
      "ik": 3964,
      "ĠØ§ÙĦÙĨÙĤÙĦ": 3965,
      "Ø§ÙĬÙĬØ±": 3966,
      "ÙĪÙĦØ¯": 3967,
      "ĠSt": 3968,
      "ÙħÙĬØ§Øª": 3969,
      "ĠØ§ÙĦØ¹ÙĦÙĬØ§": 3970,
      "ĠÙħÙĨØª": 3971,
      "ĠÙħØ³ÙĦØ³ÙĦ": 3972,
      "ĠØ§ÙĦÙĪØ³Ø·": 3973,
      "ÙģÙĬÙĩ": 3974,
      "ĠØ´Ø±ÙĤ": 3975,
      "ĠØ¶Ø±ÙĪØ±Ø©": 3976,
      "ĠØ§ÙĦØ¶ØºØ·": 3977,
      "ĠØ§ÙĦØ£ØŃÙĬ": 3978,
      "ĠØ¹Ø±Ø¨ÙĬ": 3979,
      "ĠØ§ÙĦØ³Ø¨Ø¨": 3980,
      "ĠØªØ«": 3981,
      "ĠØŃØ²": 3982,
      "ĠØ§ÙĦÙĦØ§Ø²ÙħØ©": 3983,
      "ÙħÙĪØ¹Ø§Øª": 3984,
      "ĠÙħÙĨØŃ": 3985,
      "ĠÙĪØ§Ø¬": 3986,
      "Ø°ÙĨ": 3987,
      "ĠØ§ÙĦÙĪØ²ÙĨ": 3988,
      "ĠØ¹ÙĨÙĪØ§ÙĨ": 3989,
      "ĠØ§ÙĦØ¨ÙĦØ¯": 3990,
      "ĠÙĦØ¬ÙħÙĬØ¹": 3991,
      "ĠØ§ÙĦØµÙĦØ§Ø©": 3992,
      "ĠÙĦÙĦØ®": 3993,
      "ĠØ§ÙĨØªØ´Ø§Ø±": 3994,
      "ĠÙħØ®Ø·": 3995,
      "ĠØ§ØŃØªÙĬ": 3996,
      "ĠØ§ØŃØ¯": 3997,
      "Ø±Ùħ": 3998,
      "Ø§Ø¬Ùħ": 3999,
      "ĠØ§ÙĦØ·Ø¨ÙĬØ¹ÙĬ": 4000,
      "ĠØ§ÙĦÙĦØŃ": 4001,
      "ĠØ¬Ø§ÙĨ": 4002,
      "ĠØ§ÙĦØŃÙĥÙĪÙħÙĬØ©": 4003,
      "ĠØ§ÙĦÙħÙĪØ§ÙĤØ¹": 4004,
      "ĠØ¹Ø§ÙħØ©": 4005,
      "ĠØ¹ÙĦØ§ÙĤØ©": 4006,
      "ÙĪØªÙĬ": 4007,
      "one": 4008,
      "Ø²Ø": 4009,
      "Ø²Ø§": 4010,
      "ĠØ§ÙĦØ«ÙĪØ±Ø©": 4011,
      "Ø§Ø±Øª": 4012,
      "ÙĤØ·Ø§Ø¹": 4013,
      "ØµØ±ÙĬØ©": 4014,
      "ĠØªØ¬Ø§Ø±Ø©": 4015,
      "ĠÙĦØªØ¹": 4016,
      "ĠØªØŃÙĪÙĬÙĦ": 4017,
      "ĠØ§ÙĦØ¹ÙĬÙĨ": 4018,
      "ĠØ§ÙĦØ³ÙĦØ·Ø§Øª": 4019,
      "ĠØ§ÙĦØŃØ¯ÙĪØ¯": 4020,
      "ĠÙĨÙħÙĪØ°Ø¬": 4021,
      "ÙĦÙģØ²ÙĬ": 4022,
      "ĠÙħÙĨØ¹": 4023,
      "ÙĤØ§Ùħ": 4024,
      "Ø§ÙĩÙĬØ±": 4025,
      "Ø£ØªÙĬ": 4026,
      "ØªØ±ÙĥØ©": 4027,
      "ĠÙĨØŃ": 4028,
      "ĠØ§ÙĦØ£Ø¨ÙĬØ¶": 4029,
      "ĠØªÙĪÙĨØ³": 4030,
      "Ø°Ø§Ø±": 4031,
      "ĠØ³ÙĦÙĬÙħ": 4032,
      "ort": 4033,
      "ĠØ§ÙĦØ³ÙģØ±": 4034,
      "ĠÙħØ´Ø§ÙĥÙĦ": 4035,
      "Ø£Ø³Ø¹Ø§Ø±": 4036,
      "ĠØ§ÙĦÙħØ±ÙĥØ²ÙĬ": 4037,
      "ĠØ§ÙĦÙĥØ¨Ø±Ùī": 4038,
      "ĠÙģÙĥØ±Ø©": 4039,
      "ĠØ§ÙĦØ£ÙĬØ§Ùħ": 4040,
      "ĠÙģØµÙĦ": 4041,
      "ĠØ¥Ø¶Ø§Ùģ": 4042,
      "ĠØ¨Ø§ÙĦØ±": 4043,
      "ĠØ¨Ø«": 4044,
      "ĠØªØ¬Ø±Ø¨Ø©": 4045,
      "ĠØ§ÙĦØªØ¨": 4046,
      "Ø·ÙĪØ§ÙĨØ©": 4047,
      "ÙĬØ§Ø¨": 4048,
      "ĠØ§ÙĦØ¥Ø³Øª": 4049,
      "Ø¸Ø§Ø¦Ùģ": 4050,
      "ĠÙĪÙĩØ°Ùĩ": 4051,
      "Ø§Ø²ÙĨ": 4052,
      "ĠØ®ÙĦÙĬ": 4053,
      "ĠØ§ÙĦØ¯ÙĪØ±Ø©": 4054,
      "ĠØ§ÙĦØ£Øº": 4055,
      "Ø§Ø¨Øª": 4056,
      "ÙħØ§Ùħ": 4057,
      "ĠÙħØŃØ§ÙĪÙĦØ©": 4058,
      "ĠØ£Ø³Ø¨Ø§Ø¨": 4059,
      "ĠÙĤØ¶ÙĬØ©": 4060,
      "ĠØªØ¹Ø²ÙĬØ²": 4061,
      "Ø¤ÙĬØ©": 4062,
      "ÙĪØªÙĬÙĨ": 4063,
      "ĠØ®ÙĦÙĤ": 4064,
      "ĠÙĦÙħØŃ": 4065,
      "ĠÙĬØ³ØªØ·ÙĬØ¹": 4066,
      "ĠØ¨Ø§Ø³": 4067,
      "Ø§Ø¨ÙĪÙĨ": 4068,
      "ĠØ§ÙĦØ±Ùĥ": 4069,
      "ĠØµØŃØ©": 4070,
      "ÙĪØ§ÙĨØ§Øª": 4071,
      "ĠØ§ÙĦÙħØµØ¯Ø±": 4072,
      "ĠØ§ÙĦØªÙģØ§ØµÙĬÙĦ": 4073,
      "ĠÙĦØŃÙħ": 4074,
      "ĠØ§ÙĦØ±ÙĪØ³": 4075,
      "ĠØ¥Ø´": 4076,
      "ĠÙħØŃØ§ÙģØ¸": 4077,
      "ĠØºØ±ÙģØ©": 4078,
      "ĠØ§ÙĦØªØ®": 4079,
      "ĠØ¨ÙĩÙħ": 4080,
      "ĠÙħÙĤØ§Ø±ÙĨØ©": 4081,
      "ĠÙĦÙĦÙĥ": 4082,
      "ĠØ¨ÙħØŃ": 4083,
      "ĠØ§ÙĦÙħØ¤Ø³Ø³Ø§Øª": 4084,
      "ÙģÙĤØ§Øª": 4085,
      "Ø·ÙĤ": 4086,
      "ĠØ£Ø¯Ø§Ø¡": 4087,
      "ĠÙĬØº": 4088,
      "ÙĪØ±Ùĩ": 4089,
      "ĠØªÙĤÙĦ": 4090,
      "ĠÙĪÙĦÙĪ": 4091,
      "Ø´ÙĨ": 4092,
      "ĠÙĪØ§ÙĦÙ": 4093,
      "ĠØ§ÙĦÙħÙĤØ¯": 4094,
      "ĠØ§ÙĦØ¹Ø³ÙĥØ±ÙĬ": 4095,
      "ĠÙĬØ²ÙĬØ¯": 4096,
      "ĠÙĪØ§ÙĦÙĩ": 4097,
      "ĠØ¹Ø¶ÙĪ": 4098,
      "ĠÙĬÙĦÙĬ": 4099,
      "ĠØ£Ø®Ø°": 4100,
      "ĠÙĪØ§ÙĦÙĦ": 4101,
      "Ø´ÙĥÙĦ": 4102,
      "Ø®Ø§ÙĦ": 4103,
      "Ø¯ÙĬÙĤØ©": 4104,
      "ĠØ§ÙĦØ±Ø³ÙħÙĬØ©": 4105,
      "ĠØ§ÙĦÙģÙĨØ§ÙĨ": 4106,
      "ĠÙħØªØ¹Ø¯Ø¯Ø©": 4107,
      "ØªØ¨Ø·": 4108,
      "ĠÙĤÙĪÙĦÙĩ": 4109,
      "ĠØ¨Ø³Ø±Ø¹Ø©": 4110,
      "ĠÙħÙĤØ±": 4111,
      "ĠÙĦÙħØ§Ø°Ø§": 4112,
      "ĠØ§ÙĦØ±Ø¦ÙĬØ³ÙĬ": 4113,
      "ÙģÙī": 4114,
      "ÙĨÙĪØ§Øª": 4115,
      "ÙĨØ§Ø¹Ø§Øª": 4116,
      "Ø£ÙĦØ©": 4117,
      "ĠØ£Øª": 4118,
      "ĠØ¨Ø§ÙĦØªØ¹": 4119,
      "ĠØ§ÙĦÙģÙĨÙĬØ©": 4120,
      "ĠØ§ÙĦØ³ÙĬØ§Ø±Ø©": 4121,
      "ĠÙĦØ¯ÙĬÙĩ": 4122,
      "Ø¬ÙħØ§ÙĦÙĬ": 4123,
      "ĠÙĦØ£ÙĨÙĩØ§": 4124,
      "ĠØ§ÙĦØºØ°Ø§Ø¦ÙĬØ©": 4125,
      "Ø°Ø§Ùĥ": 4126,
      "ĠØªÙħÙĥÙĨ": 4127,
      "Ø²Ø±": 4128,
      "ĠØ§ÙĦØ³Ø§Ø¯": 4129,
      "ĠØ§ÙĦØŃØ¯ÙĬØ«Ø©": 4130,
      "ÙĨØ·ÙĨ": 4131,
      "ĠÙĦØ¯ÙĬÙĩØ§": 4132,
      "ĠÙģØ±Ø¶": 4133,
      "ĠØ§ÙĦØªØ´ØºÙĬÙĦ": 4134,
      "ĠÙħÙĦÙħ": 4135,
      "are": 4136,
      "Ø¹ØªÙĤØ¯": 4137,
      "ĠØ§ÙĦØªØ±ÙĥÙĬØ©": 4138,
      "ÙĤØ¨Ø§ÙĦ": 4139,
      "ĠØ¹Ø±Ùģ": 4140,
      "nd": 4141,
      "ÙĩØ°Ùĩ": 4142,
      "ĠØ§ÙĦØ¬ÙĪ": 4143,
      "ĠØ±Ø¬Ø§ÙĦ": 4144,
      "ĠÙĪÙĬØŃ": 4145,
      "ĠØ§ÙĦÙģÙ": 4146,
      "ĠØ§ÙĦØ²ÙĬØª": 4147,
      "ĠÙĨØ¬Ø§ØŃ": 4148,
      "ĠØ§ÙĦÙģÙĦ": 4149,
      "Ø·Ø§Ø¹": 4150,
      "ĠØ§ÙĦØªÙĤÙĦÙĬ": 4151,
      "ĠØ§ÙĦÙģØ±ÙĨØ³ÙĬ": 4152,
      "ĠØ§ÙĦØªØ§Ø¨Ø¹Ø©": 4153,
      "Ø§ÙĨÙĬÙĬÙĨ": 4154,
      "ĠØ§Ø³ØªØ±Ø§ØªÙĬØ¬ÙĬØ©": 4155,
      "ĠÙħØ¹ÙĩØ§": 4156,
      "ĠØ§ÙĦÙĪØ³": 4157,
      "ĠØ¨Ø§ÙĦÙħÙĨ": 4158,
      "Ġk": 4159,
      "ĠÙĦÙĤØ§Ø¡": 4160,
      "ĠØ§ÙĦØ£Ø¬ÙĩØ²Ø©": 4161,
      "ĠÙĪØ®Ø§ØµØ©": 4162,
      "Ø¨Ø¶": 4163,
      "ĠØªØ¬Ø¯": 4164,
      "ĠØ§ÙĦÙħØ¬ÙħÙĪØ¹Ø©": 4165,
      "ĠØ³Ùģ": 4166,
      "ĠÙħØªØŃ": 4167,
      "ĠØ§ÙĦÙĦÙĤØ§Ø¡": 4168,
      "ĠØ§ÙħØ±": 4169,
      "Ø¨ÙĦÙĪÙħ": 4170,
      "art": 4171,
      "ĠÙģØ±ÙĨØ³Ø§": 4172,
      "ØºØ§Ø¡": 4173,
      "ĠØ§ÙĦØ®Ø±Ø³": 4174,
      "ØªØ±Ø¶": 4175,
      "ĠØ¶ØºØ·": 4176,
      "ĦÙĤØ¯": 4177,
      "ÙĦÙĤØ¯": 4178,
      "ĠÙĨØ²": 4179,
      "ØºÙĦØ§ÙĤ": 4180,
      "ĠÙħØ§Ø¯Ø©": 4181,
      "Ø±ÙĪØŃ": 4182,
      "ĠÙĦØ§Øª": 4183,
      "ĠØ²ÙħÙĨ": 4184,
      "ĠØ¹Ø¨Ø¯Ø§ÙĦÙĦÙĩ": 4185,
      "ĠÙĦØ¥ÙĨ": 4186,
      "ĠØ§ØŃØµÙĦ": 4187,
      "ĠØ§ÙĦØ£ØŃÙħØ±": 4188,
      "ĠØ¢ÙĦØ§Ùģ": 4189,
      "ĠÙĦØªØµ": 4190,
      "ĠØ§ÙĦÙģØ±ÙĤ": 4191,
      "ĠØ®ÙĦØ§ÙĦÙĩØ§": 4192,
      "ĠAM": 4193,
      "ĠØ®ÙĬØ±": 4194,
      "ĠÙħØ³Ø¨": 4195,
      "Ø¯Ø±Ø§Øª": 4196,
      "ĠØŃØ¯ÙĪØ¯": 4197,
      "Ø·ÙĦØ¨Ø§Øª": 4198,
      "ĠÙĪØ§Ø±": 4199,
      "35": 4200,
      "Ø¬ØŃ": 4201,
      "ĠØ£ØµØ¨ØŃØª": 4202,
      "ÙħØµÙĨØ¹": 4203,
      "Ø§Ø®Ø±": 4204,
      "ĠØ§ÙĦØ¥Ø¬Ø±Ø§Ø¡Ø§Øª": 4205,
      "ĠØ·ÙĪÙĬÙĦ": 4206,
      "out": 4207,
      "Ø³ÙĦÙĪØ¨": 4208,
      "ĠØ§ÙĦÙĤØ§Ø¦ÙħØ©": 4209,
      "ĠØ§ÙĦØ£ÙĩÙĦÙĬ": 4210,
      "ĠÙĤÙĪÙĬØ©": 4211,
      "ĠØ§ÙĦÙħØ¤ØªÙħØ±": 4212,
      "ĠØ£Ø¨Ø¯": 4213,
      "Ø§ÙĩÙĬ": 4214,
      "ob": 4215,
      "ĠÙħØ§Ø°Ø§": 4216,
      "ĠÙĪÙĨØŃÙĨ": 4217,
      "ĦØ§ÙĤ": 4218,
      "ÙĦØ§ÙĤ": 4219,
      "ate": 4220,
      "Ø¬Ø§ÙĪØ²": 4221,
      "ĠØ±Ø§Ø¦Ø¹Ø©": 4222,
      "ĠØ§ÙĨÙĩØ§": 4223,
      "ews": 4224,
      "ÙĪØ¬ÙĪØ¯": 4225,
      "ÙĤØ±Ø£": 4226,
      "ĠØ³Ø¨ÙĤ": 4227,
      "ÙĦÙĬÙħÙĬ": 4228,
      "ÙĪØ³ÙĬ": 4229,
      "ont": 4230,
      "ĠÙħÙĪØ¹Ø¯": 4231,
      "ÙĪÙĬØ§": 4232,
      "Ø°ÙĬÙĨ": 4233,
      "ĠÙĦØ§Ùģ": 4234,
      "Ø§ÙĤØ´": 4235,
      "ĠÙĦØªØŃÙĤÙĬÙĤ": 4236,
      "Ġ198": 4237,
      "Ø§ØªÙĥ": 4238,
      "ĠØªØ³Ø¨Ø¨": 4239,
      "Ø¨Ø«": 4240,
      "ĠØ³ÙĬØ§Ø±Ø§Øª": 4241,
      "ÙħØ¹Ø¯Ø§Øª": 4242,
      "Ø²Ø§Ø¨": 4243,
      "ĠØ§ÙĦÙĨÙĪØ§Ø¨": 4244,
      "ĠØ¨Ø¯ÙĦØ§": 4245,
      "ĠØ¨ÙĨÙĥ": 4246,
      "ĠØ§ÙĦØŃØ±Ø§Ø±Ø©": 4247,
      "ĠØ§ÙĦØ±ÙĬØ§Ø¶ÙĬØ©": 4248,
      "ĠÙĨØ´Ø§Ø·": 4249,
      "ĠÙħØ´ÙĬØ±Ø§": 4250,
      "ĠØ¯Ø§Ø¦Ùħ": 4251,
      "ĠØ¨ÙĦØ§": 4252,
      "ĠÙĪØ§ÙĦÙħØŃ": 4253,
      "ĠØ¨Ø¹ÙĨ": 4254,
      "Ø§Ø¦Øµ": 4255,
      "ĠØ§ÙĦÙĤØ¯Ø±Ø©": 4256,
      "ĠØ§ÙĦØ¨Ø±Ø§ÙħØ¬": 4257,
      "ĠØ§ÙĦØ³ÙĨÙĪØ§Øª": 4258,
      "ĠØ§ÙĦØ£ÙħÙĨÙĬØ©": 4259,
      "ĠØ®Ø·Ø±": 4260,
      "ĠÙĤØµØ©": 4261,
      "ĠÙĪØ¸Ø§Ø¦Ùģ": 4262,
      "Ø§Ø¦Ø·": 4263,
      "ĠØ§ÙĦÙħÙĨØªØ®Ø¨": 4264,
      "ĠØ§ÙĦØ¬Ø²Ø§Ø¦": 4265,
      "ip": 4266,
      "ĠÙĪÙĩÙĨØ§Ùĥ": 4267,
      "ĠØ§ÙĦØ¹Ø±Ø§ÙĤÙĬ": 4268,
      "Ø´Ø±ÙĥØ©": 4269,
      "ĠØ§ÙĦØ£Ø³ÙĪØ§ÙĤ": 4270,
      "ÙĪØ§Ùĥ": 4271,
      "ĠØ¹ÙĬÙĨ": 4272,
      "ĠØ§ÙĦØŃÙĤÙĬÙĤØ©": 4273,
      "ĠÙĬØŃÙħÙĦ": 4274,
      "Ø¶ÙĬØ±": 4275,
      "ĠØ§ÙĦÙĦØ¹Ø¨Ø©": 4276,
      "38": 4277,
      "ÙĪÙĩØ§": 4278,
      "ØªØ¨Ø©": 4279,
      "ĠØ¥Ø«Ø±": 4280,
      "Ø§ÙħÙĩ": 4281,
      "Ø£Ùħ": 4282,
      "ÙĪÙĤÙĬØ¹": 4283,
      "ĠØ§ÙĦØ§Ø³ÙĦØ§Ùħ": 4284,
      "ÙĩÙĪØ©": 4285,
      "ĠØ§ÙĦÙĩØ¯Ùģ": 4286,
      "Ø§ÙĪØ©": 4287,
      "ÙĪÙĬØ¯": 4288,
      "ĠØ§ÙĦØ£ÙħÙĬØ±ÙĥÙĬØ©": 4289,
      "Ø·ÙģÙī": 4290,
      "ĠÙĪØ¥Ø°Ø§": 4291,
      "Ø§Ø¹Ù": 4292,
      "Ø§Ø¹ÙĦ": 4293,
      "ÙĤÙĦØª": 4294,
      "ØºØ±Ø¨": 4295,
      "ÙĪØ¹ÙĬØ©": 4296,
      "ÙĬÙģØ": 4297,
      "ÙĬÙģØ§": 4298,
      "ĠØ§ÙĦØŃØ§ÙĦØ§Øª": 4299,
      "Ø¹ÙĪÙĨ": 4300,
      "ĠÙħØ¬Ø±Ø¯": 4301,
      "ÙĩÙĦÙĥ": 4302,
      "ÙħÙĨÙī": 4303,
      "ĠØ§ÙĦÙħÙħÙĥÙĨ": 4304,
      "ĠØ§ÙĦØ«Ø§ÙĦØ«Ø©": 4305,
      "ĠØ§ÙĦØ¥Ø®": 4306,
      "Ø·Ø§ÙĦØ¨": 4307,
      "ail": 4308,
      "ĠØªÙģØ³ÙĬØ±": 4309,
      "ĠÙĬÙĪÙħÙĬØ§": 4310,
      "ØµØ¯Ø±": 4311,
      "ĠØ§ÙĦØ¨Ø´Ø±ÙĬØ©": 4312,
      "Ø´Ø±ÙĪØ¹": 4313,
      "ĠØ§ÙĦØ¢Ø®Ø±ÙĬÙĨ": 4314,
      "Ú©": 4315,
      "ĠØ§ÙĦØ·ØŃÙĨ": 4316,
      "ĠÙĪØ±Ø¯": 4317,
      "ĠÙĦÙĦÙħØ³": 4318,
      "Ø¶Ùī": 4319,
      "Ø§ÙĦÙĥØªØ±": 4320,
      "ĠØ§ÙĦØ¬Ø§Ø±ÙĬ": 4321,
      "ØµØ¯ÙĤ": 4322,
      "ĠÙĪØ§ÙĦØ³ÙĬ": 4323,
      "ĠØ§ÙĦÙģØ¹": 4324,
      "Ø§Ø¯Ø¦": 4325,
      "ĠØ¹ÙĨØ§ØµØ±": 4326,
      "ÙĬØ¤": 4327,
      "36": 4328,
      "ĠÙħØ¤Ø®Ø±": 4329,
      "ÙħØ±Ø©": 4330,
      "ube": 4331,
      "ĠØ§ÙĦÙħØ¯ÙĬØ±": 4332,
      "ĠÙģØ±Øµ": 4333,
      "Ø§Ø·ÙĬ": 4334,
      "Ø«ÙĨÙĬÙĨ": 4335,
      "ĠÙħØ¤ØªÙħØ±": 4336,
      "Ġâ": 4337,
      "if": 4338,
      "ĠØ§ÙĦØ£ÙģØ¶ÙĦ": 4339,
      "ĠÙĤØ§ÙĦØª": 4340,
      "Ġ500": 4341,
      "Ø¢Øª": 4342,
      "ĠØ§ÙĦØ¹ÙĦÙħÙĬØ©": 4343,
      "Ø§ÙĦÙ": 4344,
      "ĠØ§ÙĦÙģØµÙĦ": 4345,
      "ĠØ§ÙĦØ³ÙĬÙĨ": 4346,
      "ĠØ¬ÙħØ§ÙĦ": 4347,
      "ĠØ±ÙĬÙħ": 4348,
      "Ø§ÙĦÙĦ": 4349,
      "39": 4350,
      "ĠÙĪØ§Ø¶ØŃ": 4351,
      "Ùĭ:": 4352,
      "ĠØ§ÙĦØ£ØµÙĦ": 4353,
      "Ø±Ø´": 4354,
      "ĠØ§Ø®ØªØ±": 4355,
      "ĠÙĦÙĦØªØŃ": 4356,
      "45": 4357,
      "Ø£Ø³ÙĬØ³": 4358,
      "ĠÙĪØ§Ø³Ø¹Ø©": 4359,
      "ĠØ§ÙĦØ£Ø¬": 4360,
      "ĠÙħÙĨØ²": 4361,
      "ĠØ§ÙĦÙĤÙĪØ©": 4362,
      "ĠÙħØ¹ÙĨÙī": 4363,
      "ÙħÙĪØ": 4364,
      "ÙħÙĪØ§": 4365,
      "Ġ01": 4366,
      "ĠØ£Ø¬Ø²Ø§Ø¡": 4367,
      "ĠØ³ØªÙĥÙĪÙĨ": 4368,
      "ĠØ±ÙĬØ§Ø¶": 4369,
      "ĠØ§ÙĦÙħØ§ÙĦÙĬ": 4370,
      "Ø§Ø·Ø¦": 4371,
      "ĠØ£ÙĪÙĦØ": 4372,
      "ĠØ£ÙĪÙĦØ§": 4373,
      "ÙłÙł": 4374,
      "ĠÙĨÙĤØ§Ø·": 4375,
      "ant": 4376,
      "ĠÙĪÙĬØªÙħ": 4377,
      "ĠØ§ÙĦÙĤÙĪÙĦ": 4378,
      "ĠØ¹ÙħØ§ÙĨ": 4379,
      "Ø´ÙĬØ±": 4380,
      "ĠØ¨ÙĨØª": 4381,
      "Ø¯Ø±Ø§Ø³Ø©": 4382,
      "ĠØ¥Ø¨Ø±Ø§ÙĩÙĬÙħ": 4383,
      "ĠØ±Ø§Ø¦Ø¹": 4384,
      "ĠØªØ¬Ùĩ": 4385,
      "ĠØ§ÙĦÙĤØ§Ø¯ÙħØ©": 4386,
      "ĠØ¨ÙħØ¹": 4387,
      "ĠÙģÙĪØ§Ø¦Ø¯": 4388,
      "ĠØŃÙģ": 4389,
      "ÙĬØ¨Ø©": 4390,
      "ĠØ§ÙĦØŃØ§ÙĦÙĬØ©": 4391,
      "ĠØ§ÙĦÙĤØ¶Ø§Ø¡": 4392,
      "ĠØ¨ÙĦØ¯": 4393,
      "Ø±ÙĬØ¨ÙĬØ©": 4394,
      "Ø§ÙĦØ³ÙĬ": 4395,
      "Ġst": 4396,
      "ĠØ«Ø§ÙĨÙĬØ©": 4397,
      "Ø§ÙĩÙĪ": 4398,
      "ĠØ£ÙĨÙĥ": 4399,
      "Ġ60": 4400,
      "ÙĦÙĬÙĤØ§Øª": 4401,
      "Ø®ØªÙĦÙģ": 4402,
      "ĠØ§ÙĦØ¹Ø²ÙĬØ²": 4403,
      "ach": 4404,
      "ĠÙĪØ£ÙĬ": 4405,
      "ĠØ§ÙĦØ¯ÙĪ": 4406,
      "ĠØ§ÙĦØ¥ØµØ§Ø¨Ø©": 4407,
      "----": 4408,
      "ĠØ§ÙĦØ¨Ø§Ø¨": 4409,
      "ĦÙĪÙĦ": 4410,
      "ÙĦÙĪÙĦ": 4411,
      "ĠØ§ÙĦÙħÙĤØ§ÙĦ": 4412,
      "Ø¨Ø±ÙĨØ§ÙħØ¬": 4413,
      "ĠÙĬÙĪÙħØ": 4414,
      "ĠÙĬÙĪÙħØ§": 4415,
      "ĠÙĦÙĥØ±Ø©": 4416,
      "ÙĥÙĬÙģÙĬØ©": 4417,
      "ÙģÙĬÙĤ": 4418,
      "ĠÙĪÙĬØª": 4419,
      "ØµÙĨØ¹": 4420,
      "ĠØ§ÙĦØ¹ÙĦÙħÙĬ": 4421,
      "ĠØ±Ø¬": 4422,
      "ĠØ¨ÙħØ±": 4423,
      "ĠØ£Ø¯ÙĪØ§Øª": 4424,
      "ĠØ§ÙĦØ¹Øµ": 4425,
      "ĠØ£ÙħØ±ÙĬÙĥØ§": 4426,
      "ĠØ§ÙĦØ·Ø±Ùģ": 4427,
      "ĠØ´Ø±Ùĥ": 4428,
      "ĠÙħØ¹ÙĬÙĨØ©": 4429,
      "ĠØªØ¨Ø¯Ø£": 4430,
      "ĠÙħØ¹Ø¯Ù": 4431,
      "ĠÙħØ¹Ø¯ÙĦ": 4432,
      "ĠØ¯ÙĤØ§Ø¦ÙĤ": 4433,
      "ĠØªÙĤÙĪÙĦ": 4434,
      "ĠØ§ÙĦØ²ÙĪØ¬": 4435,
      "ĠØ·Ùģ": 4436,
      "ĠØªØ¬Ø¹ÙĦ": 4437,
      "Ø§Ø¦ÙĩÙħ": 4438,
      "ĠØ§ÙĦÙħØŃÙĥÙħØ©": 4439,
      "ÙĪØ±Øª": 4440,
      "Ø¹Ùĩ": 4441,
      "ĠØ§ÙĦØ£Ø¹ÙĦÙī": 4442,
      "ĠÙĦÙĥÙĨÙĩ": 4443,
      "Ø£ÙĥÙĬØ¯": 4444,
      "ĠØ§ÙĦØ§ÙĦÙĥØªØ±": 4445,
      "ĠØ´Ø®ØµÙĬØ©": 4446,
      "ÙĥØ±ÙĬ": 4447,
      "ÙĩØ§Ø¨ÙĬØ©": 4448,
      "ĠØ§ÙĦÙĦÙĪÙĨ": 4449,
      "ÙĪØ³Ø©": 4450,
      "ĠØ§ÙĦÙħÙĤØ¨ÙĦØ©": 4451,
      "Ù£": 4452,
      "ØªØ±Ø§Ùħ": 4453,
      "ĠØµÙģØŃØ©": 4454,
      "ĠÙĬÙĪØ³Ùģ": 4455,
      "ÙĪÙĤØ©": 4456,
      "ĠØ¬Ø§Ùĩ": 4457,
      "ÙħÙĪØ¶ÙĪØ¹": 4458,
      "ĠØ§ÙĦØªØ¹Ø¨": 4459,
      "Ø§ØµÙĦØ©": 4460,
      "ĠØ§ÙĦØ¨ÙĬØ¦Ø©": 4461,
      "Ø§ÙĥØ©": 4462,
      "ĠØ§ÙĦØ£Ø±Ø¯ÙĨ": 4463,
      "ĠØ§ÙĦØ¹Ø±Ø§ÙĤÙĬØ©": 4464,
      "ĠØ§ÙĦØ³ÙĥØ±": 4465,
      "Ø±ÙĤØ§Ùħ": 4466,
      "ĠØ§ÙĦØ£Ø²ÙħØ©": 4467,
      "ĠØªØŃØ³ÙĬÙĨ": 4468,
      "ÙĬØ¯Ø": 4469,
      "ĠØ§ÙĦØ£ÙħÙĪØ§ÙĦ": 4470,
      "ÙĬØ¯Ø§": 4471,
      "ĠØ§ÙĦØªØ¬Ø§Ø±ÙĬ": 4472,
      "ĠÙĬØ¹ÙĬØ´": 4473,
      "ĠØ³ÙĪØ±ÙĬØ©": 4474,
      "Ù¥": 4475,
      "Ø§Ø¶ÙĬØ¹": 4476,
      "ÙħØ§ØŃ": 4477,
      "Ø§ÙĨØ³": 4478,
      "ĠØ£ÙĦØ§": 4479,
      "Ġ2010": 4480,
      "ĠØ·Ø±ØŃ": 4481,
      "Ø§ÙĪÙĦØ§Øª": 4482,
      "ÙĬØ³Ø©": 4483,
      "ĠØ§ÙĦØ£ÙħÙĬØ±ÙĥÙĬ": 4484,
      "ĠØ§ÙĦØ®ÙĬ": 4485,
      "ĠØ§ÙĦØ±Ø¬Ø§ÙĦ": 4486,
      "ÙĨÙĥ": 4487,
      "ĠØ§ÙĦØºØ§Ø²": 4488,
      "ĠØ§ÙĦØ¥ÙħØ§Ùħ": 4489,
      "Ø§ÙĪÙī": 4490,
      "ÙĪØ§ØŃ": 4491,
      "ĠØ³Ø·ØŃ": 4492,
      "Ġpro": 4493,
      "ÙĬÙĪÙħ": 4494,
      "ĠÙģØ¶ÙĦØ§": 4495,
      "ĠÙħØ§ÙĥÙĬÙĨØ§Øª": 4496,
      "ĠØ¯ÙĪØ±ÙĬ": 4497,
      "Ø·Ø±ØŃ": 4498,
      "ĠØŃØ¯ÙĪØ«": 4499,
      "ĠØ§ÙĦØªØ¬Ø§Ø±": 4500,
      "ĠÙĥØ´Ùģ": 4501,
      "ĠÙĪØ§Ø³Ø¹": 4502,
      "ĠØ§ÙĦØŃØ¶": 4503,
      "ĠÙĥØ§Ùħ": 4504,
      "ĠØ§ÙĦØ±Ùħ": 4505,
      "ĠØ¹Ø±Ø¨ÙĬØ©": 4506,
      "Ø§Ø¯ÙĬÙħ": 4507,
      "ĠØŃÙĤÙĬÙĤØ©": 4508,
      "ÙĪØ³Ø·Ø©": 4509,
      "ĠØ§ÙĦØ¬ÙĩØ§Øª": 4510,
      "ĠØ§ÙĦÙĨØ§Ø¯ÙĬ": 4511,
      "ÙĦØ§ÙħØ§Øª": 4512,
      "ĠØ¨ØªØ§Ø±ÙĬØ®": 4513,
      "ĠØ§ÙĨØ": 4514,
      "ĠØ§ÙĨØ§": 4515,
      "ĠØ§ÙĦØ¨Ø±ÙĬØ¯": 4516,
      "ĠØ§ÙĦÙĨÙĪÙħ": 4517,
      "ĠÙĬØ²Ø§ÙĦ": 4518,
      "ĠÙħØ´Ø§Ø±ÙĥØ©": 4519,
      "iv": 4520,
      "ĠÙĪÙħØ³Øª": 4521,
      "ØºØ¨Ø©": 4522,
      "ĠÙħÙĨØ§Ùģ": 4523,
      "Ø¸ÙħØ§Øª": 4524,
      "ĠÙĦØ¶": 4525,
      "ĠØ¹ÙĦÙĬÙĥÙħ": 4526,
      "ĠØ§ÙĦÙħÙĥØªØ¨": 4527,
      "ĠØ§ÙĦØ¬ÙĦØ¯": 4528,
      "Ø¸ÙģÙĬÙĨ": 4529,
      "ĠØ§ÙĦÙĨØªØ§Ø¦Ø¬": 4530,
      "ĠÙĬØ±Ø¬": 4531,
      "ĠØ§ÙĦÙĤÙĬØ§Ø¯Ø©": 4532,
      "ĠØ§ÙĦØ²Ø±Ø§Ø¹": 4533,
      "pt": 4534,
      "ĠØ§ÙĦÙħØªØ¹ÙĦÙĤØ©": 4535,
      "ÙĩÙĢ": 4536,
      "ĠØ§ÙĦØµÙĪØª": 4537,
      "ĠØ§ÙĦØŃØ§ÙĦ": 4538,
      "ĠØ§ÙĦÙħÙĪØ§Ø·ÙĨ": 4539,
      "Ø«ÙĨØ§Ø¡": 4540,
      "ĠØ§ÙĦØªØŃÙĤÙĬÙĤ": 4541,
      "Ø±Ø¨ÙħØ§": 4542,
      "ĠÙĪÙĤÙģ": 4543,
      "37": 4544,
      "ĠØ§ÙĦØ´Ø±ÙĤÙĬØ©": 4545,
      "âĢĭ": 4546,
      "ĠÙĨØ¯": 4547,
      "ĠØ¥ØŃ": 4548,
      "ĠØ£Ø±Ø¯": 4549,
      "ĠØªØ¬ÙĩÙĬØ²": 4550,
      "ĠØ§ÙĦØ¹ÙĦÙħØ§Ø¡": 4551,
      "2019": 4552,
      "ĠØ§ÙĦÙĥÙĩØ±Ø¨Ø§Ø¡": 4553,
      "ĠØŃØ³ÙĬÙĨ": 4554,
      "ment": 4555,
      "ĠØ§ÙĦØ¬ÙĬ": 4556,
      "Ø¦ÙĬØ©": 4557,
      "ĠØªØ³ØªØ·ÙĬØ¹": 4558,
      "ĠÙĦØ¯ÙĬÙĩÙħ": 4559,
      "ĠØ¥Ø®": 4560,
      "ĠØ§ÙĦØ§ÙĪÙĦ": 4561,
      "ĠØ§ÙĦØ¹ÙĤÙĦ": 4562,
      "Ø¨ÙĨÙī": 4563,
      "ÙģÙĬØ¯ÙĬÙĪ": 4564,
      "ØªØ§ÙĨ": 4565,
      "ĠØ§ÙĦØ´Ø¹Ø¨ÙĬ": 4566,
      "ĠØªØªØ±": 4567,
      "ĠØªÙĤÙĬÙĬÙħ": 4568,
      "ĠØ£Ø¨ÙĨØ§Ø¡": 4569,
      "ĠØªÙħØ§Ùħ": 4570,
      "ĠØ¨Ø·ÙĪÙĦØ©": 4571,
      "ØµØ§Ø¨": 4572,
      "ĠÙħØ³Ø§ØŃØ©": 4573,
      "Ø¬ÙĦÙĬØ²ÙĬ": 4574,
      "ĠØ§ÙĦÙĤØ¶ÙĬØ©": 4575,
      "ĠÙĬÙĨØ¨ØºÙĬ": 4576,
      "ĠØ¨ÙĬÙĨÙĩØ§": 4577,
      "Ø²ÙĬØ§": 4578,
      "Ø´ÙĩØ¯": 4579,
      "Ø¬Ø§Ø±Ø©": 4580,
      "ÙĪØ§Ø¬Ùĩ": 4581,
      "ĠØªÙĤØ¹": 4582,
      "ĠÙĦØ£ÙĬ": 4583,
      "ĠØ§Ø³ØªÙħØ±Ø§Ø±": 4584,
      "ĠØ§ÙĦØ¨Ø´Ø±Ø©": 4585,
      "ĠØ§ÙĦØªÙĥ": 4586,
      "ĠØ³ÙĥØ§ÙĨ": 4587,
      "ĠÙħÙĥØ§ÙģØŃØ©": 4588,
      "ud": 4589,
      "ĠØ§ÙĦØ¨Ø§ØŃØ«": 4590,
      "ost": 4591,
      "Ù¤": 4592,
      "ĠØ§ØªØ®Ø§Ø°": 4593,
      "Ġ09": 4594,
      "Ġ05": 4595,
      "ĠØ§ÙĦÙħØ´ÙĥÙĦØ©": 4596,
      "ĠØ§ÙĦØµÙĬ": 4597,
      "ÙĪÙĨØº": 4598,
      "ĠÙĤØ§Ø¹Ø¯Ø©": 4599,
      "ĠÙĤÙĪÙĦ": 4600,
      "ĠØ§ÙĦÙħØªÙĪØ³Ø·": 4601,
      "ÙĪÙĬØªØ±": 4602,
      "ĠØµÙĦØ§ØŃ": 4603,
      "ÙĥÙħÙĦ": 4604,
      "ĠØ¨ÙĬÙĨÙĩÙħ": 4605,
      "ĠÙĤØ§Ø¦ÙĦØ§": 4606,
      "ĠØ§Ø²": 4607,
      "Ø§ÙĤØ¨": 4608,
      "ĠØ§ÙĦØ§ØªØ¬Ø§Ùĩ": 4609,
      "Ø§Ø¦Ø±Ø§Øª": 4610,
      "ĠØ¬ÙĩÙĪØ¯": 4611,
      "ĠØ§ÙĦÙħÙĦØ§Ø¨Ø³": 4612,
      "ĠAr": 4613,
      "ĠØ§ÙĦÙħØ¯Ø±Ø³Ø©": 4614,
      "ĠØ§ÙĦØŃÙģØ§Ø¸": 4615,
      "ĠØ§ÙĦÙħØ³ÙĦØŃØ©": 4616,
      "ah": 4617,
      "ĠÙĪØªØ¯": 4618,
      "ĠØ§ÙĦØ¹ÙĦØ§ÙĤØ©": 4619,
      "ĠØ§ÙĦÙģØ±ÙĨØ³ÙĬØ©": 4620,
      "ĠÙħØ¯Ø§Ø±": 4621,
      "ĠØ§ÙĦØ¯ÙĪÙĦØ§Ø±": 4622,
      "ĠØ®ÙħØ³": 4623,
      "df": 4624,
      "ĠØ§ÙĦØªÙĤØ±ÙĬØ±": 4625,
      "ĠØ§ÙĦØŃÙĤÙĬÙĤÙĬ": 4626,
      "ex": 4627,
      "ĠÙĬÙĤÙĦ": 4628,
      "Ø±ÙĬØŃØ©": 4629,
      "ÙĥØ³Ø§Ø±Ø§Øª": 4630,
      "ĠÙħÙĨØ²ÙĦ": 4631,
      "ĠÙĨÙĪ": 4632,
      "ĠØ·ÙĪÙĦ": 4633,
      "ĠØ¨ØªÙĤ": 4634,
      "ĠMore": 4635,
      "ĠØ£Ø¹ÙĦÙĨØª": 4636,
      "ĠÙĥÙĪØ¨": 4637,
      "ĠÙĬØ¸ÙĩØ±": 4638,
      "ĠÙĤÙĬÙħ": 4639,
      "ĠÙħØ®Ø±ÙĪØ·ÙĬØ©": 4640,
      "ĠØ§ÙĦØ£Ø¨": 4641,
      "ĠÙħØ§ÙĨ": 4642,
      "ist": 4643,
      "99": 4644,
      "ĠX": 4645,
      "ĠØªÙĩØªØ²": 4646,
      "ĠØ£Ø¹Ø±Ùģ": 4647,
      "ØªÙħØª": 4648,
      "ÙħØªÙĦÙĥ": 4649,
      "Ø¶Ø§Ø¹": 4650,
      "ĠÙħÙĨØªØ¬": 4651,
      "ĠØ¬ÙĬØ¯Ø": 4652,
      "ĠØ¬ÙĬØ¯Ø§": 4653,
      "act": 4654,
      "ĠÙĦØªØ±": 4655,
      "ĠØ£Ø¹ÙĦÙĨ": 4656,
      "ÙĤÙĪØ·": 4657,
      "ĠØ¨Ø¹Ø¯ÙħØ§": 4658,
      "Ø¬ÙĪÙĨ": 4659,
      "ĠØªØ¹Ø±ÙĬÙģ": 4660,
      "ĠÙĦÙĦØ¨": 4661,
      "ĠØ§ÙĦØ«ÙĤØ§ÙģØ©": 4662,
      "Ø¯Ø±Ø¯": 4663,
      "ĠØ§ÙĦÙħØŃØ§ÙģØ¸Ø©": 4664,
      "ĠÙĥØ¨ÙĬØ±Ø": 4665,
      "ĠÙĥØ¨ÙĬØ±Ø§": 4666,
      "Ø¯ÙĬÙĩ": 4667,
      "ĠØ§ÙĦÙĪØ¬": 4668,
      "Ø§Ø³Ù": 4669,
      "Ø§Ø³ÙĦ": 4670,
      "ÙģØªØ±Ø©": 4671,
      "ĠØ§ÙĦØŃÙĪØ«": 4672,
      "ĠØ£ØŃÙĬ": 4673,
      "ĠØ§ÙĦØ°Ø§Øª": 4674,
      "ĠÙĬØ¹ÙĪØ¯": 4675,
      "age": 4676,
      "ĠØ§ÙĦØ¥Ùģ": 4677,
      "ĠØªØ¯Ø®ÙĦ": 4678,
      "ĠØ§ÙĦØ³ÙĬØ§Ø³Ø©": 4679,
      "ĠØªØ´Ø±ÙĬÙĨ": 4680,
      "ĠØµØ§Ø±": 4681,
      "ÙĤØ§Øª": 4682,
      "ĠØ§ÙĦÙħÙĪØ±Ø¯": 4683,
      "ÙĤÙĪÙħ": 4684,
      "ĠØ§ÙĦÙĥÙĩØ±Ø¨Ø§Ø¦ÙĬØ©": 4685,
      "Ġre": 4686,
      "ĠØ§ÙĦØªØ±ÙĥÙĬ": 4687,
      "ĠÙĬÙĪÙģØ±": 4688,
      "tps": 4689,
      "ĠØ§ÙĦØµÙĬÙĨÙĬØ©": 4690,
      "ĠÙĬÙħØ«ÙĦ": 4691,
      "48": 4692,
      "ĠØ±Ùĥ": 4693,
      "ĠØ§ÙĦØªØº": 4694,
      "Ø§ÙĦØ·": 4695,
      "ĠÙĦÙĦØ§ÙĨ": 4696,
      "ĠÙĤØ§Ø¯Ø±": 4697,
      "ĠThe": 4698,
      "ÙĤØµ": 4699,
      "ĠØŃÙĦÙħ": 4700,
      "ĠØ§ÙĦÙĥØªØ¨": 4701,
      "ĠØ§ÙĦÙħØŃØ¬Ø±": 4702,
      "ĠØ§ÙĦÙħÙģØª": 4703,
      "ph": 4704,
      "ĠØ§ÙĦØªÙĨØ¸ÙĬÙħ": 4705,
      "ĠØ§ÙĦØ´Ø¹Ø¨ÙĬØ©": 4706,
      "ĠÙĪØ¬Ø¯": 4707,
      "ĠÙĬØ¨": 4708,
      "ÙħÙĬØ²Ø§Øª": 4709,
      "ĠØ§ÙĦØ£Ø´ÙĬØ§Ø¡": 4710,
      "ÙĪØ³Øª": 4711,
      "ÙĨØ§Øª": 4712,
      "ĠØ¥Ø¬Ø±Ø§Ø¡Ø§Øª": 4713,
      "ĠÙĨØ³Øª": 4714,
      "ĠØŃÙģØ¸": 4715,
      "ĠÙĥÙĦÙĬØ©": 4716,
      "ĠØ§ÙĦÙħÙĪØª": 4717,
      "ĠÙĦØ¹Ø¨": 4718,
      "ÙĥØªØ§Ø¨": 4719,
      "60": 4720,
      "ĠØ´Ø±ØŃ": 4721,
      "ĠØ£Ø«Ø±": 4722,
      "ĠØ§ÙĨØ®ÙģØ§Ø¶": 4723,
      "ĠØ§ÙĦØ§ØŃØªÙĬ": 4724,
      "ĠØ¥Ø¹Ø¯Ø§Ø¯": 4725,
      "ĠØ§ÙĦØ¨Ø§Ø±": 4726,
      "ĠØªØ£ØªÙĬ": 4727,
      "Ø¹ÙħØ§Ø±": 4728,
      "ĠÙĥØ±ÙĬÙħ": 4729,
      "2018": 4730,
      "ĠØ§ÙĦØ£ÙĪ": 4731,
      "Ġï": 4732,
      "ĠØ§ÙĦØ¥ÙĨØ³Ø§ÙĨÙĬØ©": 4733,
      "ĠØ§ÙĦØ¯ÙĨÙĬØ§": 4734,
      "ĠÙĦÙħØ¹": 4735,
      "ĠØ§Ø³Ø¹Ø§Ø±": 4736,
      "ĠØ§ÙĦØ¯ÙĤÙĬÙĤØ©": 4737,
      "Ø§ÙĦØªØ²Ø§Ùħ": 4738,
      "ĠÙģÙĥÙĬØ©": 4739,
      "ĠØºØ³ÙĦ": 4740,
      "ĠØ¨ØµÙĪØ±Ø©": 4741,
      "ĠØ¨Ø³ÙĩÙĪÙĦØ©": 4742,
      "ĠØ§ÙĦØ±Ø§Ø¨Ø¹": 4743,
      "ÙĥÙħØ§ÙĦ": 4744,
      "ĠÙħØ¬ÙĦØ©": 4745,
      "ĠØ§ÙĦØŃØ¬Ø§Ø±Ø©": 4746,
      "ĠØ§ÙĦØªÙĥÙĨÙĪÙĦÙĪØ¬ÙĬØ§": 4747,
      "ĠØ§ÙĦÙħØ¤Ø³Ø³Ø©": 4748,
      "Ø´Ø§Ø¨": 4749,
      "ĠÙħØ±Ø§Øª": 4750,
      "ÙħØ§ÙĦÙĥ": 4751,
      "ĠØ§ÙĦÙĤÙĪÙī": 4752,
      "ðŁ": 4753,
      "ĠØ¨Ø±ÙĬØ·": 4754,
      "ĠØ§ÙĦØªØ³Ø¬ÙĬÙĦ": 4755,
      "ĠØŃØ§Ø¬Ø©": 4756,
      "ĠØ§ÙĦØ¬ÙħØ¹ÙĬØ©": 4757,
      "ĠØªÙħØ±": 4758,
      "ĠØ£Ø·ÙĦÙĤ": 4759,
      "ĠØ§ÙĦØ°Ùĩ": 4760,
      "ĠØ§ÙĦØªØ¹ÙĦÙĬÙħÙĬØ©": 4761,
      "ĠÙħÙĨØ§Ø³Ø¨Ø©": 4762,
      "ĠÙĪØ§ÙĦØªØ¹ÙĦÙĬÙħ": 4763,
      "ĠØ§ÙĦØ¥Ø±ÙĩØ§Ø¨": 4764,
      "Ø§Ø®Ø¨Ø§Ø±": 4765,
      "Ø¨Ø®": 4766,
      "ĠØ§ÙĦØ®Ø±Ø³Ø§ÙĨØ©": 4767,
      "ĠÙħØ¹Ø±Ø¶": 4768,
      "Ø§Ø±Ùģ": 4769,
      "ĠØ§ÙĦØŃÙĪØ§Ø±": 4770,
      "ĠUS": 4771,
      "ĠØ·Ø¨ÙĤ": 4772,
      "ĠØ§ÙĦØ®Ø±": 4773,
      "Ø¯Ø±ÙĬØ©": 4774,
      "ĠØ£Ø±Ø¨Ø¹Ø©": 4775,
      "ØªØ´Ø§Ùģ": 4776,
      "ØªØµØ±": 4777,
      "ĠØ§ÙĦØ¬ÙĪÙĬØ©": 4778,
      "ĠØ¹ÙĤØ¨": 4779,
      "Ø§Ø·Ø¹": 4780,
      "ĠØ§ÙĦØ¹Ø§Ø¨": 4781,
      "ĠØ§ÙĨØªØ§Ø¬": 4782,
      "ĠØ§ÙĦØªØŃÙĥÙħ": 4783,
      "ĠØ§ÙĦØªÙħÙĪ": 4784,
      "ØªØ±Ø§ØªÙĬØ¬ÙĬØ§Øª": 4785,
      "Ø¹Ø¯Ù": 4786,
      "Ø¹Ø¯ÙĦ": 4787,
      "ĠØ§ÙĦØ¨Ø¯Ø§ÙĬØ©": 4788,
      "ĠØ§ÙĦØ¹ÙĦÙĪÙħ": 4789,
      "ĠØ§ÙĦØŃØ¬Ùħ": 4790,
      "ĠØ§ÙĦØªÙĨÙģÙĬØ°": 4791,
      "ĠØ§ÙĦÙħÙĨØ§Ø³Ø¨Ø©": 4792,
      "ĠØ§ÙĦÙħØ¹Ø¯ÙĨÙĬØ©": 4793,
      "ĠØ§ÙĦÙħÙĩÙħ": 4794,
      "ĠØ®ØµÙĪØµØ": 4795,
      "ĠØ®ØµÙĪØµØ§": 4796,
      "Ø±Ø§ÙĨ": 4797,
      "ĠØ§ÙĦÙģÙĥØ±": 4798,
      "Ø§ÙĩÙĬØ©": 4799,
      "ĠØ³Ø¹Ø¯": 4800,
      "ĠØ§ÙĦØ¹ÙħÙĦÙĬØ§Øª": 4801,
      "ect": 4802,
      "ĠÙħÙĬØ§Ùĩ": 4803,
      "Ø³ÙĬØ§": 4804,
      "ĠØ¨Ø·Ø§ÙĤØ©": 4805,
      "ĠØ³ÙĬØ§Ø³ÙĬØ©": 4806,
      "ĠÙħØ§Øª": 4807,
      "ÙĩØ§Ø¨ÙĬ": 4808,
      "ĠØ¹ÙĩØ¯": 4809,
      "ĠØ§ÙĦØ±ÙĪØ³ÙĬØ©": 4810,
      "ĠØ§ÙĦÙħÙĩÙĨÙĬØ©": 4811,
      "ØªØªØ§ØŃ": 4812,
      "Ø¶Ø±ÙĪØ±Ø©": 4813,
      "ĠØ§ÙĦØ§Ø³ØªÙģ": 4814,
      "ĠÃ": 4815,
      "ĠØ§ÙĦØ¨Ø±ÙĦÙħØ§ÙĨ": 4816,
      "ĠØ§ÙĦÙħÙĨØ²": 4817,
      "ĠØ´Ø§Ø´Ø©": 4818,
      "Ø²ÙħØ§Øª": 4819,
      "ÙĩÙĨØ§Ùĥ": 4820,
      "ĠÙĦÙĦÙĪ": 4821,
      "Ø´ÙģØª": 4822,
      "ØªØµØ§Øµ": 4823,
      "ĠØ¹Ø¯ÙĬØ¯Ø©": 4824,
      "ĠØ§ÙĦØ¹ÙĪØ¯Ø©": 4825,
      "ĠØ¥ØµØ¯Ø§Ø±": 4826,
      "ĠÙĥÙĩØ±Ø¨": 4827,
      "ĠÙħÙħÙĨ": 4828,
      "Ø¬ÙĩÙĬØ²": 4829,
      "ass": 4830,
      "ÙĨØ¯ÙĬØ©": 4831,
      "ĠÙħØ¬Ø§ÙĨÙĬ": 4832,
      "ĠÙĬØ²": 4833,
      "ĠØ§ÙĦØ¯Ø±Ø§Ø³Ø§Øª": 4834,
      "ĠÙĦÙĪÙĨ": 4835,
      "ĠØ´Ø¨Ø§Ø¨": 4836,
      "Ø°Ùģ": 4837,
      "ĠØ§ÙĦØ®Ø¶": 4838,
      "Ø¯Ø±Ø³": 4839,
      "ĠØ³ÙĨØª": 4840,
      "ĠÙĪØ§ÙĦÙĦÙĩ": 4841,
      "55": 4842,
      "ÙĦÙĬØ´": 4843,
      "ĠØ³ÙĬØ§Ø³Ø©": 4844,
      "ĠÙĦÙħØ±": 4845,
      "ĠØ§ÙĦÙĪØŃÙĬØ¯": 4846,
      "ĠÙĦÙĦØªÙĨ": 4847,
      "Ø¸Ø¨ÙĬ": 4848,
      "Ø£ÙģØ¶ÙĦ": 4849,
      "ĠØ§ÙĦÙĨØ²": 4850,
      "ĠØ§ÙĦØ£ÙħØ±Ø§Ø¶": 4851,
      "ĠØºØ§ÙĦØ¨": 4852,
      "ØºØ§ÙĨ": 4853,
      "ĠÙĥÙħÙĬØ©": 4854,
      "ĠÙĨØ³Ø®Ø©": 4855,
      "Ġ08": 4856,
      "ĠAl": 4857,
      "31": 4858,
      "ÙĨØ³Ø§Ø¡": 4859,
      "ĠRe": 4860,
      "Ø®ÙĬØ±": 4861,
      "Ø±Ø±": 4862,
      "ĠÙħÙħØ§Ø±Ø³Ø©": 4863,
      "Ø§Ø´Ø§Øª": 4864,
      "ØºÙĦØ§ÙĦ": 4865,
      "Ø³ÙĬÙĤÙī": 4866,
      "ÙĪØ²ÙĬØ±": 4867,
      "ĠØ§ÙĦØ£Ø±Ø¨": 4868,
      "ØªØ¨Ø§Ø·": 4869,
      "ĠØ±ÙĪØŃ": 4870,
      "Ù©": 4871,
      "Ø§Ø±ÙĤØ©": 4872,
      "ĠÙĪØ§ÙĦÙħØª": 4873,
      "ĠØ§ÙĦØ´Ø±ÙĬÙģ": 4874,
      "ĠÙħÙĪÙĦ": 4875,
      "ÙĪÙĬØ¶": 4876,
      "ï»´": 4877,
      "Ø·ÙĪÙĦ": 4878,
      "Ø§ÙĥØ§Øª": 4879,
      "ĠØ³Ø±ÙĬØ¹": 4880,
      "ÙģÙĬØ°ÙĬ": 4881,
      "Ø§Ø¯Ùī": 4882,
      "ÙĤÙī": 4883,
      "ĠØ§ÙĦÙĦØ§Ø¹Ø¨": 4884,
      "ĠØ§ÙĦÙħÙĬÙĦ": 4885,
      "ĠÙħÙĤØ¯": 4886,
      "ĠØ¹Ø´Ø±Ø©": 4887,
      "ĠÙĪØ³ÙĦ": 4888,
      "Ø±ÙĤÙħ": 4889,
      "ĠØªØºÙĬØ±": 4890,
      "ĠÙĦØ¹Ø§Ùħ": 4891,
      "Ø±Øµ": 4892,
      "Ø§Ø¬ØªÙħØ§Ø¹": 4893,
      "ØªØ±Ø§Ùģ": 4894,
      "ÙĨÙĪÙĨ": 4895,
      "ĠØ£Ø²ÙħØ©": 4896,
      "ĠÙħÙĨØ¸": 4897,
      "ĠØ§ÙĦØŃÙĤÙĪÙĤ": 4898,
      "ĠÙģÙĨØ¯ÙĤ": 4899,
      "Ø¸Ø§Ùĩ": 4900,
      "ĠÙĦÙĬÙĨ": 4901,
      "ĠØŃØ§ÙĪÙĦ": 4902,
      "ĠØªØ´ÙħÙĦ": 4903,
      "ĠØ§ÙĦÙĨØ§Øª": 4904,
      "ĠÙĪØ§ÙĦØ¹ÙħÙĦ": 4905,
      "ĠØªÙĬ": 4906,
      "41": 4907,
      "ĠØ§ÙĦÙģÙĪØ²": 4908,
      "Ø§Ø¯ÙĦØ©": 4909,
      "ĠØ§ÙĦÙħØŃØ§ÙģØ¸": 4910,
      "ØºØ·ÙĬØ©": 4911,
      "ĠØµÙĨØ¯ÙĪÙĤ": 4912,
      "ÙĪÙĩØ§Øª": 4913,
      "ĠYou": 4914,
      "Ø±ÙĪØ±ÙĬ": 4915,
      "ĠØ§ÙĦÙħØ´Ø§Ø±ÙĬØ¹": 4916,
      "ÙĩÙĪÙħ": 4917,
      "ĠØ´ÙĬØ¦Ø": 4918,
      "ĠØ´ÙĬØ¦Ø§": 4919,
      "ĠÙĬØŃØµÙĦ": 4920,
      "Ġth": 4921,
      "ĠØ§ÙĦÙħØ¯Ø§Ø±Ø³": 4922,
      "ĠØ®ÙħØ³Ø©": 4923,
      "ÙĤØ§Ø°": 4924,
      "ĠØ£ØµÙĦ": 4925,
      "ĠÙĨÙĪØ±": 4926,
      "ĠØ§ÙĦØ«ÙĤÙĬÙĦØ©": 4927,
      "ĠØ§Ø®ØªØ¨Ø§Ø±": 4928,
      "ĠÙĥÙģ": 4929,
      "Ø§Ø¯Ø±Ø§Øª": 4930,
      "ĠÙĪØ§ÙĤØ¹": 4931,
      "ÙħÙĨØ°": 4932,
      "ity": 4933,
      "ĠØ¨ÙĦØ§Ø¯": 4934,
      "ĠØ£ÙĨÙģØ³": 4935,
      "ĠØ´Ø§ÙĩØ¯": 4936,
      "ÙģØ²": 4937,
      "Ġ197": 4938,
      "ÙĬÙĦÙĩ": 4939,
      "ĠÙħØ³ØªÙĪÙĬØ§Øª": 4940,
      "ÙĬØ¯Ø§ÙĨ": 4941,
      "ĠÙĨÙĤØ¯Ùħ": 4942,
      "ĠØ¨ØºØ¯Ø§Ø¯": 4943,
      "Ø·Ø¨Ø§Ø¡": 4944,
      "ĠÙģÙĪØ±ÙĥØ³": 4945,
      "ĠØ®ÙĬ": 4946,
      "ĠØ£ÙĬÙĨ": 4947,
      "ĠØ§ÙĦØ·Ø¨ÙĬØ¨": 4948,
      "ĠÙħØŃØª": 4949,
      "ÙĪØ¬Ù": 4950,
      "ÙĪØ¬ÙĦ": 4951,
      "ĦØ§Ø¹": 4952,
      "ÙĦØ§Ø¹": 4953,
      "ĠØ§ÙĦØ±ÙĬØ§Ø¶Ø©": 4954,
      "ĠÙĪÙģØ±": 4955,
      "ĠØ§ÙĦØ£Ø³Ø§Ø³ÙĬ": 4956,
      "ĠØªÙĪÙĤØ¹": 4957,
      "ÙĪÙĤØ§ÙĦØª": 4958,
      "ĠØ§ÙĦÙģØ±Ø¯": 4959,
      "].": 4960,
      "ĠÙħÙĦØ§ÙĬÙĬÙĨ": 4961,
      "ĠØ§ÙĦØµØ¯": 4962,
      "ĠØªÙĤØ±ÙĬØ¨Ø§": 4963,
      "ĠÙħØ³Ø§Ø¹Ø¯": 4964,
      "ÙĤÙĬØ§Ùħ": 4965,
      "ĠØ£Ø¶": 4966,
      "ĠÙĪØªØ£": 4967,
      "ĠØµØ¯Ø±": 4968,
      "ĠØ¨Ø³ÙĬØ·Ø©": 4969,
      "ĠØ§ÙĦÙħÙĤØ§ÙĪÙħØ©": 4970,
      "ĠØ§ÙĦØ¹Ø§ÙĦÙĬ": 4971,
      "ĠÙĪØ§Ø¨": 4972,
      "ĠØ³Ø¤Ø§ÙĦ": 4973,
      "ĠØ§ÙĦÙĥÙĬÙħÙĬ": 4974,
      "ĠØ§ÙĦÙħØ¯ÙĨ": 4975,
      "ÙĬÙĨØº": 4976,
      "ĠØ§ÙĦØ¹Ø«ÙĪØ±": 4977,
      "ĠØ§ÙĦÙĥÙĦØ§Ùħ": 4978,
      "ĠÙĬØ³ÙħØŃ": 4979,
      "ĠØ§ÙĦÙĬÙĪÙħÙĬØ©": 4980,
      "ĠØ§ÙĦØ¬ÙĨÙĪØ¨ÙĬØ©": 4981,
      "34": 4982,
      "ĠØ§ÙĦØ¨ÙĬØ¹": 4983,
      "ÙĨØ¬": 4984,
      "ĠÙħÙĬØ²": 4985,
      "Ø£Ø®Ø¨Ø§Ø±": 4986,
      "ĠØ§ÙĦØ±ØŃÙħÙĨ": 4987,
      "ĠÙĤØ¨": 4988,
      "ĠÙĪØ§ÙĦØ²": 4989,
      "Ġ%": 4990,
      "ĠÙħØ´Ø§Ø±ÙĬØ¹": 4991,
      "Ġ02": 4992,
      "ĠØ¨Ø£ÙĬ": 4993,
      "ĠÙħÙĨØ´": 4994,
      "Ø«Ø±Ø©": 4995,
      "ĠØ¨ÙĪÙĥ": 4996,
      "ØµÙĬØ¯": 4997,
      "ĠØ¥Ø¹ÙĦØ§ÙĨ": 4998,
      "ĠÙĬØªØ±": 4999,
      "ĠØ§Ø®Ø±": 5000,
      "ĠÙĦØ¨": 5001,
      "ĠØŃÙħÙĦØ©": 5002,
      "Ø³Ø±Ø§Ø¦ÙĬÙĦÙĬØ©": 5003,
      "Ø¬ÙħÙĬÙĦ": 5004,
      "ĠØ§ÙĦÙĪØ²ÙĬØ±": 5005,
      "ĠÙħØªÙĨÙĪØ¹Ø©": 5006,
      "ĠÙĪØ§ÙĦÙħØ¤": 5007,
      "ĠÙĪØªØµ": 5008,
      "ĠÙĤÙĬØ§Ø¯Ø©": 5009,
      "Ø«ÙħØ§Ø±Ø§Øª": 5010,
      "ĠÙħÙĨØ®ÙģØ¶": 5011,
      "ĠØ§ÙĦØ§Ø³ØªØ®Ø¯Ø§Ùħ": 5012,
      "Ø¬ÙħÙĪØ¹Ø©": 5013,
      "ĠØµÙĨØ§Ø¹": 5014,
      "Ø¹ÙĬØ´": 5015,
      "ĠØ§ÙĦØ¯ÙģØ¹": 5016,
      "ĠØ£ÙĨÙĨØ§": 5017,
      "ĠØªÙħØ«ÙĦ": 5018,
      "Ġ07": 5019,
      "ÙħÙĢ": 5020,
      "ĠÙĬØ¨ÙĦØº": 5021,
      "ĠØ§ÙĦÙħÙĨØ§Ø³Ø¨": 5022,
      "ĠÙĪØ§ÙĦÙħØ³Øª": 5023,
      "ĠØ§ÙĦØŃØ§Ø¬Ø©": 5024,
      "Ø±ÙĪÙģØ©": 5025,
      "ĠØ§ÙĦÙĥØ§ØªØ¨": 5026,
      "Ø¹Ø¯Ùħ": 5027,
      "Ġ!!": 5028,
      "Ø±Ø²": 5029,
      "Ø§ÙĪØŃ": 5030,
      "ĠØ§ÙĦÙĤÙĬÙħØ©": 5031,
      "ĠØ§ÙĦØ±ÙĪØ³ÙĬ": 5032,
      "ÙħÙĪÙĬØ©": 5033,
      "ĠÙĪÙĦÙĨ": 5034,
      "ÙĩÙħÙĬØ©": 5035,
      "Ø¨ØŃØ§Ø«": 5036,
      "ĠØ¯Ø§Ø®": 5037,
      "ĠØ§ÙĦØ£Ø¹": 5038,
      "Ø§ÙĨÙī": 5039,
      "Ø¬Ø§Ø¡": 5040,
      "ĠÙĤØ·Ø¹Ø©": 5041,
      "ĠØ§ÙĦÙģÙĨØ¯ÙĤ": 5042,
      "ĠØ§ÙĦÙĥÙĨ": 5043,
      "ĠÙħØ¯Ø±ÙĬØ¯": 5044,
      "ĠØ§ÙĦÙĤØ§ÙĨÙĪÙĨÙĬØ©": 5045,
      "ĠØ¨ØŃÙĤ": 5046,
      "Ø§Ø¨ÙĬØ¹": 5047,
      "ĠØ§ÙĦØ£ØŃÙĬØ§ÙĨ": 5048,
      "ĠÙĥØ§ÙĨÙĪÙĨ": 5049,
      "ĠØªØ¨ØŃØ«": 5050,
      "Ø´Ø±ÙĤ": 5051,
      "ĠÙĦØªØ³": 5052,
      "ĠÙĦØ£ÙĪÙĦ": 5053,
      "ĠÙĪØ§Ø´ÙĨØ·ÙĨ": 5054,
      "Ø§Ø¯Ø": 5055,
      "Ø§Ø¯Ø§": 5056,
      "ĠØ£ÙģØ±Ø§Ø¯": 5057,
      "ÙĨØ¯ÙĨ": 5058,
      "Ø§ÙĦÙħÙĨ": 5059,
      "ĠØªØµØ±ÙĬØŃ": 5060,
      "Ø¬ÙħØ§Øª": 5061,
      "ĠØ§ÙĦØªÙĩ": 5062,
      "Ø³Ø§ÙĦØ©": 5063,
      "ĠØ§ÙĦØ±Ø¯": 5064,
      "ĠØ´Ø¨Ùĩ": 5065,
      "ĠØ§ÙĦØ§Ø³Ùħ": 5066,
      "Ø§ÙĤØ´Ø©": 5067,
      "ØªØŃÙħÙĬÙĦ": 5068,
      "ĠÙħØ«ÙĦØ§": 5069,
      "ĠØ§ÙĦÙħØ´Ø§Ø±Ùĥ": 5070,
      "ĠØ³Ø§ÙĨ": 5071,
      "Ø§ÙĩÙħØ©": 5072,
      "ĠÙĨØ¹Ùħ": 5073,
      "ĠÙħØŃÙ": 5074,
      "ĠÙħØŃÙĦ": 5075,
      "ÙĥÙĬÙħ": 5076,
      "ĠÙĪØ§ÙĤ": 5077,
      "ĠÙħÙĩÙħØ§": 5078,
      "ard": 5079,
      "ĠÙģÙħØ§": 5080,
      "ÙĬÙĬ": 5081,
      "ÙĳÙĲ": 5082,
      "ĠØ§ÙĦØ¬Ø²ÙĬØ±Ø©": 5083,
      "ĠØ§ÙĦØ£Ø±Ø§Ø¶ÙĬ": 5084,
      "Ø³Ø§Ø¦Ø±": 5085,
      "ĠØ£Ùĩ": 5086,
      "):": 5087,
      "ĠØ§ÙĦÙĨØ¸": 5088,
      "ĠÙĪÙħÙĨÙĩØ§": 5089,
      "ĠØ§ÙĦØ£Ø³Ø¯": 5090,
      "ĠØ¨Ø§ÙĦÙĥØ§ÙħÙĦ": 5091,
      "Ø§ÙĦÙĬØ¨": 5092,
      "ive": 5093,
      "ĠØ¥ÙħÙĥØ§ÙĨÙĬØ©": 5094,
      "ĠØ³ÙĦÙħØ§ÙĨ": 5095,
      "ĠØ¹Ø±": 5096,
      "ĠØ§ÙĦÙħØ´Ø§ÙĥÙĦ": 5097,
      "ĠØ§ÙĦÙħÙĨØ¸ÙħØ©": 5098,
      "ÙħÙĥØ§ÙĨ": 5099,
      "ĠØ§ÙĦÙħØ¤ÙħÙĨ": 5100,
      "Ø¹ÙĦÙĪÙħ": 5101,
      "ĠÙĬÙĤØ¹": 5102,
      "2016": 5103,
      "ĠÙĪØ³ÙĬØ·": 5104,
      "ĠØ§ÙĦØ¬Ø¨Ø³": 5105,
      "ĠØ§ÙĦÙĤÙĪ": 5106,
      "ĠÙģÙĩØ°Ø§": 5107,
      "ØªØµØ§Ø±": 5108,
      "ĠÙħØ¯Ø©": 5109,
      "ĠØ§ÙĦØµÙĦØ¨": 5110,
      "ĠØ§ÙĦØªØºÙĬÙĬØ±": 5111,
      "ĠØªØŃÙĦÙĬÙĦ": 5112,
      "ĠÙĪÙģØ§Ø©": 5113,
      "ĠÙĪØ§ÙĦØ¨Ø±": 5114,
      "ĠØ§ÙĦØ®Ø§ÙħØ³": 5115,
      "ĠÙĪØ¨Ø¹Ø¶": 5116,
      "Ġ300": 5117,
      "ØªØ§Ø¨Ø¹Ø©": 5118,
      "ĠØ§ÙĦÙħØ³ØªØ«ÙħØ±": 5119,
      "ĠØ¹ÙĬ": 5120,
      "ĠØ®Ø·ÙĪØ©": 5121,
      "ĠØªØ²Ø§ÙĦ": 5122,
      "__": 5123,
      "33": 5124,
      "Ø±ÙĬØ¬": 5125,
      "ĠØ§ÙĦØ£Ø³ÙĪØ¯": 5126,
      "ĠØ³Ø¨ØŃ": 5127,
      "ĠØ¬Ø§Ùħ": 5128,
      "ÙĥÙĦØ§Øª": 5129,
      "ĠØ¥ÙĦÙĥØªØ±": 5130,
      "ack": 5131,
      "ĠØ´Ø±ÙĪØ·": 5132,
      "ĠØŃÙĥÙĪÙħ": 5133,
      "ĠÙĦØ®": 5134,
      "ĠÙĦÙĦØ³ÙĬ": 5135,
      "ĠÙĪØ¨Ø¯": 5136,
      "ĠØ§ÙĦÙĦØ¨ÙĨØ§ÙĨÙĬØ©": 5137,
      "Ø§ÙħØª": 5138,
      "âĢĿ.": 5139,
      "Ø¬ØªÙħØ¹": 5140,
      "ÙĪØ§ØªÙģ": 5141,
      "ÙĪØ§ÙĨÙĬ": 5142,
      "ĠØ§ÙĦÙĦØ§Ø¹Ø¨ÙĬÙĨ": 5143,
      "ĠÙĪØ£Ø³": 5144,
      "ĠØ´ÙĩØ§Ø¯Ø©": 5145,
      "ĠØ§ÙĦÙħØªÙĨÙĤÙĦØ©": 5146,
      "ĠØ§ÙĦØ¨ÙĬØ§ÙĨ": 5147,
      "iz": 5148,
      "ĠØ§ÙĦÙħØºØ±Ø¨ÙĬ": 5149,
      "ĠØ¨ØŃØ§Ø¬Ø©": 5150,
      "ite": 5151,
      "ĠØ§ÙĦØ£ÙħØ©": 5152,
      "Ø¯Ø±Ø¯Ø´Ø©": 5153,
      "ver": 5154,
      "ĠØ§ÙĦØ²ÙĪØ§Ø¬": 5155,
      "ĠØ¯ÙĪØ±Ø©": 5156,
      "ĠØªØ±ÙĥÙĬØ¨": 5157,
      "ĠØ¨Ø£ÙĨÙĩØ§": 5158,
      "ĠÙĬÙħ": 5159,
      "ĠØªÙħÙĨ": 5160,
      "42": 5161,
      "ĠØ¥Ø²Ø§ÙĦØ©": 5162,
      "Ø³Ø¨ÙĤ": 5163,
      "ĠØ§ÙĦÙħØºØ±Ø¨ÙĬØ©": 5164,
      "Ġ03": 5165,
      "ĠÙħØ±ÙĪØ±": 5166,
      "ĠÙĥÙĦØ§Ùħ": 5167,
      "ĠØ¶Ø¨Ø·": 5168,
      "Ø±ÙĬÙĤÙĬ": 5169,
      "ĠÙħØ§ÙĦÙĬØ²ÙĬØ§": 5170,
      "ÙģÙĬØ¯Ø©": 5171,
      "Ġht": 5172,
      "ĠØ§ÙĦØ£Ø³ØªØ§Ø°": 5173,
      "Ø±Ø¨Ø·": 5174,
      "ĠØªØ¬Ø§ÙĪØ²": 5175,
      "ĠØ§ÙĦØ¶ÙĪØ¡": 5176,
      "Ø³Ø¹Ø±": 5177,
      "ĠØ·ÙĪØ§ÙĦ": 5178,
      "pl": 5179,
      "ĠÙĪÙħÙĦ": 5180,
      "Ġde": 5181,
      "ĠØ£Ø³Øª": 5182,
      "Ø®ÙĦÙĤ": 5183,
      "ĠØ§ÙĦØ®ÙĬØ±": 5184,
      "ĠØ§ÙĦÙħØ®Ø§Ø·Ø±": 5185,
      "2017": 5186,
      "ÙĪØ§Ø¨Ø·": 5187,
      "ĠØªØŃØ±ÙĬØ±": 5188,
      "ĠØ§ÙĦØ¸Ø±ÙĪÙģ": 5189,
      "ĠØ§ÙĪÙĨ": 5190,
      "ØªØ§Ø¡": 5191,
      "Ø±ÙĬØ¨ÙĬ": 5192,
      "Ø±ÙĬÙĤÙĬØ©": 5193,
      "Ø§ÙĤØ¯": 5194,
      "Ø§Ø¨ÙĬÙĨ": 5195,
      "ØªØ±ØŃ": 5196,
      "ÙĥÙĦÙģ": 5197,
      "ĠÙħØªÙĪØ³Ø·": 5198,
      "ĠØ§ÙĦÙħØ¹ÙĦÙħ": 5199,
      "ØªÙĪÙĨ": 5200,
      "Ġ31": 5201,
      "ĠØ¨ÙħØ³": 5202,
      "ĠÙĥÙĦÙĩØ§": 5203,
      "ĠØ¬ÙħÙĬØ¹Ø": 5204,
      "ĠØ¬ÙħÙĬØ¹Ø§": 5205,
      "ĠØ¨Ø§Ø¹ØªØ¨Ø§Ø±": 5206,
      ".\"": 5207,
      "Ø±ÙĪÙĬ": 5208,
      "Ø§ÙĦÙĦÙĩ": 5209,
      "ĠØ§ÙĦÙħØ·Ø§ØŃÙĨ": 5210,
      "ĠÙģÙĦÙħ": 5211,
      "ĠÙĪÙĦØ¯": 5212,
      "Ġ04": 5213,
      "ĠØ§ÙĪÙĦ": 5214,
      "ĠØªÙĪØ§Ø¬Ùĩ": 5215,
      "ĠØ¥Ø¹ÙĦØ§Ùħ": 5216,
      "Ġ06": 5217,
      "ĠØ§ÙĦØºØ±Ø¨": 5218,
      "ĠØ§ÙĦØ§ÙĦ": 5219,
      "ĠØ§ÙĦØ³ÙĬØ±": 5220,
      "ØªÙĬØ©": 5221,
      "Ø§Ø¬Ø¦ÙĬÙĨ": 5222,
      "ĠØ§ÙĦÙħØ¹Ø§Ø±Ø¶Ø©": 5223,
      "ĠØ§ÙĦØµÙĨØ§Ø¹Ø©": 5224,
      "ĠÙĦÙĦÙħØŃ": 5225,
      "ĠÙģØ³": 5226,
      "ĠÙĩØ§Ùħ": 5227,
      "ØªØ±Ø": 5228,
      "ØªØ±Ø§": 5229,
      "ĠØµØ¨": 5230,
      "ĠÙħØ·ÙĦ": 5231,
      "ĠØ§ÙĦØ³Ø¤Ø§ÙĦ": 5232,
      "Ø²Ø²": 5233,
      "ĠÙĬØŃØ¨": 5234,
      "ĠØ§ÙĦØªÙĨÙģÙĬØ°ÙĬ": 5235,
      "ĠØ§ÙĦØ¥ÙĬØ±Ø§ÙĨÙĬ": 5236,
      "nl": 5237,
      "ÙĪØ¨Ø±": 5238,
      "ĠÙĦÙĦØ£Ø³": 5239,
      "ĠØ£ÙĪÙĨ": 5240,
      "ĠØ¯ÙħØ´": 5241,
      "ÙĥÙĨØ¯Ø±ÙĬØ©": 5242,
      "Ġïºį": 5243,
      "ÙħØ±Ø§Ø¡": 5244,
      "ĠØ§ÙĨÙĪØ§Ø¹": 5245,
      "ĠÙħØ¤Ø®Ø±Ø": 5246,
      "ĠÙħØ¤Ø®Ø±Ø§": 5247,
      "ĠÙĪØªØ±Ùĥ": 5248,
      "ĠÙħØµØ·ÙģÙī": 5249,
      "ĠØ§ÙĦØ¥Ø³Ø±Ø§Ø¦ÙĬÙĦÙĬØ©": 5250,
      "Ø²ÙĪØ¬": 5251,
      "ĠØ¶Ø±Ø¨": 5252,
      "Ø¹ÙĪØ¨Ø©": 5253,
      "ĠÙĦÙĪØŃØ©": 5254,
      "ÙĦÙĬÙħÙĬØ©": 5255,
      "ĠÙħØ¹ÙĬÙĨ": 5256,
      "ÙĥØ§ÙĨØª": 5257,
      "ĠØ±ÙĤ": 5258,
      "ĠØ§ÙĦØ¨Ø±ÙĬØ·Ø§ÙĨÙĬØ©": 5259,
      "ĠØ±ØŃÙħ": 5260,
      "ĠØ§ÙĨØªÙĩØ§Ø¡": 5261,
      "ĠØ¬Ø±ÙĬØ¯Ø©": 5262,
      "ĠØ³Ø§Ùħ": 5263,
      "ĠØ§ØªØ¬Ø§Ùĩ": 5264,
      "ÙĤÙĦØ©": 5265,
      "ĠØ§ÙĦÙħÙĨØ§Ùģ": 5266,
      "ĠØ§ÙĦØ±Ø¦": 5267,
      "ith": 5268,
      "ÙĪØ³Ø¹": 5269,
      "ĠÙĥØªØ§Ø¨Ø©": 5270,
      "ĠØ§ÙĦÙħÙĩÙħØ©": 5271,
      "ĠÙĪØ¥ÙĨÙħØ§": 5272,
      "Ø§ÙĪØ¶Ø§Øª": 5273,
      "ĠÙĨØ¹": 5274,
      "ĠØ§ÙĦØ£ÙĪØ±ÙĪØ¨ÙĬØ©": 5275,
      "ĠØ§ÙĦØ£Ø³Ø·ÙĪØ§ÙĨØ©": 5276,
      "Ø§Ø¦Ùĥ": 5277,
      "ĠÙĪÙħØ´": 5278,
      "ĠÙĦØ§ÙĬÙĨ": 5279,
      "ĠÙĬØ¨Ø¯Ø£": 5280,
      "ĠØ§ÙĦÙħØªÙĨ": 5281,
      "ĠØ§ÙĦØ¹ÙĨØ§ØµØ±": 5282,
      "Ø³ØªØ±Ø§ÙĦÙĬØ§": 5283,
      "ĠØ§ÙĦØ¥Ø¹ÙĦØ§ÙĨ": 5284,
      "ĠÙĩÙĨ": 5285,
      "ĠØ§ÙĦØµØ§ÙĨØ¹": 5286,
      "Ø²ÙĬØ§Ø±Ø©": 5287,
      "ĠØ¯Ø§Ø¦Ø±Ø©": 5288,
      "ĠØ±Ø£ÙĬ": 5289,
      "Ġ....": 5290,
      "ĠØ§ÙĦÙģØ¶": 5291,
      "ĠÙĨØ¬Ø¯": 5292,
      "ĠÙģØ¥Ø°Ø§": 5293,
      "ĠÙĬØ¹ÙĦÙħ": 5294,
      "ĠÙĥØ³": 5295,
      "ĠØ´ÙĨ": 5296,
      "ĠÙĥÙĨØ¯Ø§": 5297,
      "ĠØ§Ø¹ØªØ¨Ø§Ø±": 5298,
      "ĠØ¯ÙħØ´ÙĤ": 5299,
      "ĠÙĤÙĬØ§Ùħ": 5300,
      "Ø¬ÙĪ": 5301,
      "ÙĤÙĦØ¨": 5302,
      "ĠØ§ÙĦÙħØ¬ØªÙħ": 5303,
      "ĠÙĪØ§ÙĬ": 5304,
      "ĠØ§ÙĦÙĤØ§Ø¯Ùħ": 5305,
      "ĠØ§ÙĦØ¨ØŃØ±ÙĬÙĨ": 5306,
      "ÙĨÙĬÙĬÙĨ": 5307,
      "ÙĭÙĳ": 5308,
      "ĠØ§ÙĦØ´ÙħØ§ÙĦÙĬØ©": 5309,
      "ĠØ§ÙĦÙĪØ§ØŃØ¯": 5310,
      "ĠÙĬØ±Ùī": 5311,
      "ĠØ§ÙĦÙĨØ¬Ø§ØŃ": 5312,
      "ĠØµÙĬØ§ÙĨØ©": 5313,
      "ĠØ¯Ùħ": 5314,
      "ĠÙĪØ¬ÙĦ": 5315,
      "ÙĪÙĦÙĬÙĨ": 5316,
      "Ø´ÙĦÙĪÙĨØ©": 5317,
      "ĠØŃÙĬØ§ØªÙĩ": 5318,
      "ïºĶ": 5319,
      "ĠÙħØ±Ùĥ": 5320,
      "ĠØ§ÙĦØ³ÙĬØ§ØŃØ©": 5321,
      "ĠØªÙĪØ²ÙĬØ¹": 5322,
      "ĠØ§ÙĦØ±Ø£Ø³": 5323,
      "ĠÙĪØªÙģ": 5324,
      "Ø¸Ø§ÙĩØ±": 5325,
      "ĠÙģØ±ÙĤ": 5326,
      "ĠCh": 5327,
      "ĠÙħØ®Ø·Ø·": 5328,
      "ĠØ§ÙĦÙĪØŃØ¯Ø©": 5329,
      "ĠØ®Ø±Ø¬": 5330,
      "ÙĪØ§Ø±Ø¹": 5331,
      "ĠØ§ÙĦØ¹Ø¯Ø¯": 5332,
      "ĠØ°ÙĪ": 5333,
      "ÙĬØ³ÙĬØ§": 5334,
      "ĠÙħØŃØ¬Ø±": 5335,
      "ĠØµØŃÙĬ": 5336,
      "Ø§Ø¶Ø±": 5337,
      "ĠØ¨Ø§ÙĦÙĤØ±Ø¨": 5338,
      "ĠØ§ÙĦÙĨØ¨Ø§ØªØ§Øª": 5339,
      "ÙĥØ§ÙĨÙĬ": 5340,
      "Ø§ÙĥÙħØ©": 5341,
      "ĠÙħÙĨØªØ®Ø¨": 5342,
      "ÙĩØ¬": 5343,
      "ĠØ§Ø°": 5344,
      "ĠØ§ÙĦÙħØ¹Ø±ÙģØ©": 5345,
      "ĠØ±Ø¶ÙĬ": 5346,
      "ĠØ£Ø±Ø¨Ø¹": 5347,
      "ĠÙĬØ¨ØŃØ«": 5348,
      "ĠÙĪØ£ÙĨØ§": 5349,
      "ĠÙĨÙģØ³Ùĥ": 5350,
      "ĠÙĦÙĦØ£Ø·ÙģØ§ÙĦ": 5351,
      "ĠØªØŃÙĤÙĤ": 5352,
      "ĠØ¬Ø¯Ø©": 5353,
      "ĠÙĦÙĥÙĨÙĩØ§": 5354,
      "ĠØ§ÙĦØ£ÙĦØ¹Ø§Ø¨": 5355,
      "Get": 5356,
      "ØªÙĤÙĦ": 5357,
      "ĠØ§ÙĦØ£ØŃØ¯Ø§Ø«": 5358,
      "ĠØ¨Ø¨": 5359,
      "ĠØ§ÙĦØ¯ÙĬÙħÙĤØ±Ø§Ø·ÙĬØ©": 5360,
      "Ø³ÙĬØ¯": 5361,
      "44": 5362,
      "ĠØªØ¹Ø¯ÙĬÙĦ": 5363,
      "Ø²ÙĤ": 5364,
      "ĠÙĤØµÙĬØ±Ø©": 5365,
      "ĠÙħØ¤ÙĥØ¯Ø§": 5366,
      "Ø§ØªÙ": 5367,
      "Ø§ØªÙĦ": 5368,
      "ĠØ§ÙĦØµØŃÙĬØŃ": 5369,
      "Ø§Ø¯ÙĬÙħÙĬØ©": 5370,
      "ĠØ§ÙĨØ¯": 5371,
      "ĠØ§ÙĦØ£ÙĥØ¨Ø±": 5372,
      "ÙĩÙĬØ±": 5373,
      "ĠÙĪÙĬØ³Øª": 5374,
      "ÙħÙĤ": 5375,
      "ĠØ¨Ø§ÙĦØ®": 5376,
      "ĠØ±Ø´": 5377,
      "Ø¬Ø±Ùī": 5378,
      "Ø®Ø·Ø·": 5379,
      "ÙģÙĪÙĨ": 5380,
      "ĠØ§ÙĦØ±ÙĤÙħÙĬØ©": 5381,
      "ĠÙħÙĨÙģ": 5382,
      "ÙĥØ±Ø±": 5383,
      "Ø·Ø¹ÙħØ©": 5384,
      "ĠØ§ÙĦÙħØªØ·": 5385,
      "ÙĪÙĬÙĩ": 5386,
      "ĠÙĨØ§ØŃÙĬØ©": 5387,
      "Ø¨Ø¹Ø§Ø¯": 5388,
      "ĠØ§ÙĦØ¬Ø±Ø§ÙĨÙĬØª": 5389,
      "ÙĨØ¯Ø§Øª": 5390,
      "ĠâĢª": 5391,
      "eu": 5392,
      "ĠØ§ÙĦÙĨÙĩØ§ÙĬØ©": 5393,
      "Ø§ÙĨÙĪÙĨÙĬ": 5394,
      "Ø¬ÙĩØ§Ø²": 5395,
      "ĠØ§ÙĦØµÙĬÙģ": 5396,
      "ĠØ°Ùĩ": 5397,
      "ĠÙħØ³ØªÙĤØ¨ÙĦ": 5398,
      "ĠØ§Ø³ØªØ®Ø±Ø§Ø¬": 5399,
      "ĠØ§ÙĦÙĦØ¨ÙĨØ§ÙĨÙĬ": 5400,
      "ĠÙħØ¯Ø±Ø³Ø©": 5401,
      "ĠÙĬØ¬ÙĪØ²": 5402,
      "ØŃÙħØ¯": 5403,
      "ĠØ§ÙĦÙĤØª": 5404,
      "Ø¨ÙĩØ©": 5405,
      "ÙĪØ¯Ø": 5406,
      "ÙĪØ¯Ø§": 5407,
      "ide": 5408,
      "ĠØ§ÙĦÙģØ³Ø§Ø¯": 5409,
      "ĠÙĪÙħØ¤": 5410,
      "ĠØŃÙĦÙĪÙĦ": 5411,
      "ĠØ§ÙĦÙĨÙĩØ§Ø¦ÙĬ": 5412,
      "bab": 5413,
      "ÙĦÙĬÙĪÙĨ": 5414,
      "ÙĤØ§ÙģØ©": 5415,
      "ÙħÙĬØ±": 5416,
      "ĠÙĦØ§Ø¹": 5417,
      "ÙĦÙħÙĬ": 5418,
      "ĠØ§ÙĦØ£Ø³ÙĨØ§ÙĨ": 5419,
      "ĠØ§ÙĦØ¬ÙĨÙĪØ¨": 5420,
      "ĠØ¥ØµØ§Ø¨Ø©": 5421,
      "ĠØ§ÙĦØªØµÙħÙĬÙħ": 5422,
      "ast": 5423,
      "ĠØ§ÙĦØ¨ØŃØ±ÙĬØ©": 5424,
      "Ġ35": 5425,
      "ØªØ¨Ø§Ø±Ø§Øª": 5426,
      "ĠÙħÙħØªØ§Ø²": 5427,
      "ÙĩÙĪ": 5428,
      "ĠØ§ÙĦØ³ÙĬØ·Ø±Ø©": 5429,
      "Ø°Ù": 5430,
      "Ø°ÙĦ": 5431,
      "ĠØºØ±Ùģ": 5432,
      "ĠØ¨ÙħØ¯ÙĬÙĨØ©": 5433,
      "ĠÙĬØµØ¨ØŃ": 5434,
      "ĠØ®Ø·ÙĪØ§Øª": 5435,
      "ĠÙħØ§ÙĦÙĬØ©": 5436,
      "Ø§Ø¬Ù": 5437,
      "ĠØ¬Ø³Ùħ": 5438,
      "Ø§Ø¬ÙĦ": 5439,
      "ĠØªØµØ±ÙĬØŃØ§Øª": 5440,
      "ĠØ¨Ø¶": 5441,
      "Ø¯Ø§Ø±": 5442,
      "ĠØ§ÙĦØ¢ÙĦØ§Øª": 5443,
      "aw": 5444,
      "ĠØ§ÙĦØ´ÙĥÙĦ": 5445,
      "ØµØ§Øµ": 5446,
      "ĠØ£Ø¯Ùī": 5447,
      "ÙģØ±Ø©": 5448,
      "ĠØ§ÙĦÙĤØ±Ø§Ø¡Ø©": 5449,
      ",,": 5450,
      "ĠÙĪØ§ÙĦØªØ±": 5451,
      "ĠÙĪÙĤØ¹": 5452,
      "Ø²ÙĬØ§Ø¡": 5453,
      "ÙĪÙĨÙĩØ§": 5454,
      "ØªÙħÙĥÙĨ": 5455,
      "ĠÙħØ³ØªØ¹ÙħÙĦØ©": 5456,
      "ai": 5457,
      "ĠÙĤÙĦÙĬÙĦØ§": 5458,
      "ĠØ§ÙĦØ¥Ø³Ø¨": 5459,
      "Ø§Ø´Ø±Ø©": 5460,
      "ĠÙĪØ§ÙĦØ³ÙĦ": 5461,
      "Ġ2009": 5462,
      "ĠØ§ÙĦØªÙĤÙĨÙĬØ©": 5463,
      "ĠØ§Ø¨ÙĪ": 5464,
      "Ø¹Ø§ÙħÙĦ": 5465,
      "ĠÙĥÙĦÙħØ§Øª": 5466,
      "ĠØ£Ø·ÙģØ§ÙĦ": 5467,
      "Ġus": 5468,
      "ĠSh": 5469,
      "ØªØ§Ùħ": 5470,
      "ĠØ§Ø³ØªØ±": 5471,
      "ĠØ¹Ø§Ø¦": 5472,
      "ĠØ§ÙĦØ¯ÙĬÙĨÙĬØ©": 5473,
      "ĠØ°Ø§ØªÙĩ": 5474,
      "ĠØ§ÙĦØ£Ø¯Ø§Ø¡": 5475,
      "ĠØŃØ²ÙĬØ±Ø§ÙĨ": 5476,
      "ĠØ¶ÙħØ§ÙĨ": 5477,
      "gle": 5478,
      "ĠÙħØ¬ØªÙħØ¹": 5479,
      "Ø«ÙħØ§ÙĨ": 5480,
      "ĠÙħØ²ÙĬØ¯": 5481,
      "ĠØ¨Ø§ÙĦØµ": 5482,
      "www": 5483,
      "ĠØ§ÙĦÙĨØ´Ø§Ø·": 5484,
      "ĠØ¬Ø°": 5485,
      "Ø£ÙĨØ§": 5486,
      "ĠØ§ÙĦÙħÙĪØ§Ø±Ø¯": 5487,
      "ÙĩØ§ÙĨ": 5488,
      "ÙĪØ±ÙĩØ§": 5489,
      "Ø±Ø¨ÙĬÙĨ": 5490,
      "ĠØ§ÙĦÙģÙĬÙĦÙħ": 5491,
      "ĠØªÙĤÙĨÙĬØ©": 5492,
      "ĠØ§ÙĦØ´Ø±Ø¹ÙĬØ©": 5493,
      "ÙĩÙĦØ§Ùĥ": 5494,
      "Ø¹ÙĦØ§ÙĨØ§Øª": 5495,
      "ĠØªØŃÙĪÙĦ": 5496,
      "ĠØ§ÙĦØ·Ø¨ÙĬ": 5497,
      "ĠØ®Ø·ÙĪØ·": 5498,
      "ĠÙĪØ¸ÙĬÙģØ©": 5499,
      "Ø§Ø¦ÙĬØ§": 5500,
      "ĠÙĪØªØª": 5501,
      "ÙĨØ²": 5502,
      "ï»Łï»": 5503,
      "ĠØ§ÙĦØªØ¯Ø±ÙĬØ¨": 5504,
      "ĠØ§Ø³ØªØ®Ø¯Ùħ": 5505,
      "Ø¨Ø§Ø¹": 5506,
      "ØªÙĩØ§Ø¡": 5507,
      "ĠÙĪØ§Ø¶ØŃØ©": 5508,
      "ĠÙĦÙĬÙĦØ©": 5509,
      "ĠØµØ±Ùģ": 5510,
      "âĢĮ": 5511,
      "ĠØ¯Ø±Ø¯Ø´Ø©": 5512,
      "ĠYouT": 5513,
      "ĠØ§ÙĦØŃÙĦÙĤØ©": 5514,
      "Ø¹ÙĬØ¯Ø©": 5515,
      "ØµØ±ÙĬ": 5516,
      "ÙģÙģ": 5517,
      "ĠÙĪØ§ÙĦØ£Ø³": 5518,
      "Ø¹Ø±Ø§ÙĤ": 5519,
      "ĠØ§ÙĦÙĥØ§ÙħÙĦ": 5520,
      "32": 5521,
      "ĠØ§ÙĦÙĩÙĦØ§ÙĦ": 5522,
      "ĠØªØ±Ø§Ø¬Ø¹": 5523,
      "ĠØ§ÙĦÙħØ¯Ùī": 5524,
      "Ø±ÙĬØ·Ø©": 5525,
      "ĠÙħÙĬÙĨ": 5526,
      "ĠØ£Ø´Ø§Ø±": 5527,
      "ĠÙĦÙĦØªØ¬": 5528,
      "Ø§Ø¹ÙĬÙĦ": 5529,
      "ĠØ¬ÙħØ¹ÙĬØ©": 5530,
      "ĠÙĪØ³ÙĪÙģ": 5531,
      "Ġ400": 5532,
      "ĠØ§ÙĦØ¹ÙĨÙģ": 5533,
      "ĠØ¥ÙĤØ§ÙħØ©": 5534,
      "ÙĪØ±Ø¬": 5535,
      "ĠÙħØ±Ø§ÙĥØ²": 5536,
      "ĠØ§ÙĦØ¬ÙĪÙĦØ©": 5537,
      "ĠØ§ÙĦÙħÙĬØ²": 5538,
      "ÙģÙĬÙģØ©": 5539,
      "ĠÙĥÙĦÙĩ": 5540,
      "Ø¨Ø¹Ø": 5541,
      "Ø¨Ø¹Ø§": 5542,
      "ĠØ§ÙĦÙħÙĤØ¯ÙħØ©": 5543,
      "ĠØ§ÙĦÙħØ°Ùĥ": 5544,
      "ĠÙħØ¹Ø": 5545,
      "ĠÙħØ¹Ø§": 5546,
      "ĠØ§ÙĦØ§ØŃØªÙģ": 5547,
      "ĠØ§ÙĦÙħØ´ØªØ±Ùĥ": 5548,
      "ĠØ§ÙĦÙĦÙĬÙĦ": 5549,
      "ĠØ§ÙĦØŃÙĬÙĪØ§ÙĨØ§Øª": 5550,
      "ĠØ§Ø³ØªØ®Ø¯Ø§ÙħÙĩØ§": 5551,
      "ĠØªØ¯ÙģÙĤ": 5552,
      "Ġ=": 5553,
      "ĠØ§ÙĦØ£Ø³Ø±Ø©": 5554,
      "ĠÙĥØ¨Ø§Ø±": 5555,
      "ĠØ§ÙĦØ±Ø®Ø§Ùħ": 5556,
      "Ø§ÙĤØ±Ø£": 5557,
      "ĠØ§ÙĦÙħØ¯Ø±": 5558,
      "ĠÙĪÙĦÙĥÙĨÙĩ": 5559,
      "ĠØ¨Ø±ÙĬ": 5560,
      "ĠÙĪØªØ¬": 5561,
      "ĠØ¹Ø¨Ø§Ø³": 5562,
      "ĠØ·Ø§ÙĦ": 5563,
      "ĠØ§ÙĦØ¯Ø§Ø®ÙĦÙĬ": 5564,
      "ĠØ¹Ø±ÙĪØ¶": 5565,
      "ĠÙħÙĨØªØ¯Ùī": 5566,
      "ĠØ§ÙĦÙĬÙĪÙĨ": 5567,
      "ĠÙĪØ£Ø¶Ø§Ùģ": 5568,
      "ÙħØ§Ø·": 5569,
      "ĠØ´Ø§Ø¡": 5570,
      "ĠØ³ÙĬØ§Ø³ÙĬ": 5571,
      "ÙĬÙĨÙĬØ§": 5572,
      "ĠÙħØ±Ø¨Ø¹": 5573,
      "Ø´Ø±ØŃ": 5574,
      "ĠÙĪØ£ÙĥØ«Ø±": 5575,
      "ĠØ£Ø³ÙħØ§Ø¡": 5576,
      "ĠØ¨Ø±Ø¬": 5577,
      "ies": 5578,
      "ĠØ§ÙĦØµØŃÙģÙĬ": 5579,
      "ĠØ§ÙĦØ§Ø®Ø¨Ø§Ø±": 5580,
      "ĠØ§ÙĦÙģÙĬØ±ÙĪØ³": 5581,
      "ĠØ¢Ø³ÙĬØ§": 5582,
      "Ø°Ø§Øª": 5583,
      "ĠÙģØŃØµ": 5584,
      "ĠÙĥÙĬÙĦÙĪ": 5585,
      "ĠÙĥØ±ÙĬ": 5586,
      "ĠÙĪØ§ÙĦØ§Ø³": 5587,
      "ĠØ³Ø±Ø¹Ø©": 5588,
      "ĠÙĬØªÙĨ": 5589,
      "ĠØ¹ØµØ±": 5590,
      "ĠØ§ÙĦØªØ§Ø³": 5591,
      "Ø¯ÙĨ": 5592,
      "ĠÙģÙĪØ±": 5593,
      "ĠÙĨØ¸Ø±Ø": 5594,
      "ĠÙĨØ¸Ø±Ø§": 5595,
      "ÙĬØ¦Ø§Øª": 5596,
      "Ø®ÙħØ©": 5597,
      "Ù¨": 5598,
      "ØªÙħØ§ÙĦ": 5599,
      "ĠÙĬØ³ÙħÙī": 5600,
      "ĠÙĪÙĦØ°ÙĦÙĥ": 5601,
      "47": 5602,
      "ear": 5603,
      "ĠØ§ÙĦØªØ®ÙĦØµ": 5604,
      "ĠØªØ±ØºØ¨": 5605,
      "ĠØ§ÙĦØ¨ÙĦØ¯Ø§ÙĨ": 5606,
      "ĠÙĪÙĨØª": 5607,
      "ĠØ§ÙĨÙģ": 5608,
      "ĠØµØ¨Ø§ØŃØ": 5609,
      "ĠØµØ¨Ø§ØŃØ§": 5610,
      "ĠØ§ÙĦÙħÙĨØ§Ùħ": 5611,
      "ÙħÙĪØª": 5612,
      "ĠÙĨÙĤØµ": 5613,
      "ĠØªØ´ÙĥÙĦ": 5614,
      "Ø±Ø§Ø¦ÙĬÙĦ": 5615,
      "ĠØ§ÙĦØªØ·Ø¨ÙĬÙĤØ§Øª": 5616,
      "ĠØ¨Ø§ÙĦØ§ÙĨ": 5617,
      "ĠØ§ÙĦÙħØ·ÙĦÙĪØ¨Ø©": 5618,
      "Ø¨Ø²": 5619,
      "ĠØ£Ø²": 5620,
      "ĠØ£ÙħÙĦ": 5621,
      "ĠÙĦØªØ´": 5622,
      "ĠØªÙĨØ²ÙĬÙĦ": 5623,
      "ĠØ¹ÙĪØ¯Ø©": 5624,
      "ĠØ¨ØªØµ": 5625,
      "ÙĤÙĬØ¨": 5626,
      "Ø£ÙĪ": 5627,
      "ome": 5628,
      "ĠÙħØªØ¬Ø±": 5629,
      "ĠØ§ÙĦØ³Ø§Ø¨Ø¹": 5630,
      "ĠÙģÙĥ": 5631,
      "ÙĪÙĦÙĥÙĨ": 5632,
      "ĠØ§ÙĦØ³Ø§Ø¯Ø³": 5633,
      "ĠØ§ÙĦØªÙģÙĥÙĬØ±": 5634,
      "ĠØªØŃØµÙĦ": 5635,
      "ĠØ§ÙĦÙħØ¯ÙĨÙĬØ©": 5636,
      "ĠÙĦØºØ©": 5637,
      "ĠØ§ÙĦØ¨ÙĬØ¶Ø§Ø¡": 5638,
      "ĠØ«ÙĨØ§Ø¦ÙĬ": 5639,
      "ĠØ³Ø£": 5640,
      "ÙĤØ±Ø§Ø¡Ø©": 5641,
      "ØªØ¨Ø·Ø©": 5642,
      "ĠAli": 5643,
      "ÙĨØ´Ø±": 5644,
      "ĠØªØ¬ÙħØ¹": 5645,
      "Ø´Ø±Ø§Ùģ": 5646,
      "ĠÙħØµÙ": 5647,
      "ĠÙħØµÙĦ": 5648,
      "ÙĬØ¬Ø©": 5649,
      "ĠÙĤØ±Ø¨": 5650,
      "Ø§Ø°Ø¬": 5651,
      "Ġj": 5652,
      "ĠØ§ÙĦÙĤØ³Ùħ": 5653,
      "ĠPro": 5654,
      "ĠØ§ÙĦÙħÙĩÙĨØ¯Ø³": 5655,
      "ĠØ§ÙĦØŃØ±Ø©": 5656,
      "ÙģÙĬØ±": 5657,
      "Ø±ÙĬÙĥØ§": 5658,
      "ĠØ§ÙĦÙħÙĪØ±Ø¯ÙĬÙĨ": 5659,
      "ĠØ°ÙĩØ¨": 5660,
      "ĠØ¶Ø¹Ùģ": 5661,
      "ÙĪÙĬÙĪØ±Ùĥ": 5662,
      "ish": 5663,
      "ĠÙĪÙĪØ¶Ø¹": 5664,
      "Ø¯Ø®ÙĦ": 5665,
      "ĠÙħØ§ÙĦ": 5666,
      "ĠØªØ¹ØªÙħØ¯": 5667,
      "ĠØ§ÙĦØŃÙĪ": 5668,
      "ĠÙħÙĦÙģØ§Øª": 5669,
      "ĠÙħÙĦØ§Ø¨Ø³": 5670,
      "ÙĩØ§ÙĬ": 5671,
      "49": 5672,
      "Ø³Ùī": 5673,
      "Ø§Ø¦ÙĨØ§": 5674,
      "ĠÙĤÙĪØ§Ø¹Ø¯": 5675,
      "ĠØ§ÙĩØªÙħØ§Ùħ": 5676,
      "Ø§Ø¨Ø": 5677,
      "Ø§Ø¨Ø§": 5678,
      "ÙģØ¹ÙĬÙĦ": 5679,
      "ĠÙĩÙī": 5680,
      "ĠØ¨ÙĪØ§Ø¨Ø©": 5681,
      "ĠØ§ÙĦÙħØ´ØªØ±ÙĥØ©": 5682,
      "ĠØ§ÙĦØ¥Ø´": 5683,
      "ĠØ§ÙĦÙħØ³Ø¬Ø¯": 5684,
      "Ø´ÙĤ": 5685,
      "ĠØ§ÙĦØ¯Ø±Ø¯Ø´Ø©": 5686,
      "ĠØ³ÙĩÙĦØ©": 5687,
      "ĠØ§ÙĦÙħØªÙĪÙĤØ¹": 5688,
      "Ø·Ø±ÙĬÙĤØ©": 5689,
      "ĠÙĦØµØ§ÙĦØŃ": 5690,
      "Ġ196": 5691,
      "ĠÙħØ´Ø§Ø±Ùĥ": 5692,
      "ØºØ§Ùħ": 5693,
      "56": 5694,
      "ĠØ§ÙĦØªÙ": 5695,
      "ĠØ§ÙĦØªÙĦ": 5696,
      "ĠØ¯Ø±Ø¬Ø§Øª": 5697,
      "ĠÙĪØ§ÙĦÙħØ´": 5698,
      "ĠØªØ®Øµ": 5699,
      "ĠØ¨Ø§ÙĦØ¶": 5700,
      "ĠÙĬØ¶": 5701,
      "ĠÙħØ¨Ø§Ø±ÙĬØ§Øª": 5702,
      "ĠÙħÙĥØ©": 5703,
      ".âĢı": 5704,
      "ĠØ§ÙĦØ¥Ø¹": 5705,
      "ØªÙĥØ§Ø±": 5706,
      "ĠÙħØ¹ÙĨØ§": 5707,
      "ĠØŃØ¶ÙĪØ±": 5708,
      "ord": 5709,
      "ĠØ¨Ø§ÙĦØº": 5710,
      "ĠØ§Ø¹ØªÙħØ§Ø¯": 5711,
      "ĠØ£Ø¯Ø§Ø©": 5712,
      "ĠØ§ÙĦØ¬ÙĨØ³ÙĬØ©": 5713,
      "hats": 5714,
      "ĠØ§ÙĦØ§ÙĨØªÙĤ": 5715,
      "ĠÙĦÙĦØ§Ø³": 5716,
      "ĠØ§ÙĦÙĤØ¯ÙĬÙħ": 5717,
      "ĠØ§ÙĦÙĤØ¶Ø§ÙĬØ§": 5718,
      "ĠØ§ÙĦØ°ÙĥÙĬØ©": 5719,
      "ĠÙĤÙĦÙĬÙĦ": 5720,
      "ĠØ«Ø§ÙĨÙĬ": 5721,
      "ĠØ¨ÙĬØ±ÙĪØª": 5722,
      "ĠØªØ±Ùī": 5723,
      "ĠØ§ÙĦØ¥ÙĬØ¬": 5724,
      "46": 5725,
      "Ġ250": 5726,
      "ĠØªØµØ¨ØŃ": 5727,
      "av": 5728,
      "ĠØ§ÙĦÙħÙĦÙģØ§Øª": 5729,
      "ĠØ´Ø¯ÙĬØ¯": 5730,
      "Ø§Ø±Ø¶": 5731,
      "ÙĩØ§Ø¬Ùħ": 5732,
      "Ã©": 5733,
      "ĠØ·ÙģÙĦ": 5734,
      "ĠÙħØ³ÙĦÙħ": 5735,
      "ĠÙĦØ´Ø±ÙĥØ©": 5736,
      "ly": 5737,
      "ĠÙĬØ¹ØªÙħØ¯": 5738,
      "ĠÙħØªØ§Ø¨Ø¹Ø©": 5739,
      "ĠØŃÙģÙĦ": 5740,
      "ĠØ§ÙĦØ¨Ø·ÙĪÙĦØ©": 5741,
      "ĠÙĬØ¯Ø®ÙĦ": 5742,
      "ĠØ¬Ø§Ø¡Øª": 5743,
      "58": 5744,
      "ĠÙĪÙħØª": 5745,
      "ĠÙĪØ¹ÙĦ": 5746,
      "ĠØ¨ÙĥØ«ÙĬØ±": 5747,
      "ĠÙĦÙģØ©": 5748,
      "ØµØ§Ø¨Ø§Øª": 5749,
      "ĠØ§ÙĦØµØ±Ùģ": 5750,
      "ĠÙħØ¨Ø¯Ø£": 5751,
      "ĠØ·Ø¨ÙĬØ¹ÙĬ": 5752,
      "ĠÙ¢Ùł": 5753,
      "ĠØ¢Ø«Ø§Ø±": 5754,
      "ĠÙĪÙĥØ£ÙĨ": 5755,
      "ĠØ§ÙĦØ§ÙĩØªÙħØ§Ùħ": 5756,
      "ĠÙĪÙĦÙ": 5757,
      "ry": 5758,
      "ĠÙĪÙĦÙĦ": 5759,
      "ĠÙĨØ³Ø¨": 5760,
      "ĠØ³Ùĥ": 5761,
      "ĠØ§ÙĦØ£Ø³Ø¨Ø§Ø¨": 5762,
      "Ø§Ø±ØªÙĩ": 5763,
      "ĠÙĨÙģØ³ÙĬ": 5764,
      "§Ø§Ø§Ø§Ø": 5765,
      "ĠÙħØ¹ÙĩÙħ": 5766,
      "ĠØ§ÙĦÙĦÙĪØ§Ø¡": 5767,
      "ĠÙĬØ§Ø³": 5768,
      "ÙĬÙĨÙĪ": 5769,
      "baba": 5770,
      "ĠØ§ÙĦÙĨØ´Ø±": 5771,
      "ĠØ¹ÙĦØ§ÙħØ©": 5772,
      "ÙĪÙĨØ³ÙĬ": 5773,
      "ĠØ§ÙĦØµØ¨Ø§ØŃ": 5774,
      "ÙĬØ±Ø§Ø¯": 5775,
      "Ø§ÙĨØº": 5776,
      "ain": 5777,
      "ÙĥØ´Ùģ": 5778,
      "ÙĤØ³": 5779,
      "ĠØ§ÙĦØ³Ø§Ø®": 5780,
      "pr": 5781,
      "ĠØ¹Ø§ÙĦÙħÙĬØ©": 5782,
      "Ġby": 5783,
      "ĠÙħØ³ØªØ´ÙģÙī": 5784,
      "ĠØ§ÙĦÙĨØ§Ø¦Ø¨": 5785,
      "ĠØ¨Ø¹Ø¶ÙĩØ§": 5786,
      "ÙĩØ§Øª": 5787,
      "ĠØ§ÙĦØ±Ø£ÙĬ": 5788,
      "ĠØ¯Ø§Ø¹Ø´": 5789,
      "ĠØ§ÙĦØ¹Ø§ÙĦÙĬØ©": 5790,
      "ĠØ§Ø¬Ù": 5791,
      "ĠØ§Ø¬ÙĦ": 5792,
      "ÙĪØ°": 5793,
      "Ø¯ÙĬÙĦØ§Øª": 5794,
      "Ġpdf": 5795,
      "ĠØ¨ÙĦØºØª": 5796,
      "ĠØ§ÙĦØ±Ø³ÙĪÙħ": 5797,
      "ĠØ£Ø´Ø®Ø§Øµ": 5798,
      "ĠØ¨ÙĬØ¯": 5799,
      "Ø´ÙĪ": 5800,
      "ÙħØŃÙħØ¯": 5801,
      "ĠÙĨØ¨": 5802,
      "ĠØ¬ÙħÙĬÙĦ": 5803,
      "Ġ2008": 5804,
      "ĠØ§ÙĦÙģØ¹ÙĦ": 5805,
      "ĠØ§ÙĦÙħØ¬Ø§ÙĦØ§Øª": 5806,
      "ĠØ§ÙĦÙħØ®ØªØµ": 5807,
      "43": 5808,
      "Ġcrus": 5809,
      "ĠØ¹Ø¨Ø¯Ø§ÙĦØ¹": 5810,
      "ĠÙĪØµÙĦØª": 5811,
      "ĠØ±ØŃÙĦØ©": 5812,
      "ĠØªÙĪØ¬ÙĬÙĩ": 5813,
      "ĠÙħØ·Ø§Ø±": 5814,
      "ĠØ§ÙĦØªÙħ": 5815,
      "ÙĪØ§Ø±ØªØ²": 5816,
      "ÙĬØªÙĩ": 5817,
      "ĠØ§ÙĦØ±Ø³ÙĪÙĦ": 5818,
      "ĠØ¨Ø§Ø±ÙĬØ³": 5819,
      "ĠØ§ÙĦØ³ÙĥØ§ÙĨ": 5820,
      "ĠØ§ÙĦØªØŃØ±ÙĬØ±": 5821,
      "ĠØ§ÙĦØ¯ÙĩÙĪÙĨ": 5822,
      "ĠÙĬÙĪÙħÙĬ": 5823,
      "Ġ80": 5824,
      "ĠØ§ÙĦØ¹ÙĩØ¯": 5825,
      "ØªØ§ÙħÙĬÙĨ": 5826,
      "ĠÙĤØ§Ø¦Ø¯": 5827,
      "Ø´Ø±ÙĬ": 5828,
      "ĠØ§ÙĥØª": 5829,
      "ĠÙĤÙĪÙĬ": 5830,
      "ØºÙĨÙĬ": 5831,
      "ĠØ§ÙĦØ«Ø§ÙĨÙĪÙĬØ©": 5832,
      "Ø«Ø§ÙĦ": 5833,
      "ĠØ§ÙĦØ±ÙĬØ§Ø¶ÙĬ": 5834,
      "ØºÙĪØ·": 5835,
      "ĠÙĤØª": 5836,
      "ÙĬØ³Ø§ÙĨ": 5837,
      "ØªØ²Ùħ": 5838,
      "ĠØ§ÙĦÙĩÙĬ": 5839,
      "ĠØ¯ÙĤÙĬÙĤ": 5840,
      "ÙħØ§Ø°Ø¬": 5841,
      "ÙģØ±Ø¯": 5842,
      ".[": 5843,
      "ÙĩØ±Ø©": 5844,
      "ÙĬØ¬Ø¨": 5845,
      "ĠØ£ÙħØ±ÙĬÙĥÙĬ": 5846,
      "ĠØ§ÙĦØ¹Ø§ÙħÙĦÙĬÙĨ": 5847,
      "ĠØ§ÙĦØ³ÙĬØ³ÙĬ": 5848,
      "ĠØ¨ØªÙĪÙĤÙĬØª": 5849,
      "ĠØ°Ø§Ùĥ": 5850,
      "ĠØªØ²ÙĬØ¯": 5851,
      "az": 5852,
      "Ø§ÙĪÙħ": 5853,
      "ĠØªØ·Ø¨ÙĬÙĤØ§Øª": 5854,
      "ĠØ§ÙĦÙĦØº": 5855,
      "ĠÙĪÙĬØ¹": 5856,
      "ĠØ§ÙĦØ¹ÙĤØ¯": 5857,
      "ĠÙĩØ¯": 5858,
      "ĠØ§ÙĦÙĨØ¨": 5859,
      "ĠØ§ÙĦØ§Ø³ØªÙĤ": 5860,
      "ĠØ§ÙĦØ³ÙĥÙĨ": 5861,
      "oogle": 5862,
      "ĠÙĥÙĪÙħ": 5863,
      "Ø¨Ø§ÙĨ": 5864,
      "ĠØ§ÙĦØªØ§Ø±ÙĬØ®ÙĬØ©": 5865,
      "ĠÙħÙĨØªØµÙģ": 5866,
      "ÙĦØ§ÙħÙĬ": 5867,
      "ÙĪØ§ÙĨØ¨": 5868,
      "ĠØªØ¶Ùħ": 5869,
      "ĠÙĦÙĦÙħØ³Øª": 5870,
      "ĠØ¸Ø±ÙĪÙģ": 5871,
      "ĠØ¨Ø±ÙĬØ·Ø§ÙĨÙĬØ§": 5872,
      "per": 5873,
      "ĠØ§ÙĦØŃØµÙī": 5874,
      "ÙĪØ¹Ø§Øª": 5875,
      "ØºØ±ÙĤ": 5876,
      "Ø¨ÙĬØ¯": 5877,
      "ĠØ§ÙĦÙħÙĪÙĤÙģ": 5878,
      "ĠØ§ÙĦØ¹ÙħÙĦØ©": 5879,
      "ĠÙĪØ§ÙĦØ§Øª": 5880,
      "Ø·Ø¨ÙĤ": 5881,
      "ÙģØ§Ø¯Ø©": 5882,
      "ĠØ¨Ø¹Ø¯ÙĩØ§": 5883,
      "ĠØ§ÙĦØµÙĩÙĬ": 5884,
      "ĠØ´Ø§Ø±Ùĥ": 5885,
      "Ø¬ÙĬØ¹": 5886,
      "ĠØ§ÙĦØªØ¶": 5887,
      "ĠØ³Ø¨ØŃØ§ÙĨÙĩ": 5888,
      "ĠÙĪØ§ÙĦÙĪ": 5889,
      "ĠØ¥Ø±Ø³Ø§ÙĦ": 5890,
      "ÙĪÙĦÙĬØ¯": 5891,
      "ĠÙĨØ§Ø¬": 5892,
      "ĠÙģÙĪØ²": 5893,
      "ĠØ§ÙħØ§Ùħ": 5894,
      "\":": 5895,
      "ĦÙĨ": 5896,
      "ĠØ§Ø³ØªØ¹Ø¯Ø§Ø¯": 5897,
      "ĠØ§ÙĦØªÙĥØ³ÙĬØ±": 5898,
      "Ø¯Ø¯Ø": 5899,
      "Ø¯Ø¯Ø§": 5900,
      "ØŃÙĩ": 5901,
      "80": 5902,
      "ĠØ§ÙĦØ§ÙħØ§Ø±Ø§Øª": 5903,
      "end": 5904,
      "ĠØ¬ÙħØ§Ø¹Ø©": 5905,
      "ÙĬØ³Ùī": 5906,
      "Ø§Ø·ÙĨÙĬÙĨ": 5907,
      "ĠØ§ÙĦÙħÙĥØª": 5908,
      "ÙĪÙģØ±Ø©": 5909,
      "Ø±Ø¨ÙĪÙĨ": 5910,
      "ĠØ§ÙĦØ³ÙĦØ¹": 5911,
      "ĠØ§ÙĦØ¹ÙĤÙĪØ¯": 5912,
      "Ø´ÙģÙĬØ§Øª": 5913,
      "se": 5914,
      "ĠØ¨ØªØ¹": 5915,
      "ĠØ§ÙĦØ®ØµÙĪØµ": 5916,
      "ĠØ§ÙĦÙĪÙģ": 5917,
      "ĠØ§ÙĦØ¨ÙĬØ§ÙĨÙĬ": 5918,
      "ĠØ¹Ø³ÙĥØ±ÙĬØ©": 5919,
      "ĠØ¨ÙĤÙĬÙħØ©": 5920,
      "Ø®Ø·Ø§Ø¡": 5921,
      "ĠÙĦÙĬÙģ": 5922,
      "ÙĦÙĨ": 5923,
      "Ø²ÙĪ": 5924,
      "ĠØ£Ø´ÙĥØ§ÙĦ": 5925,
      "ÙĦÙģØ²ÙĬÙĪÙĨ": 5926,
      "ĦØ§ÙĨ": 5927,
      "ÙĦØ§ÙĨ": 5928,
      "Ø§Ùī": 5929,
      "ØŃØ¯Ø§Ø«": 5930,
      "ØªØ¯Ø§ÙĪÙĦ": 5931,
      "Ù¦": 5932,
      "Ġal": 5933,
      "ĠÙĪÙĬØ¯": 5934,
      "Ø¨ÙĪØ¨": 5935,
      "ĠØ§ÙĦØ±ÙĤÙħ": 5936,
      "57": 5937,
      "ĠÙĬØ¤ÙĥØ¯": 5938,
      "ĠØ§ÙĦÙħØ¨Ø§Ø´Ø±": 5939,
      "ĠØ¨Ø³ÙĬØ·": 5940,
      "ĠØ§ÙĦØ«ÙĦØ§Ø«Ø©": 5941,
      "ĠÙħØŃÙĥÙħØ©": 5942,
      "Ø´ÙĬØ®": 5943,
      "ĠØªØ¨ÙĦØº": 5944,
      "ĠØ§ÙĦØ´Ø§Ø±Ø¹": 5945,
      "ĠØ§ÙĦØ§Ùĩ": 5946,
      "ĠØ§ÙĦØ¥Ø«ÙĨÙĬÙĨ": 5947,
      "ĠØ§Ø®Ø±Ùī": 5948,
      "ĠØ¨ÙģØ¶ÙĦ": 5949,
      "ĠØ§ÙĦÙĥØ´Ùģ": 5950,
      "ĠÙĥÙĦÙħ": 5951,
      "Ø¦Ùĥ": 5952,
      "ĠØ§ÙĦØ£ÙĪØ±Ø§ÙĤ": 5953,
      "Ø§ÙħÙĦØ§Øª": 5954,
      "ĠØ£Ø¹Ø±Ø§Ø¶": 5955,
      "Ø¨Ø¯Ø¡": 5956,
      "Ø¯ÙħÙĬØ±": 5957,
      "ĠØ£Ø³ØªØ±Ø§ÙĦÙĬØ§": 5958,
      "ĠØ§ÙĦÙĤÙĪÙħÙĬ": 5959,
      "ĠØ¥Ø¶Ø§ÙģÙĬØ©": 5960,
      "ĠØªØ¤Ø¯ÙĬ": 5961,
      "ĠÙģØ§ÙĬ": 5962,
      "ÙĤØ§ÙħØ©": 5963,
      "ĠØ§ÙĦØ¥ÙĬØ·": 5964,
      "Ø¹ÙĦÙĩ": 5965,
      "ĠØ´Ùħ": 5966,
      "ØµØ¯ÙĤØ§Ø¡": 5967,
      "ĠØ§ÙĦØ¥Ø¬": 5968,
      "ÙĩØ±Ø§ÙĨ": 5969,
      "ĠØ§ÙĦÙĤÙĩÙĪØ©": 5970,
      "ĠÙĩØ¬ÙĪÙħ": 5971,
      "ĠØ£Ø¨ÙĪØ¸Ø¨ÙĬ": 5972,
      "ĠÙĪØ§ÙĦÙħØ¯": 5973,
      "ĠØ¹Ø·": 5974,
      "ĠØªØ´ÙĬØ±": 5975,
      "ÙĪÙĦØ§ÙĬØ§Øª": 5976,
      "ĠØ§ÙĦÙħØªØŃØ¯Ø«": 5977,
      "ĠØ§ÙĦØ¨ÙĨÙĪÙĥ": 5978,
      "ĠØ§ÙĦØªØ±ÙĥÙĬØ²": 5979,
      "Ø§Ø¨ØªØ©": 5980,
      "ÙĦÙĬÙĦØ©": 5981,
      "ĠØ¨Ø³Ø¹Ø±": 5982,
      "ĠØ¬ÙĦØ³Ø©": 5983,
      "ĠØ§ÙĦÙħØ·ÙĦÙĪØ¨": 5984,
      "ÙħÙī": 5985,
      "ĠØ§ÙĦÙĥØ§ÙħÙĦØ©": 5986,
      "ĠØ¬ÙħÙĬÙĦØ©": 5987,
      "ÙĨØŃÙĨ": 5988,
      "ÙĨØ§Ø·": 5989,
      "ĠÙĦØ¨Ø¹Ø¶": 5990,
      "ĠØ§ÙĦØ§ØªØµØ§ÙĦØ§Øª": 5991,
      "ĠØ§ÙĦØ®Ø±ÙĪØ¬": 5992,
      "ĠØ§ÙĦØ£Ø·Ø±Ø§Ùģ": 5993,
      "ĠØªÙĥØ±": 5994,
      "ĠÙĦÙĪØŃ": 5995,
      "ĠÙĤØ±ÙĬØ©": 5996,
      "ĠØ¨Ø§ÙĦØ¨": 5997,
      "ĠÙħÙĦÙħÙĪØ³Ø©": 5998,
      "Ø§Ø¦ÙĬØ§Øª": 5999,
      "ÙĬÙĤØ§Ùģ": 6000,
      "Ø¬Ø": 6001,
      "Ø¬Ø§": 6002,
      "ĠÙģÙĪØ±ÙĬ": 6003,
      "ĠÙĨÙĬØ¬": 6004,
      "ĠØ¨Ø¹ÙĨÙĪØ§ÙĨ": 6005,
      "Ø¢ÙĦØ§Øª": 6006,
      "co": 6007,
      "ĠÙħÙĦØ¹Ø¨": 6008,
      "ĠØªØ¹ÙĪØ¯": 6009,
      "ĠØ§ÙĦÙħØ¹Ø±ÙĪÙģ": 6010,
      "ĠÙģÙģÙĬ": 6011,
      "ĠØ§ÙĦØ¯Ø³ØªÙĪØ±": 6012,
      "Ġ;": 6013,
      "ĠØ§ÙĦÙħØªØ±": 6014,
      "ÙĪÙĥØ§ÙĨØª": 6015,
      "ĠØ¥ÙģØ±ÙĬÙĤÙĬØ§": 6016,
      "Ø§ÙĦØµÙĬÙĨ": 6017,
      "ĠØ§ÙħØ±Ø£Ø©": 6018,
      "ĠØŃÙħØ¯": 6019,
      "ĠØ¬ÙĪØ¬ÙĦ": 6020,
      "ĠØªÙĪÙĬØªØ±": 6021,
      "ĠØ§ÙĦØ¬ÙĨØ³": 6022,
      "Ø®ÙĦØ§ÙĤ": 6023,
      "Ø¨ÙĬØ§ÙĨ": 6024,
      "ĠØ§ÙĦØªÙĤØ¯Ùħ": 6025,
      "ĠÙĦÙĨØ¯ÙĨ": 6026,
      "ĠØ§ÙĦÙħØµØ§Ø¯Ø±": 6027,
      "ĠØ³ÙĪØ±Ø©": 6028,
      "ĠØ§ÙĦØ£Ø¯ÙĪÙĬØ©": 6029,
      "ĠYouTube": 6030,
      "ĠØ¹ÙĤÙĪØ¯": 6031,
      "Ø·ÙĦØ§Ø¨": 6032,
      "ĠØ§ÙĦØ·ÙĬØ±Ø§ÙĨ": 6033,
      "Ø§ÙĦØªØ¹": 6034,
      "ĠØ¨ÙĥØ±": 6035,
      "ĠØ£ØŃØ¨": 6036,
      "Ø±ÙĪØ§Øª": 6037,
      "ĠØ§ÙĦØ¬ÙħÙĩÙĪØ±": 6038,
      "ĠØ§ÙĦØ¹ØµØ±": 6039,
      "ÙĬØ¶": 6040,
      "ÙĪÙĤØª": 6041,
      "ĠÙĬØ´Ø¹Ø±": 6042,
      "ĠØ±Ø³ÙĪÙħ": 6043,
      "ÙĥØ§Ø¡": 6044,
      "ÙĤÙĦØ§Ø¨": 6045,
      "ĠÙĦÙģØªØ±Ø©": 6046,
      "ber": 6047,
      "Ø§Ø²ÙĬØ©": 6048,
      "ĠQ": 6049,
      "ÙħØ§ÙĬ": 6050,
      "Ø±Ùĩ": 6051,
      "ĠÙĤÙĦÙĬÙĦØ©": 6052,
      "ØŃÙĪØ§ÙĦ": 6053,
      "ĠØ§ÙĦÙħÙĦÙĥÙĬØ©": 6054,
      "ØŃØ¯Ø¯": 6055,
      "Ø¹ÙĨØ¯ÙħØ§": 6056,
      "Ø®ÙĬÙĨ": 6057,
      "ĠØ§ÙĦØ±Ø§Ø¨Ø¹Ø©": 6058,
      "ĠØ¨Ø±Ø´ÙĦÙĪÙĨØ©": 6059,
      "ĠØ§ÙĦØ±Ø·Ø¨": 6060,
      "ĠÙħØŃØ±Ùĥ": 6061,
      "ĠÙħÙĤØªÙĦ": 6062,
      "ÙĤÙĪÙĦÙĩ": 6063,
      "ĠØ§ÙĦØ¨ÙĪØ±": 6064,
      "Ø¯ÙĪØ²": 6065,
      "Ø§ÙĦØŃØµÙĪÙĦ": 6066,
      "ĠØ§ÙĦØµÙĨØ§Ø¹ÙĬ": 6067,
      "ĠØ§ÙĦØ¬Ø§ÙħØ¹Ø§Øª": 6068,
      "ĠÙĦØ¹ÙħÙĦ": 6069,
      "Ø§Ø¨Ø·Ø©": 6070,
      "ust": 6071,
      "ĠØ®Ø²": 6072,
      "ĠÙģØ§Ø±": 6073,
      "ĠÙħØ·Ø§ÙĦØ¨": 6074,
      "Ø±ÙĪØ¨Ø§Øª": 6075,
      "ĠØ§ÙĦÙħØŃØªÙĪÙī": 6076,
      "ÙĥÙĨØª": 6077,
      "ĠØºØ°": 6078,
      "Ġat": 6079,
      "ĠÙĪØ£ÙĨÙĩ": 6080,
      "ĠØ¥ØµÙĦØ§ØŃ": 6081,
      "ĠØªØ¹ÙĬÙĬÙĨ": 6082,
      "ĠÙħØ¬Ùĩ": 6083,
      "ĠÙħÙĪØ³Ùī": 6084,
      "ĠØ¨Ø§ÙĥØ³ØªØ§ÙĨ": 6085,
      "2022": 6086,
      "ØµÙģØŃØ©": 6087,
      "ØªÙĥÙĪÙĬÙĨ": 6088,
      "ĠÙħÙĪÙĨ": 6089,
      "App": 6090,
      "ĠØµÙĦØ§Ø©": 6091,
      "ÙĪÙĥÙĬ": 6092,
      "ĠØ§ÙĦØ·Ø§ÙĦØ¨": 6093,
      "ĠÙĦØ¯Ø¹Ùħ": 6094,
      "ØºØ§Ø±": 6095,
      "ĠØ§ÙĦØ£ÙĦÙħØ§ÙĨÙĬØ©": 6096,
      "ĠØ§ÙĦØ¹ÙħØ§ÙĦ": 6097,
      "ĠØ§ÙĦØµÙ": 6098,
      "ĠØ§ÙĦØµÙĦ": 6099,
      "Ø£Ùĥ": 6100,
      "ĠØ¨ÙĤÙĪØ©": 6101,
      "ĠØ§ÙĦÙģÙĦØ³Ø·ÙĬÙĨÙĬÙĬÙĨ": 6102,
      "ĠØ§ÙĦÙħØªØ¨": 6103,
      "ĠÙħÙĨÙĥ": 6104,
      "Ø²Ø§Ø¡": 6105,
      "ĠØ§ÙĦØ´Ø®ØµÙĬ": 6106,
      "ĠØ§ÙĦÙĩØ¬ÙĪÙħ": 6107,
      "ØªÙĤÙī": 6108,
      "ran": 6109,
      "ÙģØ": 6110,
      "ÙģØ§": 6111,
      "ĠÙħÙĨØ": 6112,
      "ĠÙħÙĨØ§": 6113,
      "ĠØµØŃÙĬØ©": 6114,
      "Ø®ØµØ©": 6115,
      "ows": 6116,
      "ĠÙħÙģÙĩÙĪÙħ": 6117,
      "Ø¶ÙĬØ©": 6118,
      "ĠØ§ÙĦØªØŃØ§ÙĦÙģ": 6119,
      "ĠØ§ØªØµÙĦ": 6120,
      "ÙĪÙģØ©": 6121,
      "ĠØ¢Ø¨": 6122,
      "ĠØ§ÙĦØªÙĤÙĦÙĬØ¯ÙĬØ©": 6123,
      "ĠØ£ØŃØ¯Ø§Ø«": 6124,
      "ĠØªØªØ¶ÙħÙĨ": 6125,
      "Ø¶ÙĪÙĨ": 6126,
      "ĠØ§ÙĦØ²ÙħØ§ÙĦÙĥ": 6127,
      "ÙĨØªÙĩ": 6128,
      "ĠÙģÙĥØ±": 6129,
      "ĠØ§ÙĦØ¨ÙĦØ§Ø³Øª": 6130,
      "ĠØºÙĬØ§Ø±": 6131,
      "ĠØ§ÙĦÙĨØ§Ø´": 6132,
      "ĠØ§ÙĦÙħÙĨØªØ¯Ùī": 6133,
      "ØŃÙĥ": 6134,
      "Ġ70": 6135,
      "ÙĩØ§Ø¬Ø±": 6136,
      "ĠØ§ÙĦØ³ÙĬØ§ØŃÙĬØ©": 6137,
      "ĠØ§ÙĦÙģÙĪØ±": 6138,
      "ĠØ§ÙĦÙĥÙĦÙħØ§Øª": 6139,
      "ĠÙĦÙħÙĪØ§Ø¬ÙĩØ©": 6140,
      "ĠØ§ØŃØªØ¬": 6141,
      "ĠÙħØ¨ÙĦØº": 6142,
      "ĠÙĪÙĬÙĦ": 6143,
      "ie": 6144,
      "ĠÙħÙĪØ³Ùħ": 6145,
      "ĠØ¥ÙħØ§": 6146,
      "ĠØ¨Ø§ÙĦÙĦÙĩ": 6147,
      "ĠØªØµÙĨÙĬÙģ": 6148,
      "ĠZ": 6149,
      "ÙĬØ§ÙĨ": 6150,
      "ĠÙĪÙĦÙĥ": 6151,
      "Ø§Ø±Ùī": 6152,
      "ĠØ§ÙĦØ¨Ø¹": 6153,
      "ĠØ§ÙĦÙĩØ¬Ø±Ø©": 6154,
      "ĠØ°ÙĪÙĬ": 6155,
      "ĠÙģÙĤ": 6156,
      "ÙĦÙĤÙī": 6157,
      "ĠÙħÙĨØ§Ø³Ø¨": 6158,
      "ĠØ§ÙĦÙħØ³Ø§Ø¹Ø¯Ø©": 6159,
      "ĠØ§ÙĦØ´ÙĬØ¡": 6160,
      "ĠØ§ÙĦØ§Ø³ØªÙģØ§Ø¯Ø©": 6161,
      "ĠÙħØ±Ø§ØŃÙĦ": 6162,
      "Ø³Ø§ÙĨÙĬØ©": 6163,
      "ĠØ§ÙĦØ«Ù": 6164,
      "ĠØ§ÙĦØ«ÙĦ": 6165,
      "Ø§ØªØµÙĦ": 6166,
      "ĠØ§ØªØŃØ§Ø¯": 6167,
      "59": 6168,
      "ĠÙĩÙĢ": 6169,
      "ĠØ´Ø¹Ø¨ÙĬØ©": 6170,
      "ÙĥØªØ§Ø¨Ø©": 6171,
      "ĠØ§ÙĦØ§Ø³ØªØ±Ø§ØªÙĬØ¬ÙĬØ©": 6172,
      "ĠØ¹Ø¨Ø¯Ø§ÙĦØ¹Ø²ÙĬØ²": 6173,
      "ĠØ§ØŃÙħØ¯": 6174,
      "ĠØ§ÙĦÙħØ§Ø¦Ø©": 6175,
      "Ø§ÙĥÙĬ": 6176,
      "ĠØ§ÙĦØ§ÙĨØ³Ø§ÙĨ": 6177,
      "ĠØ§ÙĤØ±Ø£": 6178,
      "ĠØªÙĪÙĤÙģ": 6179,
      "ÙĪØ§Ø¬Ø¯": 6180,
      "ÙĬØ·Ø§ÙĦÙĬØ§": 6181,
      "ĠØ´Ø¹Ø§Ø±": 6182,
      "ĠÙħØªÙĪ": 6183,
      "ĠØ§ÙĦÙĦØ¹Ø¨": 6184,
      "ÙĨØ§Ø¯ÙĬ": 6185,
      "ĠØ§ÙĦØ«ÙĤØ©": 6186,
      "ĠØ§ÙĦØ²Ø±Ø§Ø¹Ø©": 6187,
      "Ġ$": 6188,
      "ÙħØµØ±": 6189,
      "Ø¹ÙħÙĦÙĬØ§Øª": 6190,
      "ĠÙĬØ¹Ø§ÙĨÙĬ": 6191,
      "ĠØ§ÙĨØ·ÙĦØ§ÙĤ": 6192,
      "ĠØ§ÙĦØ¯Ø§Ø®ÙĦ": 6193,
      "ĠÙĦØ§Ø¨Ø¯": 6194,
      "ĠØ£ÙĨØ¸ÙħØ©": 6195,
      "ÙĬÙĨÙĩ": 6196,
      "ĠØ£ÙĪØ¨": 6197,
      "ÙħØ§Ø±Ø³": 6198,
      "ĠØ§ÙĦØŃØ±ÙĬØ©": 6199,
      "Ø±ÙģÙĬØ©": 6200,
      "ÙĪØ§Ø±ÙĬØ®": 6201,
      "ØªØ¨Ø§Ùĩ": 6202,
      "Ġcom": 6203,
      "ĠØ§ÙĦØºØ±ÙģØ©": 6204,
      "ĠØ§ÙĦÙħØ±ÙĪØ±": 6205,
      "Ø²ÙĪÙĨ": 6206,
      "ĠÙģØ±Ø¯": 6207,
      "ĠÙģÙĪÙĦ": 6208,
      "ØŃØ¯Ø§Øª": 6209,
      "ĠÙħØ±Ø§Ø¬Ø¹Ø©": 6210,
      "Ø¹ÙĤ": 6211,
      "ĠØªØ³ÙħØŃ": 6212,
      "ĠÙĪÙħØ¯": 6213,
      "ĠØºØ³ÙĬÙĦ": 6214,
      "Ø§Ø¹ÙĬØ¯": 6215,
      "ĠÙħØ¬Ø§ÙĦØ§Øª": 6216,
      "ï»Łïº": 6217,
      "ĠØ§ÙĦØ§ÙħØ±": 6218,
      "ÙĪÙĥØ§ÙĦØ©": 6219,
      "ĠÙĦÙĦØ§Øª": 6220,
      "ÙĥØ§ÙģØŃØ©": 6221,
      "ĠØ£ÙħØ§ÙĥÙĨ": 6222,
      "ĠÙĪØ§ÙĦÙħÙĦ": 6223,
      "ĠØªØ§ÙĬ": 6224,
      "ĠØ§ÙĦÙĪØ¸Ø§Ø¦Ùģ": 6225,
      "ĠØŃØ¶Ø±": 6226,
      "ĠØ§ÙĦÙħØ±ÙĬØ¶": 6227,
      "Ø§ÙģÙĬØ§": 6228,
      "ÙĬØ¯Ø©": 6229,
      "Ø§Ø¨ÙĦØ³": 6230,
      "ĠØ¥Ø¬ÙħØ§ÙĦÙĬ": 6231,
      "ÙģÙĬØ¶": 6232,
      "ĠØ§Ø¶Ø·Ø±": 6233,
      "org": 6234,
      "ĠØŃØ³Ø§Ø¨Ø§Øª": 6235,
      "Ø¹Ø¨Ø¯": 6236,
      "Ø°Ùī": 6237,
      "ĠØ§ÙĦØ«ÙĤØ§ÙģÙĬØ©": 6238,
      "Ø³ÙĬØª": 6239,
      "ĠØ§ÙĦØ²Ø¬Ø§Ø¬": 6240,
      "ÙĪØ·ÙĨ": 6241,
      "ĠÙĪÙĦÙĥÙĨÙĩØ§": 6242,
      "ĠØ¨Ø§ÙĦØªØ¹Ø§ÙĪÙĨ": 6243,
      "ĠØ¨ÙĬÙĨÙĩÙħØ§": 6244,
      "ĠØ£ÙħÙĪØ§ÙĦ": 6245,
      "ĠØªÙĪØ±": 6246,
      "ĠØ§ÙĦØ±Ø§Ø¨Ø·": 6247,
      "ĠØ¶ÙĪØ¡": 6248,
      "ĠØ§ÙĦØ¬ÙĩÙĪØ¯": 6249,
      "ĠÙħØ§Ø³": 6250,
      "ØªØ±Ø§Ø¶": 6251,
      "ĠØ¨Ø¹ÙĬØ¯Ø": 6252,
      "ĠØ¨Ø¹ÙĬØ¯Ø§": 6253,
      "ĠØ§ÙĦØ§ÙĨØªØ®": 6254,
      "ĠØŃØ±Ø§Ø±Ø©": 6255,
      "ÙħÙĪØ²": 6256,
      "ĠÙħØ§Ø¡": 6257,
      "ĠØ§ÙĦØ¹Ø¸ÙĬÙħ": 6258,
      "ĠØ§ÙĦØºØ±": 6259,
      "Ø¬Ø±ÙĬ": 6260,
      "ĠÙĤØ¶Ø§ÙĬØ§": 6261,
      "ĠÙĪØ§ÙĦØ§Ø¬ØªÙħØ§Ø¹": 6262,
      "ĠØ¨Ø£Ø³": 6263,
      "ØŁ!": 6264,
      "ĠØ§ÙĦÙħÙĪØ§ÙģÙĤ": 6265,
      "ĠØ§ÙĦÙħØ³Ø§Ø¹Ø¯": 6266,
      "ĠØ§ÙĦÙħØªØ§ØŃØ©": 6267,
      "Ø§Ø´Ø¯": 6268,
      "ĠØµØ±": 6269,
      "ĠØ¥Ø³ÙĦØ§Ùħ": 6270,
      "Ø«ÙĦØ©": 6271,
      "Ø§Ø¦ÙĤØ©": 6272,
      "ĠØ§ÙĦØ£Ø¹Ø¶Ø§Ø¡": 6273,
      "ĠØ¥ÙĨØ¬Ø§Ø²": 6274,
      "ĠÙĬØ¬Ø±ÙĬ": 6275,
      "ĠØ®Ø±": 6276,
      "Ø§ÙĤØªØµØ§Ø¯": 6277,
      "ĠØ³ÙĬÙħØ§": 6278,
      "ĠØ¹ÙĦØ§ÙĤØ§Øª": 6279,
      "ĠÙĥÙĨØ§": 6280,
      "ĠÙĤØ±Ø§Ø±Ø§Øª": 6281,
      "ĠØ§ÙĦØ±ÙĪØŃ": 6282,
      "ĠØ§ÙĦÙħÙĪØ¸ÙģÙĬÙĨ": 6283,
      "ĠØ§ÙĦØµØ±Ø§Ø¹": 6284,
      "ØŃÙĬÙĦ": 6285,
      "ĠÙħØµØ§ÙĦØŃ": 6286,
      "ĠØ²ÙĬÙĨ": 6287,
      "Ø§Ø±Ø¦": 6288,
      "ĠØ§ÙĦØ£ÙħØ§ÙĥÙĨ": 6289,
      "ĠØªØ£Ø³ÙĬØ³": 6290,
      "Ø§Ø±ÙĬÙĪ": 6291,
      "ĠÙĪØ¹ÙħÙĦ": 6292,
      "Ø¬Ø§Ùħ": 6293,
      "ĠØ§ÙĦØ£Ø³Ø§Ø³": 6294,
      "ĠØ§ÙĦØ³Ø±ÙĬØ¹": 6295,
      "ĠØºÙĬØ§Ø¨": 6296,
      "ĠØ§ÙĦØ²Ø±Ø§Ø¹ÙĬØ©": 6297,
      "ÙĪÙħÙĬØª": 6298,
      "ĠØ§ÙĦØ¬Ø²Ø§Ø¦Ø±ÙĬ": 6299,
      "ĠÙĪØ§ÙĦØ¥ÙĨ": 6300,
      "Ø±ÙĪÙĬØ¬": 6301,
      "ĠØ§ÙĦØ¥Ø¯Ø§Ø±ÙĬØ©": 6302,
      "ĠÙĥÙĪÙĦ": 6303,
      "ĠØ§ÙĦÙĥØ§ÙĦØ³ÙĬ": 6304,
      "Ø§ÙĩØ¨": 6305,
      "ĠØ§ØŃØªÙģ": 6306,
      "Ø¨ÙĪÙĥ": 6307,
      "ĠØ¬ÙĪÙĨ": 6308,
      "ĠØ¹Ø§ÙħÙ": 6309,
      "ĠØ¹Ø§ÙħÙĦ": 6310,
      "ĠØ¹ÙĥØ³": 6311,
      "ĠØ¹Ø§Ø´": 6312,
      "ĠØ§ÙĦÙħØ±ÙĥØ²ÙĬØ©": 6313,
      "ĠÙĪÙĬÙĥÙĬ": 6314,
      "Ø°ÙĬØ¨": 6315,
      "ĠÙĬØªØŃØ¯Ø«": 6316,
      "ØªØ£": 6317,
      "ell": 6318,
      "Ø¬ÙĬØ©": 6319,
      "ĠÙĥÙĦØ§": 6320,
      "ØµÙĪØ±Ø©": 6321,
      "ĠØ§ÙĦØ£ÙħÙĬÙĨ": 6322,
      "ĠØŃØ¶": 6323,
      "ĠÙħØ³Ø§Ø¹Ø¯Ø©": 6324,
      "ĠØŃØ§Ø¯Ø«": 6325,
      "Ø¨ÙĪØ±": 6326,
      "Ø±ÙĬØ§Ø¶Ø©": 6327,
      "Ġ150": 6328,
      "ĠØ¨Ø§Ø®": 6329,
      "Ø§ØªÙĨØ§": 6330,
      "ĠØºÙĬØ±ÙĩØ§": 6331,
      "ĠØ£Ø³Ø§Ø³ÙĬ": 6332,
      "Ø¨ÙĪØ¹": 6333,
      "ĠÙĪØ±Ø¦ÙĬØ³": 6334,
      "ÙĬØªÙħ": 6335,
      "ĠØ§ÙĦÙģØ§Ø¦Ø¯Ø©": 6336,
      "ĠØªØ®ØªÙĦÙģ": 6337,
      "ÙĪØ¨ÙĬÙĨ": 6338,
      "ĠØ³Ø§Ø¨ÙĤØ": 6339,
      "ĠØ³Ø§Ø¨ÙĤØ§": 6340,
      "ĠØ§ÙĦÙħÙĤØ±Ø±": 6341,
      "Ġ((": 6342,
      "ĠØ§ÙĦØ±Ø¨ØŃ": 6343,
      "ĠØ£ÙĦØ¹Ø§Ø¨": 6344,
      "ĠØ§ØªØµØ§ÙĦ": 6345,
      "ĠØ§ÙĦØ§Ø´ØªØ±Ø§Ùĥ": 6346,
      "ÙĬØ¯Ø±ÙĪÙĦÙĬ": 6347,
      "Ġ1000": 6348,
      "ĠØ§ÙĦÙħØŃØ§Ø¬Ø±": 6349,
      "Ø°ÙĥØ±Ø©": 6350,
      "ark": 6351,
      "ÙĪØºØ§ÙĨ": 6352,
      "Ø´Ø·": 6353,
      "Ø«Ø¨Øª": 6354,
      "ĠØ§ÙĦØ®Ø·ÙĪØ§Øª": 6355,
      "ÙĪØ¯Ùĩ": 6356,
      "Ø±ÙĤÙĬØ©": 6357,
      "ĠØ³ÙĦÙĬÙħØ§ÙĨ": 6358,
      "ĠÙĪÙĬØ¬Ø¨": 6359,
      "Ø¹Ø¯Ø§Ø¯Ø§Øª": 6360,
      "ĠØ´Ø¦": 6361,
      "ØŃØ«": 6362,
      "rom": 6363,
      "ĠÙħØŃØ¯Ø¯Ø©": 6364,
      "ĠÙĪØ¹Ø¯Ø¯": 6365,
      "ĠâĢĭ": 6366,
      "ĠØ³ØªØ©": 6367,
      "ĠÙĪØ§Ùĥ": 6368,
      "ĠØ´Ø§Ø±Ø¹": 6369,
      "ĠØµØ¯ÙĬÙĤ": 6370,
      "Ø§ÙĦØ¨Ø©": 6371,
      "ÙĤÙĬØ§Ø³": 6372,
      "ĠØ¨Ø§ÙĦÙĦØºØ©": 6373,
      "ĠØ¨Ø¹Ø¯Ùħ": 6374,
      "Ø³Ø": 6375,
      "Ø³Ø§": 6376,
      "ĠØ§ÙĦØ¨ÙĪ": 6377,
      "ĠÙĬØ´ÙĬØ±": 6378,
      "ĠØ§ÙĦØ«ÙĤØ§ÙģÙĬ": 6379,
      "ĠÙĬØ´ÙĥÙĦ": 6380,
      "ĠØªØ·ÙĪØ±": 6381,
      "88": 6382,
      "ĠâĢ¢": 6383,
      "ĠÙĨÙĬØ¬ÙĬØ±ÙĬØ§": 6384,
      "ĠØ§ÙĦØ¨ÙĦØ¯ÙĬÙĨ": 6385,
      "Ø³ÙħÙī": 6386,
      "ĠØ§ÙĦÙĥØ§Ùħ": 6387,
      "Ø¹ÙĤØ©": 6388,
      "ĠØ§ÙĦØ£Ø®Ø¶Ø±": 6389,
      "ĠÙĬØ³Ø¨Ø¨": 6390,
      "ĠØ§ÙĦÙħÙĨØ¸": 6391,
      "ĠØ§Ø³ØªØ¹ÙħØ§ÙĦ": 6392,
      "ĠÙģÙĪ": 6393,
      "ĠØ£Ø¨Ø·Ø§ÙĦ": 6394,
      "ĠØªØ´ÙĩØ¯": 6395,
      "ĠAlibaba": 6396,
      "ĠØ¹Ø§Ø¯": 6397,
      "ÙĤÙĬÙĨ": 6398,
      "Ø§ØŃØ¸Ø©": 6399,
      "ĠÙĪØ±ÙĤØ©": 6400,
      "ĠÙĪØ±Ø¨ÙħØ§": 6401,
      "ĠØ§ÙĦØ¢ÙĬØ©": 6402,
      "ĠØ§ÙĦØ®Ø²": 6403,
      "Ø§ÙģØª": 6404,
      "ĠØ§ÙĦÙħØ³ØªØ®Ø¯ÙħÙĬÙĨ": 6405,
      "ĠØ¥Ø´Ø§Ø±Ø©": 6406,
      "ĠÙĬØ¯Ù": 6407,
      "ĠÙĬØ¯ÙĦ": 6408,
      "Ø¨Ø¯Ø§Ø¹": 6409,
      "ĠØ£Ø³ÙĩÙħ": 6410,
      "ĠÙĦØ¶ÙħØ§ÙĨ": 6411,
      "Ø¯Ø±Ø¬": 6412,
      "ÙĬØ¯Ø§Ø¹": 6413,
      "Ø§Ø±ÙĬÙĨ": 6414,
      "ĠØ·Ø¨ÙĬØ¹ÙĬØ©": 6415,
      "Ø±Ø§Ø±ÙĬØ©": 6416,
      "ĠØªÙĪØ¬Ùĩ": 6417,
      "ĠØ§ÙĦØµØŃØ§ÙģØ©": 6418,
      "ĠØ§ÙĦÙħØµÙĨØ¹ÙĬÙĨ": 6419,
      "ĠØ§ÙĦØ¥ØŃ": 6420,
      "ĠØªØªÙĨ": 6421,
      "ĠØ¨ØŃØ¶ÙĪØ±": 6422,
      "ĠØ§ÙĦÙħØŃÙĬØ·": 6423,
      "ĠÙĦØªÙĤØ¯ÙĬÙħ": 6424,
      "ĠÙħØ¤Ø³Ø³Ø§Øª": 6425,
      "ĠØ§ÙĦÙĨØ§ÙĤÙĦ": 6426,
      "ĠØªØ¤Ø«Ø±": 6427,
      "ĠØ§ÙĦÙĨÙĪÙĪÙĬ": 6428,
      "ĠÙĪØ¬Ø¯Øª": 6429,
      "ĠÙĪØ§ÙĦØªØµ": 6430,
      "Ġam": 6431,
      "ĠØ§ÙĦØºØ±Ø¨ÙĬ": 6432,
      "Ø±Ø¬Ø§ÙĦ": 6433,
      "Ø¸ÙĩØ±Øª": 6434,
      "ĠØ§ÙĦÙħÙĦÙĥÙĬ": 6435,
      "ĠÙĪØªØ®": 6436,
      "ØŃØ¶Ø±": 6437,
      "Ø´Ø¹Ø±": 6438,
      "ĠØ§ÙĦÙħÙĥØ±": 6439,
      "ÙĪÙħØ§ÙĨ": 6440,
      "ĠÙħÙħÙĬØ²Ø©": 6441,
      "ĠØªØµÙĪÙĬØ±": 6442,
      "ĠÙĦØ¹ÙĦØ§Ø¬": 6443,
      "ĠØ§ÙĦÙĪØ§ÙĤ": 6444,
      "ØµÙĦØ©": 6445,
      "Ø§ÙĦÙģØ©": 6446,
      "ee": 6447,
      "ĠØ§ÙĦØ´Ø¨ÙĥØ©": 6448,
      "ĠØ·Ø¨ÙĬØ¨": 6449,
      "ebook": 6450,
      "Ø¦ÙĬÙĨ": 6451,
      "ĠØ§ÙĦÙĨØ§Ø¬": 6452,
      "ĠÙĬØŃØ§ÙĪÙĦ": 6453,
      "ĠÙħÙħØ«": 6454,
      "Ġ36": 6455,
      "Ø´Øª": 6456,
      "ĠØ¹ÙħØ§": 6457,
      "ĠØ¨Ø¹ÙħÙĦ": 6458,
      "ĠØ§ÙĦÙħØ±Ø©": 6459,
      "ĠØ§ÙĦØ¥ØµÙĦØ§ØŃ": 6460,
      "ĠÙĤØ±ÙĬØ¨": 6461,
      "ĠØ§ÙĦØ¹ÙħÙĬÙĦ": 6462,
      "ĠØ§ÙĥØªØ´Ø§Ùģ": 6463,
      "Ø¬ÙĦØ§Øª": 6464,
      "ĠØ§ÙĦØŃØ³ÙĨ": 6465,
      "ĠØ¥ÙĬØ±": 6466,
      "ĠÙħÙĬØª": 6467,
      "ĠÙĬØ¹ØªÙĤØ¯": 6468,
      "ff": 6469,
      "ÙħØ±Ø§Ø¶": 6470,
      "ĠØ§ÙĦØ¥ÙĨØ¬ÙĦÙĬØ²ÙĬØ©": 6471,
      "ĠØ£ØµØ¯Ø±": 6472,
      "ĠÙĪØ§ÙĦØ£ÙĨ": 6473,
      "ÙģÙĪØ±": 6474,
      "ØªØ±ÙĪÙĦ": 6475,
      "ĠØ§ÙĦÙħØªÙĩÙħ": 6476,
      "Ø¯ÙĪØ§Øª": 6477,
      "ĠØ§ÙĦØ§ÙħØ±ÙĬ": 6478,
      "ary": 6479,
      "Ġ>>": 6480,
      "ĠØ§ÙĦØªØ¹ÙĦÙĬÙĤØ§Øª": 6481,
      "hatsApp": 6482,
      "ĠÙĥÙģØ§Ø¡Ø©": 6483,
      "ÙĥØ³Ø±": 6484,
      "ĠØ¨ØªØ³": 6485,
      "ĠØ§ÙĦØªØ£ÙħÙĬÙĨ": 6486,
      "ÙĪÙģÙĬØ¯": 6487,
      "ĠÙĤÙĬØ§Ø³": 6488,
      "ØªÙĬØ§Øª": 6489,
      "ĠØ¬Ø§Ø¦Ø²Ø©": 6490,
      "ĠØ«Ø§ÙĦØ«": 6491,
      "ĠØŃÙĤÙĤ": 6492,
      "ĠØ§ÙĦØªÙĩØ§Ø¨": 6493,
      "Ø¹Ùĥ": 6494,
      "ĠØ³Ø¹ÙĪØ¯ÙĬ": 6495,
      "ĠÙĨÙĨ": 6496,
      "ĠÙħØ¬ÙħÙĪØ¹": 6497,
      "Ø§Ø¡Ø§Øª": 6498,
      "ĠÙĦØŃØ¸Ø©": 6499,
      "ĠÙĬØªØ·ÙĦØ¨": 6500,
      "ÙĩØ¯Ø¯": 6501,
      "ĠÙĨÙĩØ§Ø¦ÙĬ": 6502,
      "ĠÙĪØ¨Ø§ÙĦ": 6503,
      "Ġ90": 6504,
      "ĠÙĪØ¹ÙĨØ¯ÙħØ§": 6505,
      "ĠØ§ÙĦÙħØ¨ÙĬØ¹Ø§Øª": 6506,
      "Ø·ÙĨØ§Ø¹": 6507,
      "Ø§ÙĦØŃØ©": 6508,
      "ĠØ§ÙĦØ±Ø¹Ø§ÙĬØ©": 6509,
      "ĠØ§ÙĦØ¹Ø¯Ù": 6510,
      "ĠØ§ÙĦØ¹Ø¯ÙĦ": 6511,
      "ĠÙĪÙĩÙ": 6512,
      "ĠÙĪÙĩÙĦ": 6513,
      "ĠÙģØ§Øª": 6514,
      "ĠØ§ÙĦÙħÙĨØ§Ø®": 6515,
      "ĠÙĥÙĦÙħØ§": 6516,
      "Ø§ØµØ±Ø©": 6517,
      "ĠÙĥØ£": 6518,
      "ĠØ¯Ùĩ": 6519,
      "ĠÙģØ¦Ø©": 6520,
      "ĠØ§ÙĦØ¹Ø§ÙħÙĦØ©": 6521,
      "ĠØ§ÙĦØ®Ø¨Ø±Ø©": 6522,
      "ĠÙĨØµØ±": 6523,
      "ØŃÙĪÙĦ": 6524,
      "ĠÙĪØ§ÙĦØ¬Ùħ": 6525,
      "ĠÐ": 6526,
      "ÙĬÙħÙĥÙĨÙĥ": 6527,
      "ĠØ§ÙĦØ³ÙĬÙĦÙĬ": 6528,
      "ÙĬØªÙĩØ§": 6529,
      "ÙĪØ¶Ø§Ø¹": 6530,
      "ĠÙĪØ¬ÙĩØ©": 6531,
      "Ġ32": 6532,
      "Ø·Ø±ÙĬØ©": 6533,
      "ĠÙĦØ·ØŃÙĨ": 6534,
      "ĠØ§ÙĦØ¥Ø·ÙĦØ§ÙĤ": 6535,
      "ĠØ¹ÙĦÙħØ§Ø¡": 6536,
      "Ø³ÙĪ": 6537,
      "ÙģØ§Ø¯": 6538,
      "ĠØŃÙĤØ": 6539,
      "ĠØŃÙĤØ§": 6540,
      "ĠØ§ÙĦØ°ÙĥØ±": 6541,
      "ĠØ³ÙĦØ§ÙħØ©": 6542,
      "ĠØ£Ø¹Ø¯": 6543,
      "sh": 6544,
      "ÙĦÙģÙĬØ©": 6545,
      "ĠØªØ¹ÙĬØ´": 6546,
      "ĠÙħØ¹Ø±Ùģ": 6547,
      "ĠØ§ÙĤØªØ±": 6548,
      "ĠØ§ÙĦØ³ÙĪÙĬØ³": 6549,
      "ĠØ§ÙĦÙħØ¹ÙĨÙĬØ©": 6550,
      "ĠGet": 6551,
      "ĠØ§ÙĦØ¯ÙĤÙĬÙĤ": 6552,
      "Ø±Ø§ØªÙĬØ¬": 6553,
      "ĠÙħØ³ÙĦ": 6554,
      "Ø¯Ø§ÙħØ©": 6555,
      "ĠØ£Ø¬Ø±": 6556,
      "ĠØ§ÙĦØ¥Ø®ÙĪØ§ÙĨ": 6557,
      "Ø§ÙĦÙħØ²ÙĬØ¯": 6558,
      "ĠÙĦÙħØ¹Ø±ÙģØ©": 6559,
      "ĠØ±ÙĪØ§ÙĬØ©": 6560,
      "ĠÙĪÙħÙĤ": 6561,
      "ĠØ£Ø®Ø±": 6562,
      "ĠÙĪØªÙĪ": 6563,
      "ĠØ®ØµÙħ": 6564,
      "ĠÙĨÙĪØ¹ÙĬØ©": 6565,
      "ĠÙĪØ£Ø®": 6566,
      "ĠÙĬØ¶Ø¹": 6567,
      "ĠØ¹Ø³ÙĥØ±ÙĬ": 6568,
      "ĠØ§ÙĦØ§ÙĨØªØ§Ø¬": 6569,
      "Ø´Ø§ÙĩØ¯": 6570,
      "ĠØ§ÙĦØµÙĬÙĨÙĬ": 6571,
      "ĠØªØ¬Ø§Ø±ÙĬØ©": 6572,
      "ĠØ§ÙĦØµÙĬØ¯": 6573,
      "ĠØ¬Ø¯ÙĪÙĦ": 6574,
      "ĠØ§ÙĦÙĨØµØ±": 6575,
      "ĠØ§ÙĦÙĬØ³": 6576,
      "ĠØ§ÙģØªØªØ§ØŃ": 6577,
      "indows": 6578,
      "Ġ45": 6579,
      "ĠÙĪÙĥÙĬÙĦ": 6580,
      "ĠØ§ÙĦØŃØ³Ø§Ø¨": 6581,
      "ĠÙħÙħØ«ÙĦ": 6582,
      "ĠØ§ÙĦØ®Ø·ÙĪØ©": 6583,
      "Ø§Ø²ÙĨØ©": 6584,
      "ÙĩÙĬØ§Ø±": 6585,
      "ĠØ§ØªÙģØ§ÙĤÙĬØ©": 6586,
      "ÙĥÙĪÙĬÙĨ": 6587,
      "ĠÙĤÙĦØª": 6588,
      "ĠÙĤØ§Ø¯": 6589,
      "ĠØ¨ÙħØ«": 6590,
      "ĠØªÙĪØ§ØµÙĦ": 6591,
      "ÙĪØ¯Ø§ÙĨ": 6592,
      "ĠØ§Ø³ØªÙħ": 6593,
      "ĠØ§ÙĦØ§Ø¨ØªØ¯": 6594,
      "ĠØ§ÙĦØªØ²Ø§Ùħ": 6595,
      "ĠØ³ÙĬÙģ": 6596,
      "ÙĪØ¨ÙĪØª": 6597,
      "ØºÙĬØ±Ø§Øª": 6598,
      "ĠØ¨Ø±Ø¦Ø§Ø³Ø©": 6599,
      "ĠØ£ÙĪØ¶ØŃ": 6600,
      "ĠØ«ÙĤÙĬÙĦØ©": 6601,
      "ĠØªØ¨ÙĤÙī": 6602,
      "otel": 6603,
      "ĠÙĪØ§ÙĦØ¢": 6604,
      "ĠÙĪØ§ÙĦØªÙĨÙħÙĬØ©": 6605,
      "ĠØªØ±ØªÙĬØ¨": 6606,
      "Ø§Ø¶ØŃ": 6607,
      "ĠÙħØ³Ø§Ø±": 6608,
      "oad": 6609,
      "sp": 6610,
      "ĠØ¥ÙĨÙħØ§": 6611,
      "ĠÙħÙĤØ¯ÙħØ©": 6612,
      "ĠØ£ØºÙĦØ¨": 6613,
      "ĠØ§ÙĦØ£ØµÙĪÙĦ": 6614,
      "ĠØ§ÙĦØ¨Ø®": 6615,
      "ĠØ§ÙĦØ³ÙĪØ¯Ø§ÙĨÙĬ": 6616,
      "Ø§ÙĦÙĬÙĪÙħ": 6617,
      "ĠØ£Ø¨Ø¯Ø": 6618,
      "ĠØ£Ø¨Ø¯Ø§": 6619,
      "Ġpm": 6620,
      "ĠØ¯ÙĬÙĨØ§Ø±": 6621,
      "ĠÙĪØ£ÙĬØ¶Ø§": 6622,
      "acebook": 6623,
      "ÙĪØ°ÙĥØ±": 6624,
      "ĠØ³ÙĤÙĪØ·": 6625,
      "ĠØ§ÙĦØŃÙħØ§ÙĬØ©": 6626,
      "ĠØ§ÙĦØ´Ø¹ÙĪØ±": 6627,
      "Ø§ÙĦÙħÙĪ": 6628,
      "ĠÙĬØŃÙĬ": 6629,
      "du": 6630,
      "ĠÙħØµÙĨ": 6631,
      "ĠØ§ÙĨØ³": 6632,
      "ĠØ§ÙĦÙĤØ§Ø¹Ø¯Ø©": 6633,
      "ĠØ´Ø±Ø·Ø©": 6634,
      "ĠØ§ÙĦØªØ±Ø¨": 6635,
      "Ø¨ÙĪØ·": 6636,
      "ĠØ¨Ø¹Ø¶ÙĩÙħ": 6637,
      "Ø´Ø±Ø·Ø©": 6638,
      "ĠØ¨Ø®ØµÙĪØµ": 6639,
      "ĠØ§ÙĦØµØ¹Ø¨": 6640,
      "ĠÙĨØ¨Ø§Øª": 6641,
      "ĠØ§ÙĦØ£ÙģØ±Ø§Ø¯": 6642,
      "ÙħØ§Ùĥ": 6643,
      "ĠÙĪØ§ÙĦØªÙĤ": 6644,
      "ug": 6645,
      "ĠØ¨Ø¥ÙĨ": 6646,
      "ĠÙĤÙģ": 6647,
      "ĠØ§Ø³ØªØ«ÙħØ§Ø±": 6648,
      "ĠØ§ÙĦÙĨÙģØ³ÙĬØ©": 6649,
      "ĠØ§ÙĦØ´ÙħØ§ÙĦ": 6650,
      "Ø§ÙĪÙĬÙĨ": 6651,
      "ĠØŃÙĤÙĬÙĤÙĬØ©": 6652,
      "ĠÙĨÙĬÙĪÙĬÙĪØ±Ùĥ": 6653,
      "ĠØªÙĥÙĨÙĪÙĦÙĪØ¬ÙĬØ§": 6654,
      "ĠØ§ÙĨØªÙĤ": 6655,
      "ĠØ°ÙĬ": 6656,
      "ĠØ§ÙĦØ·ÙĪ": 6657,
      "ĠÙĦØ§Ø³": 6658,
      "ĠÙħØŃØ·Ø§Øª": 6659,
      "Ġqu": 6660,
      "ÙĲØĮ": 6661,
      "ÙģØ°": 6662,
      "ĠØ´ÙĪ": 6663,
      "Ø®ÙĦØ§Øµ": 6664,
      "ĠÙĨÙĤÙĪÙħ": 6665,
      "ĠØ§ÙĦØ³Ø¬": 6666,
      "Ø²ÙĬÙħØ©": 6667,
      "Ø§ÙģÙ": 6668,
      "Ø§Ø²ÙĬÙĦ": 6669,
      "ĠÙħØ§ÙĦÙĥ": 6670,
      "Ø¸ÙĬÙģØ©": 6671,
      "ĠÙħØ²Ø¯": 6672,
      "Ø§ÙģÙĦ": 6673,
      "Ø³Ø§Ø³": 6674,
      "ĠØªØ§Ø¨Ø¹": 6675,
      "ĠØ®Ø·Ø·": 6676,
      "ĠØ§ÙĦØ³ÙĪØ¯Ø§Ø¡": 6677,
      "ĠÙĩÙĥØ°Ø§": 6678,
      "ĠØ§ÙĦØ¬ÙħØ¹": 6679,
      "ØªØ²Ø§Ø²": 6680,
      "ĠØºÙĬØ±Ùĩ": 6681,
      "ĠØ§ÙĦØ±Ø³Ø§ÙĦØ©": 6682,
      "ĠØ§ÙĦØ§ÙĦØªØ²Ø§Ùħ": 6683,
      "ĠÙģØ¹Ø§ÙĦÙĬØ§Øª": 6684,
      "ĠØ³ÙģØ±": 6685,
      "ØŃØ§ÙĬØ§": 6686,
      "Ø¯Ø±Ø§ÙĨ": 6687,
      "ĠØªØ³Ø¹Ùī": 6688,
      "Ø«ÙĬÙĤØ©": 6689,
      "Ø§Ø´ÙĬ": 6690,
      "ĠÙĦØ³ÙĨØ©": 6691,
      "ĠØ§ÙĦØ®ÙĦØ§ÙĬØ§": 6692,
      "ĠØ£ÙģÙĥØ§Ø±": 6693,
      "ĠØ§ÙĦÙĥÙģ": 6694,
      "ĠØ§Ø«ÙĨÙĬÙĨ": 6695,
      "ĠØ§ÙĦØ£Ø¯ÙĪØ§Øª": 6696,
      "ĠØ§ÙĦØ°ÙĩØ§Ø¨": 6697,
      "ĠØ£ÙĬØ§Ø±": 6698,
      "ĠØ¥ÙĦØºØ§Ø¡": 6699,
      "ÙĪÙģÙĤ": 6700,
      "ial": 6701,
      "ØºØ±Ø©": 6702,
      "ĠPl": 6703,
      "Ø±ÙĤØ©": 6704,
      "ĠØ§ÙĦØ¹Ø¯Ø§ÙĦØ©": 6705,
      "ĠÙĪØ§ÙĦØ³ÙĦØ§Ùħ": 6706,
      "ĠÙħÙĪØ¬ÙĪØ¯": 6707,
      "ĠØ¢Ø®Ø±ÙĬÙĨ": 6708,
      "ĠØ§ÙĦÙĬØ§Ø¨Ø§ÙĨ": 6709,
      "ĠØ®ÙĦÙģÙĬØ©": 6710,
      "ĠØ§ÙĦØ´Ø±Ø§Ø¡": 6711,
      "ÙĪØ±ÙĬØ¯": 6712,
      "ĠÙĬØ¯ÙģØ¹": 6713,
      "§ï»": 6714,
      "ĠØ§ÙĦØªØ®Ø·ÙĬØ·": 6715,
      "ĠØ§ÙĦÙħÙĪØ¬ÙĪØ¯": 6716,
      "ĠØ§ÙĦØ³ÙħØ§Ø¡": 6717,
      "ĠÙĨØ¬ÙĪÙħ": 6718,
      "ĠØ³ÙĥÙĨ": 6719,
      "ĠØ§Ø³ØªØ±Ø§ØªÙĬØ¬ÙĬØ§Øª": 6720,
      "ÙħØ§Ø±Ø³Ø§Øª": 6721,
      "Ø¨Ø¯Ø§ÙĦ": 6722,
      "ĠâĢİ": 6723,
      "ĠØ´Ùģ": 6724,
      "ĠØªØ¹Ø§ÙĨÙĬ": 6725,
      "ĠØªØªØ¹ÙĦÙĤ": 6726,
      "ĠØ§ÙĦÙħÙĬÙĦØ§Ø¯": 6727,
      "ĠØ§ÙĤØªØµØ§Ø¯": 6728,
      "ĠØ§ÙĦØ¢Ø«Ø§Ø±": 6729,
      "ĠØµÙģÙĪÙģ": 6730,
      "ĠØ«ÙĪØ±Ø©": 6731,
      "ÙĪØ¹ÙĬ": 6732,
      "ĠØ¨Ø¬Ø§ÙĨØ¨": 6733,
      "ĠØ¢ÙĨ": 6734,
      "ĠÙĪÙħØµ": 6735,
      "ĠØ¯Ø±ÙĩÙħ": 6736,
      "ĠØ¬Ø¨ÙĦ": 6737,
      "Ø¶ÙħØ§Ùħ": 6738,
      "ĠØ¹Ø¯Ø¯Ø": 6739,
      "ĠØ¹Ø¯Ø¯Ø§": 6740,
      "ĠÙĪØ³ÙĬÙĦØ©": 6741,
      "ĠØ§ÙĦØªÙħÙĪÙĬÙĦ": 6742,
      "ĠØ¨Ø£ÙģØ¶ÙĦ": 6743,
      "ĠØ§ÙĦÙĨØ³Ø®Ø©": 6744,
      "ĠØ®Ø·Ø£": 6745,
      "ĠÙĨØ¸Ø±Ø©": 6746,
      "ĠØ§ÙĦØ£ØµÙĦÙĬ": 6747,
      "ĠØ§ÙĦÙħØ³ØªØ´ÙģÙī": 6748,
      "ĠØ±Ø³ÙħÙĬ": 6749,
      "Ø³ÙĦØ©": 6750,
      "ÙħÙĬÙĤ": 6751,
      "ĠØ³ÙħÙĪ": 6752,
      "ĠØ¨ÙħØ«Ø§Ø¨Ø©": 6753,
      "ĠÙħØµÙĨØ¹ÙĬÙĨ": 6754,
      "ĠØªØ¯ÙĪÙĬØ±": 6755,
      "Ø§Ø«Ø©": 6756,
      "Ø¨ÙĬØ¦Ø©": 6757,
      "ĠØ§ÙĦÙĦØ§Ø¬Ø¦ÙĬÙĨ": 6758,
      "ĠØ§ÙĦØ¹ÙĦØ§ÙħØ©": 6759,
      "ĠØ¹ÙĨØµØ±": 6760,
      "ĠØ³ØŃØ¨": 6761,
      "Ø±ÙĬØ¨Ø§Øª": 6762,
      "ĠØ§ÙĦØ´ØŃÙĨ": 6763,
      "ĠØ§ÙĦÙħØ±Ø¶Ùī": 6764,
      "Ø§ØºØ©": 6765,
      "ĠØªØªØ¨Ø¹": 6766,
      "ĠÙģØ¬": 6767,
      "ĠÙĬØ¬Ø¯": 6768,
      "ĠØ¥Ø³Ùħ": 6769,
      "ĠØ§ÙĦØªØ§Ø¨Ø¹": 6770,
      "ĠÙħØ³Ø¤": 6771,
      "ĠØ§ÙĦØŃØµ": 6772,
      "Ø¹Ø¯Ø§Ùħ": 6773,
      "ĠØ§ÙĥØ¨Ø±": 6774,
      "ĠØ§ÙĦÙĤÙ": 6775,
      "Ø¹Ø·": 6776,
      "ĠØ§ÙĦÙĤÙĦ": 6777,
      "Ġ]": 6778,
      "Ø³Ø¹": 6779,
      "ĠâĢ«": 6780,
      "ÙĤÙĦØ§ÙĦ": 6781,
      "ĠÙĪØªØ·ÙĪÙĬØ±": 6782,
      "ĠØ£ÙĬØ©": 6783,
      "Ø´ÙĬØ©": 6784,
      "ĠØªØ¹ÙĦÙĨ": 6785,
      "ld": 6786,
      "ĠÙĬØ±ØºØ¨": 6787,
      "ĠØªÙĤØ§Ø±ÙĬØ±": 6788,
      "ng": 6789,
      "Ø¹Ø§ÙĨ": 6790,
      "ĠØ§ÙĦÙĥØªØ§Ø¨Ø©": 6791,
      "ĠØ§ÙĦÙħÙĬÙĥ": 6792,
      "ĠØ®ÙĦØ§Ùģ": 6793,
      "ĠØ§ÙĦØ¨ÙĪÙĦ": 6794,
      "ĠØ§ÙĦØ£ÙĤØµÙī": 6795,
      "ĠØ§ÙĦÙĤÙĨØ§Ø©": 6796,
      "ĠÙĪÙĤØ§ÙĦØª": 6797,
      "ĠØŃØµÙĦØª": 6798,
      "ĠØ§ÙĨØªØ®Ø§Ø¨Ø§Øª": 6799,
      "ĠØ«ÙĤØ§ÙģØ©": 6800,
      "ĠØ§ÙĦØ¨ÙĬØ¶": 6801,
      "ĠØ§ÙĦØ£Ø±Ø¬": 6802,
      "ĠÙħØ³Ø£ÙĦØ©": 6803,
      "ĠØ§ÙĦØ¹ÙĪØ§ÙħÙĦ": 6804,
      "ech": 6805,
      "ĠØ§ÙĦØ¥ÙĬØ±Ø§ÙĨÙĬØ©": 6806,
      "ĠØ§ÙĦØ¯Ø±Ø§Ø³ÙĬ": 6807,
      "ĠØ¹ÙħØ±ÙĪ": 6808,
      "ĠÙħØ¨Ø§Ø±Ùĥ": 6809,
      "ian": 6810,
      "âĢ«": 6811,
      "ĠØ§ÙĦÙģØ±ØµØ©": 6812,
      "ĠØŃØ§Ø¬": 6813,
      "ĠØ§ÙĦÙħØ³ÙĬØŃ": 6814,
      "ĠØ³ÙĦØ§Ùħ": 6815,
      "Ø§Ø·Ùģ": 6816,
      "ĠØ§ÙĦØŃÙĤÙĬÙĤÙĬØ©": 6817,
      "ery": 6818,
      "Ø¬ÙĨØ¨": 6819,
      "ĠØ§ÙĦÙĩØ¯": 6820,
      "ĠØ¨ÙĥÙħ": 6821,
      "Ġx": 6822,
      "ĠØ§ÙĦÙħØ³Ø±ØŃ": 6823,
      "ĠØ§ÙĦØªÙĪÙĨØ³ÙĬ": 6824,
      "Ø¹ÙĢ": 6825,
      "ĠØ³ÙĦÙħ": 6826,
      "ĠØ§ÙĦÙĥÙĪÙĨ": 6827,
      "ĠØªÙĤÙĦÙĬ": 6828,
      "ĠÙĬÙĪØ±ÙĪ": 6829,
      "ĠÙħØ³ØªÙħØ±": 6830,
      "ĠØ§ÙĦÙħØ®Ø·": 6831,
      "ĠØ¥Ø«": 6832,
      "ØªØ§Ø±ÙĬØ®": 6833,
      "Ø±Ø§Ø¡Ø§Øª": 6834,
      "ĠØ§ÙĦÙĥÙĪØ§Ø±ØªØ²": 6835,
      "ĠØ±ÙħØ²": 6836,
      "ÙģØ¹Ø§ÙĦ": 6837,
      "ĠØ§ÙĦØ£ÙĨØ´Ø·Ø©": 6838,
      "Ø§ÙĤÙħ": 6839,
      "Ø§Ø·Ø¹Ø©": 6840,
      "ĠØ§Ø³ØªØ·Ø§Ø¹": 6841,
      "ĠØ¹ÙĦØ§ÙħØ§Øª": 6842,
      "ĠØ§ÙĦÙħÙĥÙĪÙĨØ§Øª": 6843,
      "ĠØ§ÙĦØ±Ø§Ø¦Ø¯Ø©": 6844,
      "ĠÙģØ´ÙĦ": 6845,
      "ÙħÙĬØ§Ùĩ": 6846,
      "Ø±ÙĪÙĨ": 6847,
      "Ø¨Ø±Øª": 6848,
      "ÙĩÙĩÙĩÙĩ": 6849,
      "ĠØ¥ØºÙĦØ§ÙĤ": 6850,
      "ĠÙħØªÙī": 6851,
      "ĠØ§ÙĦÙħØ³ÙĦ": 6852,
      "ĠØ§ÙĦÙĩÙĪØ§ØªÙģ": 6853,
      "ĠØªÙĥÙĪÙĬÙĨ": 6854,
      "Ġ00": 6855,
      "ĠØ¹Ø±Ø¨": 6856,
      "ĠØªØ¯Ø±ÙĬØ¨": 6857,
      "ĠØªØ¨Ø¯ÙĪ": 6858,
      "Ø¬ÙĬØ¨": 6859,
      "ÙĤØ¯ÙĬØ±": 6860,
      "Ø²ÙĬØ¬": 6861,
      "ĠØ¹Ø§Ø¦ÙĦØ©": 6862,
      "ĠØ§ÙĦØµØºÙĬØ±": 6863,
      "ĠâĢĶ": 6864,
      "ĠÙĬÙħÙĥÙĨÙĨØ§": 6865,
      "ĠØ§Ø¹ØªØ¨Ø±": 6866,
      "ĠØ¨Ø§ÙĤÙĬ": 6867,
      "ĠØ¨ØªÙĤØ¯ÙĬÙħ": 6868,
      "ĠØ§ÙĦØ£Ø·Ø¹ÙħØ©": 6869,
      "ĠØ¹Ø§ÙĦÙĬ": 6870,
      "ĠÙĬØ·ÙĦÙĤ": 6871,
      "ØµÙĦØŃØ©": 6872,
      "ile": 6873,
      "ĠÙħØ®Ø§Ø·Ø±": 6874,
      "Ø·ÙĪÙħ": 6875,
      "ĠØ¨Ø¨Ø¹Ø¶": 6876,
      "ØªÙĩÙħØ§": 6877,
      "ĠÙģÙĤØ¯Ø§ÙĨ": 6878,
      "100": 6879,
      "ØºØ±Ø§Ø¶": 6880,
      "ĠÙģØ±Ø¹": 6881,
      "ĠØ§ÙĦØ´Ø§Ø¨": 6882,
      "Ø§ÙĦØ¬Ùħ": 6883,
      "Ø¯Ø±Ø§Ø³Ø§Øª": 6884,
      "ĠØ·Ø¨ÙĬØ¹Ø©": 6885,
      "Ġ2000": 6886,
      "ĠØªØ¬Ø§Ø±": 6887,
      "ÙĪÙĦÙħ": 6888,
      "ĠØ§ÙĦÙģÙĤ": 6889,
      "ĠÙĬØ¤Ø«Ø±": 6890,
      "ÙĨÙĩØ§": 6891,
      "ĠÙħÙĪØ±": 6892,
      "ĠÙħØ¬ÙħÙĪØ¹Ø§Øª": 6893,
      "ĠØ§Ø³ÙħÙĩ": 6894,
      "ĠÙĦÙĦØ£ÙĨ": 6895,
      "ĠÙĥØ³Ø±": 6896,
      "ĠÙĪØªØŃØ¯ÙĬØ¯": 6897,
      "ĠÙħØŃÙĦÙĬØ©": 6898,
      "ÙĪØªØ§Ø¨Ø¹": 6899,
      "ØŃÙħØ©": 6900,
      "ĠÙħÙĪØ¬ÙĪØ¯Ø©": 6901,
      "ĠÙĥÙĪ": 6902,
      "ĠØ§ÙĦØ£Ø³Ø¦ÙĦØ©": 6903,
      "ĠÙħÙħÙĬØ²": 6904,
      "ĠÙĪØ¬Ùħ": 6905,
      "Ø°Ø§Ø¨": 6906,
      "Ġ821": 6907,
      "ĠØ§ØŃØªÙĬØ§Ø¬Ø§Øª": 6908,
      "ĠØ§ÙĦÙħØµØ±ÙĬÙĬÙĨ": 6909,
      "ĠÙĦØ´Ø±Ø§Ø¡": 6910,
      "ĠÙħÙĪØª": 6911,
      "ÙĦÙĬØ´ÙĬØ§Øª": 6912,
      "Ø£Ø¹ÙĦÙĨØª": 6913,
      "ĠØŃØ±Øµ": 6914,
      "ĠØ§ÙĦØ³ÙĬØ§ÙĤ": 6915,
      "ĠØ§ÙĦØ§Ø¦": 6916,
      "86": 6917,
      "ĠØ§ÙĦØ·Ø§Ø¦Ø±Ø©": 6918,
      "ĠÙħØ¨Ø±": 6919,
      "ĠØ§ÙĦØªØ£Ø«ÙĬØ±": 6920,
      "ĠÙĥØ£ÙĨ": 6921,
      "ÙĪØ§Ùħ": 6922,
      "ĠÙĦÙħØ´": 6923,
      "ĠØ£ÙĨÙģØ³ÙĩÙħ": 6924,
      "ĠØ§ÙĦÙĬÙħÙĨÙĬ": 6925,
      "ÙĦÙĤØ§Ø¡": 6926,
      "ĠØ·ÙĦØ§Ø¨": 6927,
      "ĠØ³ÙĩÙĦ": 6928,
      "ÙĦÙģÙ": 6929,
      "ÙĦÙģÙĦ": 6930,
      "ĠØ§ÙĦØ·Ø¨ÙĬØ¹Ø©": 6931,
      "ĠØ§ÙĦØ£ÙĩØ¯Ø§Ùģ": 6932,
      "ĠÙĦÙĦØ¬ÙħÙĬØ¹": 6933,
      "ØªØ±Ø¨": 6934,
      "ÙħÙĦØª": 6935,
      "Ġar": 6936,
      "ĠØ¨Ø§ÙĬ": 6937,
      "ĠØ§ÙĦÙģÙĦØ¨": 6938,
      "ĠØ§ÙĦØ¯Ø®ÙĦ": 6939,
      "ĠØ§ÙĦÙĥÙĦÙħØ©": 6940,
      "ĠØ§ÙĦÙħØ³ØªØ«ÙħØ±ÙĬÙĨ": 6941,
      "Ø§Ø¨ÙĬØ±": 6942,
      "ĠÙĦÙĦØ¬Ùħ": 6943,
      "ĠØ§ÙĦØ¥Ø´Ø§Ø±Ø©": 6944,
      "ĠÙħÙĩØ±Ø¬Ø§ÙĨ": 6945,
      "ĠÙĬØ¨ÙĤÙī": 6946,
      "ĠCom": 6947,
      "ĠØ§ÙĦØ´Ø¯ÙĬØ¯": 6948,
      "ĠØ±Ø³Ø§Ø¦ÙĦ": 6949,
      "ĠØ§ÙĦØºØ°Ø§Ø¦ÙĬ": 6950,
      "ĠØ§ÙĦÙĬÙĩÙĪØ¯": 6951,
      "ĠØ§ÙĦØ§ÙĪÙĦÙī": 6952,
      "ram": 6953,
      "ĠØ³Ø¹ÙĪØ¯": 6954,
      "ĠØ§ÙĦØ¥Ø¹ÙĦØ§ÙħÙĬ": 6955,
      "ĠØ¨ÙħÙĨØ§Ø³Ø¨Ø©": 6956,
      "ĠØ§ÙĦØ£ÙģÙĥØ§Ø±": 6957,
      "ĠÙĪØ§ÙĦÙħÙĤ": 6958,
      "54": 6959,
      "ĠØ¹Ø´Ø±Ø§Øª": 6960,
      "ĠÙĪØŃØ¯Ø§Øª": 6961,
      "ĠØ§ÙĦØ®Ø¨Ø±Ø§Ø¡": 6962,
      "ĠØ§ÙĦÙħØ³Ø¤ÙĪÙĦÙĬØ©": 6963,
      "ĠÙĤØ§Ø¯Ø±Ø©": 6964,
      "ĠÙĪØªÙĤØ¯ÙĬÙħ": 6965,
      "ĠØ§ÙĦØºÙĬØ±": 6966,
      "ĠØ§ÙĦØŃØ¨ÙĪØ¨": 6967,
      "ĠÙħØµÙĦØŃØ©": 6968,
      "ĠÙģØ¹ÙĦØ": 6969,
      "ĠÙģØ¹ÙĦØ§": 6970,
      "ĠØ£Ø¬ÙĨ": 6971,
      "Ø²ÙĬØª": 6972,
      "ĠØ§ÙĦØ¬ÙĬÙĦ": 6973,
      "Ø°ÙĪØ±": 6974,
      "ĠØ¬ÙħÙĩÙĪØ±ÙĬØ©": 6975,
      "ĠÙĤÙħØ©": 6976,
      "ĠGoogle": 6977,
      "ĠÙħØ¨Ø§Ø¯Ø±Ø©": 6978,
      "ĠØ£ÙħØ±Ø§Ø¶": 6979,
      "ĠØ¹Ø§Ø¯ÙĦ": 6980,
      "Ġsh": 6981,
      "ĠØ§ÙĦÙħØ³ØªØ´Ø§Ø±": 6982,
      "Ġ}": 6983,
      "ĠØ¶ÙĬ": 6984,
      "ĠØŃØªÙĬ": 6985,
      "Ø§ÙĦÙĬÙģ": 6986,
      "ĠØ§ÙĦØŃØ³ÙĬÙĨ": 6987,
      "ĠØ§ÙĦØ´Ø±ÙĪØ·": 6988,
      "ĠÙħØ¯Ø±Ø¨": 6989,
      "Ø§ÙĪØ¯": 6990,
      "ĠØ±ÙĬÙħÙĪÙĨØ¯": 6991,
      "ĠØ§ÙĦØ¹ÙĤÙĪØ¨Ø§Øª": 6992,
      "MT": 6993,
      "ĠØªÙĩØ¯Ùģ": 6994,
      "ÙĩØ§Ø¯Ø§Øª": 6995,
      "ĠØ·Ø¨ÙĬØ©": 6996,
      "ĠØ§ÙĦØ±Ø¤ÙĬØ©": 6997,
      "ĠØ¨ÙĦØ§Ø¯Ùĩ": 6998,
      "ĠØ¨ØªØ±": 6999,
      "Ø«ÙĬÙĦ": 7000,
      "ĠØ§ÙĦØ¹Ø§Ø¦ÙĦØ©": 7001,
      "Ø§ÙĦÙħØ±": 7002,
      "ĠØ§Ø³ØªØ®Ø¯Ø§ÙħÙĩ": 7003,
      "ĠØ§ÙĦÙĬÙħ": 7004,
      "Ø®ÙĬØµØ©": 7005,
      "ĠØªØ«Ø¨ÙĬØª": 7006,
      "ĠØªÙĪÙĤÙĬØ¹": 7007,
      "ĠÙĪØ§ÙĦØ§ØŃ": 7008,
      "Ø§Ø¹Ùĩ": 7009,
      "ĠØ§ÙĦØ³ÙĦØ§ØŃ": 7010,
      "ĠØ³Ø±ÙĬØ¹Ø©": 7011,
      "ĠÙĨØ¬Ùħ": 7012,
      "ĠØ§ÙĦØ§ÙĨØªÙĩØ§Ø¡": 7013,
      "Ø¯Ø¡": 7014,
      "ØºØ·ÙĬ": 7015,
      "ĠØ§ÙĦÙĨÙĬÙĦ": 7016,
      "ĦÙĤÙĬ": 7017,
      "Ø·ÙĨØ©": 7018,
      "ĠÙĥØ§Ø¨": 7019,
      "ÙĦÙĤÙĬ": 7020,
      "ÙģÙĬØ³": 7021,
      "ĠØ§ÙĦÙĪÙĬØ¨": 7022,
      "Ø´Ø§Ùģ": 7023,
      "ĠØŃÙħØ§Ø³": 7024,
      "ĠØŃÙĪØ§Ø±": 7025,
      "ĠØªØ³ÙĦÙĬÙħ": 7026,
      "ĠØ§ÙĦÙħÙĨØ²ÙĦÙĬØ©": 7027,
      "ÙĳÙı": 7028,
      "Ø®Ø¨Ø§Ø±ÙĬØ©": 7029,
      "ÙĨØ§Ø¯ÙĬÙĤ": 7030,
      "ĠØ§ÙĦÙģØ¶Ø§Ø¡": 7031,
      "Ø§ÙĥØ³": 7032,
      "ĠÙĩØ²": 7033,
      "ĠØ£ÙĤØ±Ø¨": 7034,
      "ĠÙħÙĤØ§ÙĦ": 7035,
      "ĠØ¯Ùģ": 7036,
      "ĠØ§ÙĦÙħØ³ØªÙħØ±": 7037,
      "ĠØ´Ø®ØµØ": 7038,
      "ĠØ´Ø®ØµØ§": 7039,
      "ĠØ§ÙĦÙħØ³ÙĦØ³ÙĦ": 7040,
      "af": 7041,
      "Ø±ÙĥØ§ÙĨ": 7042,
      "ĠØ§ÙĦØªØ¹Ø¨ÙĬØ±": 7043,
      "ĠØ¬Ø±Ø§Ø¡": 7044,
      "ĠØ£Ùī": 7045,
      "ĠØ§ÙĦØ£Ø¯ÙĨÙī": 7046,
      "ĠØ¨Ø§ÙĦØ±ÙĬØ§Ø¶": 7047,
      "ĠØ§ÙĦÙĪØ«": 7048,
      "ĠÙĬÙĪÙĨ": 7049,
      "ĠÙĪØ£Ùħ": 7050,
      "ĠØ§ÙĦØ§Ø¹ÙĦØ§Ùħ": 7051,
      "ĠØ¯ÙĪÙĦÙĬØ©": 7052,
      "ĠØ§ÙĦØªØŃÙĦÙĬÙĦ": 7053,
      "ĠØ§ÙĦØ°Ø§ØªÙĬØ©": 7054,
      "Ø³ØªÙĬØ±": 7055,
      "ĠØ§ÙĦÙħØŃØ¯ÙĪØ¯Ø©": 7056,
      "ĠØ¯Ø¹ÙĪØ©": 7057,
      "ĠØ§ÙĦØ±Ø¬": 7058,
      "ĠÙĪØ§ÙĦØ¶": 7059,
      "ĠÙĬÙĥÙģÙĬ": 7060,
      "ĠØ§ÙĦÙĪØŃÙĬ": 7061,
      "ÙħÙĪØ¯ÙĬ": 7062,
      "ĠÙĦÙĦØ²": 7063,
      "ĠØ§ÙĦØ²ÙĬØªÙĪÙĨ": 7064,
      "Ø·ÙģÙ": 7065,
      "Ø·ÙģÙĦ": 7066,
      "ĠØªØ´Ø¹Ø±": 7067,
      "ĠØ£ÙĨÙĨÙĬ": 7068,
      "ĠØ§ÙĦØ±Ø£": 7069,
      "Ø¨ÙĩØ§": 7070,
      "Ø§ÙĩÙĨ": 7071,
      "ĠØ§ÙĦÙĤÙĬÙħ": 7072,
      "ĠØ²ÙĪØ¬ÙĩØ§": 7073,
      "Ø§ÙĪØ±Ø©": 7074,
      "ÙĬÙĪØ±": 7075,
      "ĠØ¸ÙĩØ±Øª": 7076,
      "ĠØ¨ÙĤÙĬØ§Ø¯Ø©": 7077,
      "ĠØ®ÙĦØ§ÙĦÙĩ": 7078,
      "ĠØªØ¶Ø¹": 7079,
      "ĠØ¹Ø§ÙĦ": 7080,
      "ĠÙħØ³Ø¦": 7081,
      "ĠØ³ÙĦØ·Ø©": 7082,
      "ĠØ¹ÙħÙĦÙĩ": 7083,
      "ĠØ£Ø³ÙĪØ§ÙĤ": 7084,
      "ĠÙĪØ¥ÙĦÙī": 7085,
      "Ø´Ø±Øª": 7086,
      "ĠØ£Ø³ÙģÙĦ": 7087,
      "ĠØ§ÙĦÙħØ³Ø¤ÙĪÙĦÙĬÙĨ": 7088,
      "Ø§ÙħÙĬÙĥ": 7089,
      "ĠÙĤÙħØª": 7090,
      "ĠÙħÙĨÙĬ": 7091,
      "ĠØŃØµÙĪÙĦ": 7092,
      "ØµØŃÙĬÙģØ©": 7093,
      "ĠØ£ÙĤØµÙī": 7094,
      "ĠØ§ÙĦÙĤÙĪØ§ÙĨÙĬÙĨ": 7095,
      "ĠØ§ÙĦØªØ¹Ø±Ùģ": 7096,
      "ĠØ´ÙĬØ®": 7097,
      "ÙĦÙģØ§Øª": 7098,
      "rad": 7099,
      "ĠÙĬÙģØ¹ÙĦ": 7100,
      ":âĢı": 7101,
      "ĠØ¬Ø²ÙĬØ±Ø©": 7102,
      "ĠÙĩÙĨØ¯": 7103,
      "ĠØªØªÙħÙĬØ²": 7104,
      "ĠÙħÙĪØ¶ØŃ": 7105,
      "ØªØ§Ø¨Ø¹": 7106,
      "ĠØ§ÙĦØ¹Ø¯ÙĪ": 7107,
      "ĠØ¥ÙĦÙĩ": 7108,
      "ĠØ£ÙħÙĬÙĨ": 7109,
      "ÙĦÙħÙĬÙĨ": 7110,
      "io": 7111,
      "ĠØ§ÙĦØ´Ø¤ÙĪÙĨ": 7112,
      "ĠØ§ÙĦØ¯Ø¹ÙĪØ©": 7113,
      "2015": 7114,
      "ĠØ§ÙĦÙĨØªÙĬØ¬Ø©": 7115,
      "ink": 7116,
      "ĠØ§ÙĦØ§Ø¶": 7117,
      "ĠÙģÙĩÙĦ": 7118,
      "84": 7119,
      "Ġwith": 7120,
      "ÙĩØ²Ø©": 7121,
      "ĠØ£Ø¬ÙħÙĦ": 7122,
      "ĠØ²Ø§ÙĬØ¯": 7123,
      "ĠØ£ÙĪÙĦÙī": 7124,
      "ĠÙħÙĥÙĪÙĨ": 7125,
      "ĠØ³ÙĬÙĦ": 7126,
      "ĠØ§ÙĦØŃØ²Ø§Ùħ": 7127,
      "ĠØ¨Ø§ÙĦØªØ£ÙĥÙĬØ¯": 7128,
      "Ø¯Ø±ÙĪÙĬØ¯": 7129,
      "ĠÙĨØ®": 7130,
      "ĠØ§ÙĦØ¹Ø§Ø¦": 7131,
      "ĠØªÙĨÙħÙĬØ©": 7132,
      "ĠÙĨØ§Ùģ": 7133,
      "ĠØµÙĦØ©": 7134,
      "ĠØ§ÙĦØ¥Ø±ÙĩØ§Ø¨ÙĬØ©": 7135,
      "ĠÙĦÙĨÙģØ³": 7136,
      "ÙĩØ¯Ø§Ø¡": 7137,
      "ure": 7138,
      "ĠØ¨Ø§ÙĦÙħÙĪ": 7139,
      "ĠÙĦÙĤØ¨": 7140,
      "ÙĩØ§Ø¡": 7141,
      "ĠÙħÙĬØ±": 7142,
      "ĠØ§ÙĦÙĪÙĦØ§Ø¯Ø©": 7143,
      "ÙħØ§Ø°Ø§": 7144,
      "ĠØ§ÙĦØ³Ø±Ø¹Ø©": 7145,
      "Ø±Ø¦ÙĬØ³": 7146,
      "ĠØ§ÙĦØŃØ¯Ø«": 7147,
      "Ø¦ÙĨØ§Ùģ": 7148,
      "ĠØ£ÙĪØ±Ø§ÙĤ": 7149,
      "ĠÙĨØ±Ùī": 7150,
      "ĠØ§ÙĦØ£ÙĪÙĦÙĬØ©": 7151,
      "ĠØ§ÙĦØ¨ÙĤ": 7152,
      "ĠØ§ÙĦØ¨Ø±ÙĬØ·Ø§ÙĨÙĬ": 7153,
      "ĠÙĪØ±ÙĤ": 7154,
      "ĠØ¬Ø±Ùī": 7155,
      "ĠØ´ØŃÙĨ": 7156,
      "ØªØ¨Ùĩ": 7157,
      "ĠØ¨Ø¯Ø±": 7158,
      "Ø³Ø¨Øª": 7159,
      "52": 7160,
      "ĠÙĦØŃÙħØ§ÙĬØ©": 7161,
      "ÙĪØŃØ¯Ø©": 7162,
      "ĠØ®Ø§Ø±Ø¬ÙĬØ©": 7163,
      "ĠØ¨Ø§ÙĦØ°ÙĥØ±": 7164,
      "ĠØ§ÙĦÙĨÙĩØ§Ø¦ÙĬØ©": 7165,
      "Ø§ÙĪØ¶": 7166,
      "ĠÙħØªÙĥ": 7167,
      "ÙĪØ§Ø±Ø¦": 7168,
      "ĠØ§ÙĦÙĥÙĦÙĬØ©": 7169,
      "ĠØ±Ø§Ø¨Ø·": 7170,
      "Ø³Ø¨ÙĪÙĥ": 7171,
      "ĠØ§ÙĦÙħØ¹Ø¯Ø©": 7172,
      "ĠØ§ÙĦØ´Ø§Ø¹Ø±": 7173,
      "ĠØ´Ø§Ø±": 7174,
      "ĠÙĪØ§ÙĦØ®Ø¯ÙħØ§Øª": 7175,
      "ĠØ£ÙĤØ±": 7176,
      "ÙĪÙģØ": 7177,
      "ÙĪÙģØ§": 7178,
      "ĠØ§ÙĦØŃØ§Ø¯Ø«": 7179,
      "ĠÙĬÙħØªÙĦÙĥ": 7180,
      "Ø§ÙĩÙ": 7181,
      "ĠÙĦØ¥Ø¹Ø§Ø¯Ø©": 7182,
      "ĠØ§ÙĦØ´Ø§Ùħ": 7183,
      "Ø§ÙĩÙĦ": 7184,
      "Ø¥ÙĦÙī": 7185,
      "ĠÙħØ¹Ø±ÙĪÙģ": 7186,
      "ĠØ§ÙĦØŃÙĬÙĪÙĬØ©": 7187,
      "ĠØ¹ÙĨÙĩÙħ": 7188,
      "Ø§Ø¯ÙĬÙĨ": 7189,
      "ĠÙĦØ¥ÙĨØªØ§Ø¬": 7190,
      "ĠØ¨ÙĬØ¦Ø©": 7191,
      "ÙĨØ¨ÙĪÙĦ": 7192,
      "ĠØ§ÙĦØ¬ÙħØ§Ø¹Ø©": 7193,
      "ØµÙĬØ¨": 7194,
      "ÙĪØ³Ø§Ø¦ÙĦ": 7195,
      "ĠØ§ÙĦÙĥÙĦÙĬ": 7196,
      "ØªÙħÙĬØ²Ø©": 7197,
      "ĠØ±ÙħÙĦ": 7198,
      "Ø¨Ø§Ø·": 7199,
      "ØªØŃØ§ÙĨØ§Øª": 7200,
      "ĠÙĪØŃÙħ": 7201,
      "ĠÙħÙĨØ®ÙģØ¶Ø©": 7202,
      "ĠØ§ØªØ¨Ø§Ø¹": 7203,
      "ĠØ¨ÙħÙĨØ·ÙĤØ©": 7204,
      "ĠØ£Ø¹ÙĦ": 7205,
      "ĠÙĪØ£ØŃ": 7206,
      "ĠØ§ÙĦØªØ´Ø±ÙĬ": 7207,
      "ĠØ§ÙĦÙħØ³ØªÙĩÙĦÙĥ": 7208,
      "ĠØ¨ÙħÙĪØ¬Ø¨": 7209,
      "ÙĪØ§Ø©": 7210,
      "ĠØªØ£ÙĥÙĬØ¯": 7211,
      "ĠØ®Ø±ÙĪØ¬": 7212,
      "ĠØ§ÙĦØªÙĨØ¸ÙĬÙģ": 7213,
      "ĠÙħØ£": 7214,
      "ĠØ¨Ø§ÙĦØªØŃ": 7215,
      "ĠØ§ÙĦÙĨØ®": 7216,
      "ĠØ§ÙĦØ¨Ø§ÙĦØº": 7217,
      "ign": 7218,
      "ÙħÙĪÙĨ": 7219,
      "Ø·ÙĬØ¨": 7220,
      "ĠØ¨Ø§Ø³ØªÙħØ±Ø§Ø±": 7221,
      "ÙħØªØ¹": 7222,
      "........": 7223,
      "Ø¹ÙĤØ¯": 7224,
      "ĠØ§ÙĦØµÙĨØ§Ø¹Ø§Øª": 7225,
      "ĠØ§ÙĦØ®Ø·ÙĪØ·": 7226,
      "ĠØ´ÙĩØ¯Øª": 7227,
      "ĠÙĬØ°ÙĥØ±": 7228,
      "ĠØ§ÙĦØ´Ùĥ": 7229,
      "ØµÙĦØª": 7230,
      "ÙĤÙĦÙĤ": 7231,
      "ĠØ§ÙĦÙģÙĨØ§ÙĨØ©": 7232,
      "53": 7233,
      "Ú¯": 7234,
      "ĠØ§ÙĦÙħÙĨØ§Ø²ÙĦ": 7235,
      "Ġbe": 7236,
      "ĠØ§ÙĦØ¬ÙħÙĬÙĦØ©": 7237,
      "ĠØ¬ÙĩØ¯": 7238,
      "ĠØ§ÙĦØ·ÙĦØ¨Ø©": 7239,
      "ĠÙĪÙĬÙĥÙĬØ¨ÙĬ": 7240,
      "ĠØ§ÙĦÙħØ¹Ùħ": 7241,
      "ĠÙĬØ®Øµ": 7242,
      "ÙĤÙĬØ¯Ø©": 7243,
      "ĠØ¥Ø«Ø±Ø§Ø¡": 7244,
      "Ø³ÙħØ¹": 7245,
      "ĠÙĦÙĦØªØµ": 7246,
      "ĠØªØ¬ÙĨØ¨": 7247,
      "ØªØ´Ø§Ø±": 7248,
      "Ø¨ÙĤØ§Ø¡": 7249,
      "ĠØ§ÙĦØ£Ø³ÙĦØŃØ©": 7250,
      "ĠØ§ÙĦÙĦÙĬØ¨ÙĬ": 7251,
      "ØªØ³ØªØ®Ø¯Ùħ": 7252,
      "ĠØªÙħØªÙĦÙĥ": 7253,
      "ĠÙĨØ§ÙĤ": 7254,
      "ĠØ¬ÙĪØ²": 7255,
      "ĠØ³ÙĪØ¡": 7256,
      "ĠÙģØµ": 7257,
      "ĠÙħÙĨØªØ¯ÙĬØ§Øª": 7258,
      "ĠÙħÙĨØ¬Ùħ": 7259,
      "Ø³ØªÙħØ±": 7260,
      "ĠÙĪØ£ØµØ¨ØŃ": 7261,
      "ĠÙĪØ§Ø³ØªØ®Ø¯Ø§Ùħ": 7262,
      "Ø®ØµØµØ§Øª": 7263,
      "ĠÙĪÙĬÙģ": 7264,
      "ĠØ§ÙĦØ¨Ø¯Ø¡": 7265,
      "ĠÙĬØ¶Ùħ": 7266,
      "ĠØ§Ø±ØªÙĥ": 7267,
      "Ø§Ø¡Ø©": 7268,
      "ĠØ§ÙĦØ£Ø·Ø¨Ø§Ø¡": 7269,
      "ĠØ§ÙĦÙĤØ¨Ø¶": 7270,
      "ĠØ§ÙĦÙħØ¤ÙħÙĨÙĬÙĨ": 7271,
      "Ġprice": 7272,
      "ĠØ§ÙĦÙĤÙħØ±": 7273,
      "ĠÙĥÙĪØ±ÙĬØ§": 7274,
      "ĠØµØŃÙģÙĬ": 7275,
      "ĠÙĪØ¯Ø¹Ùħ": 7276,
      "ĠØ§ÙħØ": 7277,
      "ĠØ§ÙħØ§": 7278,
      "ĠØ£ÙĤØ¯Ùħ": 7279,
      "ĠØ§ÙĦÙħÙĪØ³": 7280,
      "ĠÙħÙĪØ¨": 7281,
      "Ø§Ø·ÙĬØ©": 7282,
      "ĠØ§ÙĦØ£ÙĬ": 7283,
      "ĠØ§ÙĦÙĬÙħÙĨÙĬØ©": 7284,
      "ĠÙĦÙĬÙĥÙĪÙĨ": 7285,
      "âĢĿØĮ": 7286,
      "ĠÙħØ¯ÙĨ": 7287,
      "ĠÙĪÙĬÙĥÙĪÙĨ": 7288,
      "ĠÙħÙĤØ¯Ùħ": 7289,
      "ĠØ§ÙĦØµØ±": 7290,
      "Ġ2007": 7291,
      "ĠØ³ØªØŃ": 7292,
      "ĠØ¥ÙĦÙĬÙĥ": 7293,
      "500": 7294,
      "ĠØ¬ÙĪØ±Ø¬": 7295,
      "Ù«": 7296,
      "Ø¸Ø§ÙĩØ±Ø§Øª": 7297,
      "ï¿½ï¿½": 7298,
      "ĠØ¨Ø®Ø·": 7299,
      "ĠØ£Ø¹Ø·": 7300,
      "ĠØ§ÙĦÙĤØ±Ø§Ø±Ø§Øª": 7301,
      "Ø§ÙģØ¶ÙĦ": 7302,
      "ĠØ¸Ø§ÙĩØ±Ø©": 7303,
      "ĠØ²Ø±": 7304,
      "ĠØªØµØ¯Ø±": 7305,
      "ĠØ§ÙĦØŃÙħÙĦØ©": 7306,
      "ÙĥÙħØ¨ÙĬÙĪØªØ±": 7307,
      "ÙħÙĪØŃ": 7308,
      "ĠÙĦÙĦÙĪØµÙĪÙĦ": 7309,
      "ĠØ§ÙĦØ£Ø±Ø¨Ø§ØŃ": 7310,
      "ib": 7311,
      "ĠÙĬØ®Ø±Ø¬": 7312,
      "ĠÙħÙĥØ§Ùģ": 7313,
      "ĠØ£Ø±Ø§Ø¯": 7314,
      "Ø·ØŃÙĨ": 7315,
      "Ġ\".": 7316,
      "ĠØ§ÙĦØ¥ÙĬÙħØ§ÙĨ": 7317,
      "ÙĩÙĦÙĬØ©": 7318,
      "ĠØ§ÙĦØ®Ø´Ø¨": 7319,
      "Ø®Ø¯ÙħÙĬ": 7320,
      "ĠØ¨Ø²": 7321,
      "ĠØ¬ÙĬØ´": 7322,
      "ĠØ®ÙĦÙĬÙģØ©": 7323,
      "ĠØ§ÙĦØ¯ÙħØ§Øº": 7324,
      "ĠØ§ÙĦÙĨÙĤØ§Ø·": 7325,
      "ĠÙħØ³Ø¤ÙĪÙĦÙĬØ©": 7326,
      "Ø´Ùĥ": 7327,
      "net": 7328,
      "ĠÙĪØ¹ÙĨØ¯": 7329,
      "))": 7330,
      "ĠØ§ÙĦØºØ³ÙĬÙĦ": 7331,
      "ong": 7332,
      "ĠØ§ÙĦÙħÙĤØ±": 7333,
      "ĠØ¨Ø§ÙĦØªÙĨ": 7334,
      "ĠØ³ÙħØ¹": 7335,
      "ĠÙĪØ³Ø·Ø§Ø¡": 7336,
      "Ø¬ÙĪØ²": 7337,
      "Ø·Ø±ÙĤ": 7338,
      "ĠÙĬÙĥØ´Ùģ": 7339,
      "ĠØ§ÙĦØªÙĥÙĦÙģØ©": 7340,
      "ĠÙħÙĤØ§ÙĪÙħØ©": 7341,
      "Ø§ÙĦØªØŃ": 7342,
      "ĠØ«ÙħÙĨ": 7343,
      "ĠÙĨÙĬØ³Ø§ÙĨ": 7344,
      "ĠÙĪØ§ÙĦØªÙģ": 7345,
      "ĠÙĨØ³Ø®": 7346,
      "ĠWindows": 7347,
      "ØªØ¹Ø±Ùģ": 7348,
      "ĠØ¥ÙĬØ·Ø§ÙĦÙĬØ§": 7349,
      "ĠØ§ÙĦØ®Ø§Ø±Ø¬ÙĬ": 7350,
      "ĠÙħØ±Ø§ÙĤØ¨Ø©": 7351,
      "ĠØ³ÙĬØ§ÙĤ": 7352,
      "ru": 7353,
      "ĠÙħØµØ±ÙĬ": 7354,
      "ÙĤÙĬÙĩ": 7355,
      "Ġ600": 7356,
      "ĠØ¨Ø§ÙĦÙħØ±": 7357,
      "ĠÙĦØŃÙĤÙĪÙĤ": 7358,
      "51": 7359,
      "ĠØ¹Ø«ÙħØ§ÙĨ": 7360,
      "Ø£Ø®Ø±": 7361,
      "ĠØµØ¹ÙĪØ¨Ø©": 7362,
      "Ø§Ø¬ÙĬ": 7363,
      "ĠØ¨Ø±Ø³": 7364,
      "Ø¨Ø±ÙĬÙĦ": 7365,
      "ĠØ§ÙĦÙĪØ§ÙĤØ¹Ø©": 7366,
      "ĠØ§ÙĦÙģÙĪÙĦ": 7367,
      "ĠØ§ÙĦØ·Ùģ": 7368,
      "ĠØ§ÙĦÙĨÙĬØ§Ø¨Ø©": 7369,
      "ĠÙģÙĥØ§ÙĨ": 7370,
      "Ø§ÙĪÙģ": 7371,
      "Ø¬Ø²Ø¡": 7372,
      "ĠØ§ÙĦØ¹ÙĬØ¯": 7373,
      "ÙĨÙĥØ±": 7374,
      "ÙĪØ¨ÙĬØ": 7375,
      "ÙĪØ¨ÙĬØ§": 7376,
      "ĠÙħØªØ·ÙĦØ¨Ø§Øª": 7377,
      "ĠÙĬØ£Ø®Ø°": 7378,
      "Ø·ÙĦØŃ": 7379,
      "ĠÙħÙĪØ§Ø·ÙĨ": 7380,
      "ĠØ§ÙĦØ®ÙĦØ§Ùģ": 7381,
      "ÙħØ¦Ø©": 7382,
      "ĠÙħØ¹Ø¯ÙĦØ§Øª": 7383,
      "ĠØ§ÙĦØ£Ø«": 7384,
      "ĠØ§ÙĦØ±Ø§Ø¦Ø¹Ø©": 7385,
      "ĠØ±Ùģ": 7386,
      "ØªÙĬØ§ÙĦ": 7387,
      "ĠØ§ÙĦØ¹ÙĨØ§ÙĬØ©": 7388,
      "Ø§Ø¹ÙħØ©": 7389,
      "ĠÙĦÙĦÙħØ¤": 7390,
      "ĠØ§ÙĦØªÙĪØ§ÙĦÙĬ": 7391,
      "ĠØ§ÙĦØ¹Ø±ÙĪØ¶": 7392,
      "ĠØ¨ÙĨØ§Øª": 7393,
      "ĠÙĦØ¹Ø¯Ùħ": 7394,
      "abic": 7395,
      "ĠÙĨÙħØ·": 7396,
      "ÙĢØ©": 7397,
      "ĠØªØ£Ø®Ø°": 7398,
      "ØµØŃØ§Ø¨": 7399,
      "ĠØ§ÙĦØªØ¬Ø±Ø¨Ø©": 7400,
      "Ø³Ø¨Ø§ÙĨÙĬØ§": 7401,
      "ĠÙĬØ¹Ø§ÙĨÙĪÙĨ": 7402,
      "Ø§Ø¤ÙĩØ§": 7403,
      "ÙĪØ§Øµ": 7404,
      "ĠØ§ÙĦØ³ÙĬØ¯Ø©": 7405,
      "ÙĤØ¯Ø§Ùħ": 7406,
      "ÙĩÙī": 7407,
      "ÙħØ§Øª": 7408,
      "ØªØ§Ø¯": 7409,
      "Ø¯Ø¹": 7410,
      "ĠØªØ°ÙĥØ±": 7411,
      "ĠØ§ÙĦÙħØ¹Ø±Ø¶": 7412,
      "Ø·ÙĦØ§Ø¹": 7413,
      "ĠØ§ÙĦÙĤØµØ©": 7414,
      "ax": 7415,
      "ĠØ³ÙĬØªÙĬ": 7416,
      "ÙĪÙĤØ¹Ø©": 7417,
      "Ġab": 7418,
      "ĠØ¨Ø·ÙĦ": 7419,
      "ĠØªØºØ°ÙĬØ©": 7420,
      "ĠØ§ÙĦØ±Ø¨ÙĬØ¹": 7421,
      "ĠØ§ÙĦØªÙħØ±": 7422,
      "ĠÙħØªØ®ØµØµ": 7423,
      "Ø¸Ùī": 7424,
      "ÙĬÙĪÙĨÙĬÙĪ": 7425,
      "ĠÙĥØªÙĦØ©": 7426,
      "ÙĨÙĬÙĪÙħ": 7427,
      "ÙĬÙĦÙĪÙĦ": 7428,
      "Ø§ÙĬØªÙĩ": 7429,
      "ĠÙĨÙĩØ±": 7430,
      "Ġ::": 7431,
      "Ø¨ÙĬÙĦØ©": 7432,
      "ĠAnd": 7433,
      "ĠØ±ØŃÙħÙĩ": 7434,
      "âĢı.âĢı": 7435,
      "ĠÙģØ§Ø¹": 7436,
      "ĠÙħÙĪØ«": 7437,
      "ĠÙĦÙħØ³Øª": 7438,
      "for": 7439,
      "ĠØ§ÙĦØ§ÙĦÙĥØªØ±ÙĪÙĨÙĬ": 7440,
      "Ø£Ø«Ø±": 7441,
      "ÙĪÙĨÙĬØ§": 7442,
      "ĠÙħÙĥÙĪÙĨØ§Øª": 7443,
      "ĠØ§ÙĦÙĨÙģØ³ÙĬ": 7444,
      "ĠØ§ÙĦØµØŃÙĬÙģØ©": 7445,
      "ĠØ®ÙģØ¶": 7446,
      "Ø¯ÙĬÙĥ": 7447,
      "ĠÙĨØ¸Ùħ": 7448,
      "Ø¬ÙĪØ¡": 7449,
      "ĠØ§ÙĦØ®Ø§ÙħØ³Ø©": 7450,
      "ĠØªØ¹Ø¨ÙĬØ±": 7451,
      "ĠÙĪØ§ÙĦÙģØ±": 7452,
      "ĠØ§ÙĦØ§ÙĨÙģ": 7453,
      "Ø´Ø§Ùħ": 7454,
      "ÙĪØªÙĪ": 7455,
      "ĠÙĤØµØ±": 7456,
      "ĠØŃØ±ÙĬØ©": 7457,
      "ĠÙĦÙĦØ¨ÙĨ": 7458,
      "ÙħÙĨÙĬ": 7459,
      "ĠÙĦØ§Ø®": 7460,
      "ĠØ§ÙĦØ£ÙĦÙĪØ§ÙĨ": 7461,
      "ĠÙĪØ§Ø¬Ùĩ": 7462,
      "ĠÙĤØ¨ÙĪÙĦ": 7463,
      "ĠØªÙħÙĪÙĬÙĦ": 7464,
      "ÙĦÙģØ©": 7465,
      "ĠÙĤØ§Ø¨ÙĦØ©": 7466,
      "ĠÙĪØ£ÙĥØ¯": 7467,
      "ĠAd": 7468,
      "Ø¹ÙĪØ§Ùħ": 7469,
      "Ø³ÙħØ§Ùĥ": 7470,
      "ĠØ§ÙĦÙħØ¨Ø§Ø¯Ø±Ø©": 7471,
      "Ø°Ø§Ø¡": 7472,
      "ĠØºØ§ÙĦØ¨Ø": 7473,
      "ĠØºØ§ÙĦØ¨Ø§": 7474,
      "ĠÙĨØµØ§Ø¦ØŃ": 7475,
      "ĠØ§ÙĦØªØ³ÙĪÙĬÙĤ": 7476,
      "ĠØ±Ø¨Ø·": 7477,
      "ower": 7478,
      "ĠØ®ØµØ§Ø¦Øµ": 7479,
      "Ġ_": 7480,
      "ĠØ§ÙĦØ´Ø¹ÙĪØ¨": 7481,
      "ĠØ§ÙĦØªØ±Ø§Ø«": 7482,
      "ĠØ¬Ø¯ÙĪÙī": 7483,
      "ÙĦØ³ÙģØ©": 7484,
      "ĠÙĪÙĥÙĬÙģÙĬØ©": 7485,
      "ĠØ§ÙĦØŃÙħØ±Ø§Ø¡": 7486,
      "ĠÙħÙĨØ§Ø²ÙĦ": 7487,
      "ĠØ§ÙĤØªØµØ§Ø¯ÙĬØ©": 7488,
      "ĠØ±Ø¹Ø§ÙĬØ©": 7489,
      "ĠÙĪØ²ÙĬØ§Ø¯Ø©": 7490,
      "66": 7491,
      "ÙĥØªÙĪØ±Ø©": 7492,
      "ĠØ¨Ø¬ÙħÙĬØ¹": 7493,
      "ÙĪØ§Ø¦ÙĬØ©": 7494,
      "ĠØ²Ø§ÙĦ": 7495,
      "ÙĬØ·Ø§ÙĨ": 7496,
      "ĠØ²ÙĪØ¬ØªÙĩ": 7497,
      "%ØĮ": 7498,
      "ĠØªÙħÙĪØ²": 7499,
      "Ø£ÙħÙĦ": 7500,
      "ĠÙħÙĦØ¹ÙĤØ©": 7501,
      "ĠØ§ÙĦØ¬ÙĨØ©": 7502,
      "ĠØªØ¤ÙĥØ¯": 7503,
      "ĠØ§ÙĦØ·ÙĪÙĬÙĦ": 7504,
      "Ø±ÙĪØ³ÙĬØ§": 7505,
      "ĠØ£Ø³Ø±Ø¹": 7506,
      "ĠØªØ£ÙħÙĬÙĨ": 7507,
      "Ø§ÙĨØ§Ø©": 7508,
      "ĠØ¨Ø¯ÙĬ": 7509,
      "ĠØ·Ø§Ø¦Ø±Ø©": 7510,
      "ĠØ§ÙĦØ£Ø¹Ø±Ø§Ø¶": 7511,
      "ĠØ¨Ø§ÙĦØ¹ÙħÙĦ": 7512,
      "ĠÙħÙĨØµÙĪØ±": 7513,
      "ĠØ§ÙĦØ®Ø·Ø§Ø¨": 7514,
      "ÙĦÙĤØ§Øª": 7515,
      "âĢı:âĢı": 7516,
      "ĠØ§ÙĦØ¬ÙĩØ©": 7517,
      "ĠÙĨØ§Ø³": 7518,
      "ØŃÙħÙĬÙĦ": 7519,
      "ÙĤØ¯Ø±Ø©": 7520,
      "Ø´Ø£": 7521,
      "ĠÙħÙĩØ§Ø±Ø§Øª": 7522,
      "ĠÙħØ¦Ø§Øª": 7523,
      "ĠØŃØ¯Ø¯": 7524,
      "ĠØ¬Ø§ÙĨØ¨Ùĩ": 7525,
      "ĠÙĨØ§ØµØ±": 7526,
      "ĠØªØ¹ÙĦÙĬÙĤØ§Øª": 7527,
      "ĠØ£Ø±Ø¨Ø§ØŃ": 7528,
      "ĠØ±Ø³ÙħÙĬØ©": 7529,
      "ØªÙĩØ§Ø¨": 7530,
      "ÙĪÙĬØªÙĬ": 7531,
      "ĠØ§ÙĦØ¯Ø¨ÙĦÙĪÙħ": 7532,
      "ĠØŃØ²Ø§Ùħ": 7533,
      "Ø¨ÙĦØ§Ø¯": 7534,
      "ĠØ§ÙĦØ¥Ø¹ÙĦØ§ÙħÙĬØ©": 7535,
      "ÙĤØ³Ø§Ùħ": 7536,
      "Ø²Ùĩ": 7537,
      "Ø§Ø¨Ø¯": 7538,
      "ĠØ±Ø£Ùī": 7539,
      "ĠØ§ÙĦØ£ÙĦÙħØ§ÙĨÙĬ": 7540,
      "ĠØ§ÙĦØµÙĦØ©": 7541,
      "ÙħÙĪØ±": 7542,
      "ĠØ§ÙĦØ¸ÙĩØ±": 7543,
      "ĠØŃÙĦØ¨": 7544,
      "ree": 7545,
      "ÙħØ§Ø±Ø§Øª": 7546,
      "ĠØ§ÙĦÙħØªÙħ": 7547,
      "ÙĤØ³Ùħ": 7548,
      "Ġpl": 7549,
      "ĠØ§ÙĦØ¯Ø±Ø¬Ø©": 7550,
      "ĠØ®Ø¨Ø±Ø§Ø¡": 7551,
      "ØŃÙĬØ§Ø¡": 7552,
      "ĠØ§ÙĦØ®ÙħØ³": 7553,
      "ĠØ®Ø·Ø§Ø¨": 7554,
      "ĠØ£ØµÙĪÙĦ": 7555,
      "ĠØ£Ø±Ø³ÙĦ": 7556,
      "ĠÙħØ±Øª": 7557,
      "ĠÙħÙģØ±": 7558,
      "ĠØ³ÙĬØ³": 7559,
      "ĠØ£Ø³Ø§Ø¨ÙĬØ¹": 7560,
      "Ø´ÙĬÙĨ": 7561,
      "Ġan": 7562,
      "ÙĪØ¹ÙĦÙī": 7563,
      "ĠØ§ÙĦÙħØ´ÙĩØ¯": 7564,
      "ĠÙħÙĬØ¯": 7565,
      "ÙĦÙħØ§Ø°Ø§": 7566,
      "ĠØ§ÙĦØªØ¯Ø®ÙĦ": 7567,
      "ĠÙģØ¶ÙĦ": 7568,
      "ĠÙĪØ§ÙĦÙĬ": 7569,
      "ĠÙĬØ®ØªÙĦÙģ": 7570,
      "Ġï´": 7571,
      "ĠØ§Ø³ØªÙĩÙĦØ§Ùĥ": 7572,
      "ĠØ§ÙĦØ´ØªØ§Ø¡": 7573,
      "ÙĬÙħØ§Øª": 7574,
      "ĠØ§ÙĦÙĩØ±": 7575,
      "70": 7576,
      "ĠØ§ØŃØªØ±": 7577,
      "ĠØ¨ÙħØŃØ§ÙģØ¸Ø©": 7578,
      "Ø§ÙĦÙĪ": 7579,
      "ĠØ§ÙĦØµÙģÙĤØ§Øª": 7580,
      "ĠØ±Ø¦Ø§Ø³Ø©": 7581,
      "ĠÙĤÙĬØ¯": 7582,
      "ĠÙĤØ§Ø¯Ø©": 7583,
      "Ø¨Ø³Ø§Ø·Ø©": 7584,
      "ĠØ§ÙĦÙħØ¦Ø©": 7585,
      "Ø´Ø§Ø±Ø§Øª": 7586,
      "ĠØ¢Ø°Ø§Ø±": 7587,
      "ĠØ³ÙĨÙĪÙĬØ§": 7588,
      "90": 7589,
      "ĠÙĬØªÙħÙĥÙĨ": 7590,
      "wit": 7591,
      "ĠØ§ÙĦØ§Øº": 7592,
      "ĠØ§ÙĦÙģÙĬØ³": 7593,
      "ĠØªÙĥØ´Ùģ": 7594,
      "ĠØ²Ø±Ø§Ø¹Ø©": 7595,
      "ÙĦØ§ÙĦØ§Øª": 7596,
      "ĠØºØ¯Ø§": 7597,
      "ĠØ£ÙĤÙĪÙī": 7598,
      "ĠØ§ÙĦÙĪØ§Ø±": 7599,
      "ĠÙĦÙĦÙĬ": 7600,
      "ĠÙĬÙħØ±": 7601,
      "ĠÙħØ¨ÙĬØ¹Ø§Øª": 7602,
      "ĠÙħØ¹Ø±ÙĥØ©": 7603,
      "ĠØ³ÙĪØ¯": 7604,
      "ØµÙĬØ±": 7605,
      "ĠØªØ®Ø±Ø¬": 7606,
      "ÙĥØ¨": 7607,
      "ĠØªØ¶ÙħÙĨ": 7608,
      "Ø³Ùĩ": 7609,
      "Ø·ÙĪØ±Ø©": 7610,
      "ĠØ§ÙĦÙģÙĦØ¨ÙĬÙĨ": 7611,
      "ĠØ§ÙĦØ¶Ø±ÙĪØ±ÙĬ": 7612,
      "ĠØ§ÙĦÙĥÙĬÙħÙĬØ§Ø¦ÙĬØ©": 7613,
      "ĠØ§ÙĩÙħ": 7614,
      "ĠÙĤØ±ÙĬØ¨Ø§": 7615,
      "ĠÙĪØ§Øµ": 7616,
      "ĠØ§Ø¨Ø±": 7617,
      "ĠØ´Ø§Ø¨": 7618,
      "ĠØ¹ÙĦÙħØ§": 7619,
      "Ġ48": 7620,
      "ĠØ®Ø¨Ø±Ø©": 7621,
      "ĠØ§ÙĦØ¹Ø´Ø±ÙĬÙĨ": 7622,
      "ÙħÙĬÙĬØ²": 7623,
      "ĠÙĨØ¹Ø±Ùģ": 7624,
      "Ø§ÙħØ±Ø©": 7625,
      "ĠÙħØ³Ø±ØŃ": 7626,
      "ĠØ§ÙĦØªØºØ°ÙĬØ©": 7627,
      "ĠØŃØ¯ÙĬØ¯": 7628,
      "Ġyou": 7629,
      "ĠÙĤØµØµ": 7630,
      "ĠØ¨Ø±ÙĬØ¯": 7631,
      "ÙĬÙĤÙĪÙĦ": 7632,
      "ĠØ§ÙĦÙĤØ§Ø¦Ùħ": 7633,
      "ĠÙĨÙĥÙĪÙĨ": 7634,
      "ĠÙĬØ³ØªØŃÙĤ": 7635,
      "ĠØ§ÙĦÙħØŃØªÙħÙĦ": 7636,
      "ĠØªÙĤØ¯ÙĬØ±": 7637,
      "nt": 7638,
      "ev": 7639,
      "ĠØºØ³Ø§ÙĦØ©": 7640,
      "Ø§ÙģØ¹Ø©": 7641,
      "Ø¶Ø§Ø±": 7642,
      "ĠØªØ¹Ø¨": 7643,
      "ĠÙĬØŃÙĤÙĤ": 7644,
      "ĠÙĦØªÙĥÙĪÙĨ": 7645,
      "Ø¯ÙĬÙĪÙĩØ§Øª": 7646,
      "ĠØ§ÙĦÙĬÙĪÙħÙĬ": 7647,
      "ĠØ¨ÙħØ³Øª": 7648,
      "ÙħØ³Øª": 7649,
      "ĠØ§ÙĦÙĪØ³ÙĬØ·": 7650,
      "Ø§Ø¶Ùī": 7651,
      "ĠÙĪØ§ÙĦØ§Ø¹": 7652,
      "ÙĨÙĬØ§ÙĩÙĪ": 7653,
      "Ø§Ø¨ÙĬØ¨": 7654,
      "eg": 7655,
      "ĠØ§ÙĦÙĪÙĥ": 7656,
      "Ø¹Ø±Ø¨ÙĬ": 7657,
      "ĠØ§ÙĦØ¹ÙħÙĪØ¯ÙĬØ©": 7658,
      "ĠØ§ÙĦØ§ØµØ·ÙĨØ§Ø¹": 7659,
      "Ø§Ø³Ø¨Ø§Øª": 7660,
      "ĠØ§ÙĦØ£ØŃØ²Ø§Ø¨": 7661,
      "ĠÙĦØ²": 7662,
      "ĠØ§ÙĦØ°Ø±Ø©": 7663,
      "ĠØ§ÙĦÙĦÙĩÙħ": 7664,
      "Ø´ÙĬØ¯": 7665,
      "ĠØµØ¹Ø¨": 7666,
      "ĠØªØ¹ÙĨÙĬ": 7667,
      "ĠØ§ÙĦØ³ÙģÙĬØ±": 7668,
      "ĠØ§ÙĦØ¹Ø§Ø¯ÙĬØ©": 7669,
      "Ø³ÙĬØ¬": 7670,
      "ĠÙĦÙĦÙħØ±Ø©": 7671,
      "ĠØ¬Ø³": 7672,
      "ĠØªØŃØ¶ÙĬØ±": 7673,
      "ĠØªØ§Ø¬Ø±": 7674,
      "ĠÙĩÙĪÙĦ": 7675,
      "ĠØŃÙĤÙĬÙĤÙĬ": 7676,
      "ĠØ§ÙĦÙħÙĤØ§ÙĦØ©": 7677,
      "ĠÙĬØ±Ø¬Ùī": 7678,
      "ĠØ§ÙĦÙħÙħÙĬØ²Ø©": 7679,
      "ĠØ´ÙĥØ±": 7680,
      "ĠBl": 7681,
      "Ø§ÙĥØ±": 7682,
      "ÙħÙĪÙĤØ¹": 7683,
      "ĠÙħØŃØªÙĪÙī": 7684,
      "ĠØºØ¶ÙĪÙĨ": 7685,
      "ĠØ¨ÙħØ¬Ø±Ø¯": 7686,
      "ØŃØ": 7687,
      "ÙĥØ±Ø§ÙĨÙĬØ§": 7688,
      "ØŃØ§": 7689,
      "Ø¯ÙĤ": 7690,
      "ĠØ§ÙĦØ§Ø¹ØªÙħØ§Ø¯": 7691,
      "ĠØ§ÙĦØ¯ÙĬÙħÙĤØ±Ø§Ø·ÙĬ": 7692,
      "ĠÙĬØªØ¶ÙħÙĨ": 7693,
      "ĠÙĤÙĦÙĪØ¨": 7694,
      "ĠØµÙģÙĤØ©": 7695,
      "ĠØ§ÙĦÙģÙĨØ§Ø¯ÙĤ": 7696,
      "ĠØªÙĩØ¯ÙĬØ¯": 7697,
      "ĠØ§ÙĦØ±ÙĪØ§ÙĬØ©": 7698,
      "ÙĪÙħØ¹": 7699,
      "ĠØ£ØŃÙĬØ§ÙĨØ§": 7700,
      "ĠÙħÙĬØ²Ø©": 7701,
      "ĠÙĪØ§ÙĦØ¹Ø§ÙĦÙħ": 7702,
      "ĠÙģÙĬØªØ§ÙħÙĬÙĨ": 7703,
      "ĠÙħÙĪØ§ØµÙģØ§Øª": 7704,
      "Ø«Ø¨ÙĬØª": 7705,
      "ĠØ¥Ø¯Ø®Ø§ÙĦ": 7706,
      "Ø´ÙĬØ·": 7707,
      "ĠØ¨ÙĦØ¯Ø§ÙĨ": 7708,
      "ire": 7709,
      "ØªØº": 7710,
      "ĠØ¨ÙħØ¹ÙĨÙī": 7711,
      "ĠØ§ÙĦÙĨØ§ØªØ¬": 7712,
      "ĠÙĦÙħÙĨØ¹": 7713,
      "ĠØ£ØŃÙĥØ§Ùħ": 7714,
      "ĠCo": 7715,
      "ĠØ§ÙĦÙĤÙħØŃ": 7716,
      "ĠØ§ÙĦØŃÙħØ¯": 7717,
      "ĠØ¯ÙĬØ±": 7718,
      "Ø±Ø¨ÙĪÙĨØ§Øª": 7719,
      "ĠÙĪÙĩÙĨØ§": 7720,
      "ĠÙħØ´ØªØ±Ùĥ": 7721,
      "ÙĨØªÙĬÙĨ": 7722,
      "ĠÙĪØ§ÙĦØ§ÙĤØªØµ": 7723,
      "ĠØ³ØªØ¬": 7724,
      "ĠÙĨÙĪÙħ": 7725,
      "ÙģØªØ§ØŃ": 7726,
      "ĠØ§ÙĦØ¬ÙĪÙĬ": 7727,
      "ĠØ§ÙĦØªØµÙĨÙĬØ¹": 7728,
      "ØªØŃØ§ÙĨ": 7729,
      "ĠØ§ÙĦÙģÙĤØ±": 7730,
      "Ġas": 7731,
      "ÙĦÙĤØª": 7732,
      "ÙģÙĤØ¯": 7733,
      "ĠØµØ®Ø±Ø©": 7734,
      "Ø³ÙĬÙĥ": 7735,
      "Ø£ÙħÙĬÙĨ": 7736,
      "Ø³ÙĬØ·Ø±": 7737,
      "ĠØ§ÙĦØªØ¹ÙĦÙħ": 7738,
      "Ġhttps": 7739,
      "ĠØ§ÙĦØµØŃØ±Ø§Ø¡": 7740,
      "Ø´Ø®Ø§Øµ": 7741,
      "ĠÙĪÙĦÙĩØ°Ø§": 7742,
      "ĠØ§ÙĦØ§Ø³ØªÙĤØ±Ø§Ø±": 7743,
      "ĠÙĪØ§ÙĦÙħÙĩ": 7744,
      "ÙĳØĮ": 7745,
      "Ø´Ùī": 7746,
      "Ø¸Ø§Øª": 7747,
      "ĦØ§ÙĬÙĨ": 7748,
      "ÙĦØ§ÙĬÙĨ": 7749,
      "ĠØ§ÙĦÙħØ®Ø¯Ø±Ø§Øª": 7750,
      "ĠØ£Ø¯ÙĨÙī": 7751,
      "ãĢ": 7752,
      "ĠØ§Ø®ØªÙĦØ§Ùģ": 7753,
      "ĠØ§ÙĦÙĤØ·Ø§Ø¹Ø§Øª": 7754,
      "ĠØ³ÙĦØ§ØŃ": 7755,
      "ĠÙĬÙħÙĨØ¹": 7756,
      "ĠØ§ÙĦÙĤÙħ": 7757,
      "ĠØ³ÙĦØ·Ø§ÙĨ": 7758,
      "Ø§ÙĦØ¯Ø±Ø¯Ø´Ø©": 7759,
      "ĠÙħÙĬÙĥ": 7760,
      "ĠØªØ¹Ø·": 7761,
      "ĠÙĪØªØŃÙĤÙĬÙĤ": 7762,
      "ĠØ§ÙĦÙħØ¨Ø§Ø±Ùĥ": 7763,
      "Ġex": 7764,
      "Ø§ÙĦÙħØŃ": 7765,
      "Ø¨Ø±Ø": 7766,
      "ĠØ§ÙĦÙħÙĨØ§ÙģØ³Ø©": 7767,
      "Ø¨Ø±Ø§": 7768,
      "ĠÙĬØ¯Ø¹ÙĪ": 7769,
      "ĠØªÙģØ¹ÙĬÙĦ": 7770,
      "ĠØ£ÙĤÙĪÙĦ": 7771,
      "Ø¯Ø§Ø¹Ø´": 7772,
      "ĠÙĦÙĦØŃÙģØ§Ø¸": 7773,
      "ĠØ§ÙĦØ³ÙħÙĪ": 7774,
      "ĠØ¨Ø¯Ù": 7775,
      "ĠØ¨Ø¯ÙĦ": 7776,
      "ĠØ¢ÙĦÙĬØ©": 7777,
      "Ø§Ø¯ØªÙĩ": 7778,
      "ĠÙħØ¹ÙĬ": 7779,
      "Ġthis": 7780,
      "ĠÙĪØ§Ùħ": 7781,
      "ĠØ¨ÙĪØ¬ÙĪØ¯": 7782,
      "ØªÙħØ¯Ø©": 7783,
      "ĠØ§ÙĦÙģÙĤÙĩ": 7784,
      "ĠÙħØºÙĦ": 7785,
      "ĠØ§ÙĦØºØ±Ùģ": 7786,
      "ĠØªÙĤÙĦÙĬÙĦ": 7787,
      "ĠØ£Ø³ÙĦÙĪØ¨": 7788,
      "ĠÙĤÙĨ": 7789,
      "ĠØ±Ø§ÙĬ": 7790,
      "ĠØ·Ø¹Ø§Ùħ": 7791,
      "ĠØ§ÙĦØ³ÙĪØ±ÙĬÙĬÙĨ": 7792,
      "Ø§Ø²Ø©": 7793,
      "ĠØ§ÙĦØ¬ÙĦØ³Ø©": 7794,
      "ĠÙĪÙĩÙĥØ°Ø§": 7795,
      "ĠÙħØ¹ÙĩØ¯": 7796,
      "Ø¯ÙĬØ§ÙĨ": 7797,
      "ÙĥØ±Ùħ": 7798,
      "Ø§ÙĥØª": 7799,
      "ĠÙĪØŃØ¯Ùĩ": 7800,
      "ĠSp": 7801,
      "ĠØ§ÙĦØ¶ÙĬ": 7802,
      "ĠÙĤØ±Ø±": 7803,
      "Ø§ÙĦØµÙģØŃØ©": 7804,
      "ĠÙĦØ§Ø³ØªØ®Ø¯Ø§Ùħ": 7805,
      "ÙĪÙĪÙĪÙĪ": 7806,
      "ĠØ·ÙĬØ¨": 7807,
      "Ø§Ø¯ÙĪ": 7808,
      "Ø·ÙĦÙĤØª": 7809,
      "Ø±Ø¨ÙĪÙĦ": 7810,
      "ÙĤÙĬØ¨Ø©": 7811,
      "ÙģÙĬØ²": 7812,
      "Ø¨ÙĬØ§ÙĨØ§Øª": 7813,
      "ĠØ§ÙĦØªØŃØªÙĬØ©": 7814,
      "ĠØ§ÙĦØ¯Ùĩ": 7815,
      "ØªÙħØªØ§Ø¹": 7816,
      "ĠÙĬØªÙħØªØ¹": 7817,
      "ĠØ§ÙĦÙħÙħØªØ§Ø²": 7818,
      "ction": 7819,
      "roid": 7820,
      "ĠÙĦÙĦØ¥ÙĨ": 7821,
      "ĠØ¨ÙģÙĬØ±ÙĪØ³": 7822,
      "ĠØ§ÙĦÙħØªØ¯Ø§ÙĪÙĦ": 7823,
      "ĠÙĬÙħÙĦÙĥ": 7824,
      "ĠØ¨ØŃØ±": 7825,
      "ĠØ§ÙĦØ±Ø³Ø§Ø¦ÙĦ": 7826,
      "ĠØ¨Ø¥ÙħÙĥØ§ÙĨ": 7827,
      "ĠÙħØ±Ø¨": 7828,
      "ĠØ£Ø³Ø±": 7829,
      "2014": 7830,
      "ĠÙħÙĤØ§ÙĦØ§Øª": 7831,
      "ĠØ§ÙĦØŃÙĦÙħ": 7832,
      "Ø¯Ø¨": 7833,
      "ĠØ§ÙĦØ¶Ø¹": 7834,
      "ĠÙĪÙĬÙĤ": 7835,
      "Ø¬ÙħÙĬØ¹": 7836,
      "ÙĪÙĤØ±": 7837,
      "ÙĪØ¶Ùī": 7838,
      "ÙĦÙĬÙħÙĪÙĨ": 7839,
      "ĠØ§ÙĦØªØ±Ø¬": 7840,
      "Ø¬Ø¹ÙĦ": 7841,
      "ÙĪÙĤÙĪÙģ": 7842,
      "ĠØ§ÙĦØŃÙĦÙĪÙĦ": 7843,
      "Ø´Ø³ØªØ±": 7844,
      "ĠØ§ÙĦØ´Ùģ": 7845,
      "ĠØ§ÙĦØ§Ø¹ØªØ¨Ø§Ø±": 7846,
      "ĠÙħØ¶ÙĬÙģØ§": 7847,
      "ĠØ·Ù": 7848,
      "ĠÙĦÙĦØ¯ÙĪÙĦØ©": 7849,
      "ĠØ·ÙĦ": 7850,
      "Ø§Ø¯ÙĩØ§": 7851,
      "ĠØ´Ø¤ÙĪÙĨ": 7852,
      "ĠØµØ§ØŃ": 7853,
      "ĠØ§ÙĦØ¹ÙħÙĪÙħÙĬØ©": 7854,
      "ĠÙĪÙĬÙĥÙĬØ¨ÙĬØ¯ÙĬØ§": 7855,
      "ĠÙĤÙĪÙī": 7856,
      "ĠØ§ÙĦØ²Ø¨": 7857,
      "ĠØ§ÙĦÙħØ§Ø³": 7858,
      "ĠÙĬØ´ÙħÙĦ": 7859,
      "ĠØ§ÙĦÙħØŃØ§ÙģØ¸Ø§Øª": 7860,
      "ĠØ§ÙĦÙħÙģØ±": 7861,
      "ĠØ§ØªØ®Ø°": 7862,
      "Ø¨Ø±ÙĬ": 7863,
      "ĠØ¹ÙĪØ§ÙħÙĦ": 7864,
      "ĠØªØªØ·ÙĦØ¨": 7865,
      "OS": 7866,
      "Ø§Ø¯ÙĬØ«": 7867,
      "ĠØ§ÙĦÙħØ¯Ø±Ø¨": 7868,
      "ĠÙħØ¯Ø±": 7869,
      "ĠÙĨÙĤÙĪÙĦ": 7870,
      "ĠØ§ÙĦØ£ÙħÙĦ": 7871,
      "ĠØ§ÙĦØªØŃØ¯ÙĬØ§Øª": 7872,
      "Ø§ØŃØ¸Ø§Øª": 7873,
      "ĠØ§ÙĦÙĪØ¹ÙĬ": 7874,
      "ĠÙĥÙģØ±": 7875,
      "Ø¸ÙģÙĬ": 7876,
      "ĠØ´Ø¯ÙĬØ¯Ø©": 7877,
      "ĠØ§ÙĦÙĪÙĤÙĪØ¯": 7878,
      "ical": 7879,
      "ĠØ£Ø±Ø§Ø¶ÙĬ": 7880,
      "Ø§Ø¤Ùĩ": 7881,
      "ĠØ§ÙĦØ¥Ø·Ø§Ø±": 7882,
      "ĠÙĥØªØ§Ø¨Ùĩ": 7883,
      "ĠØ±Ø§Ùħ": 7884,
      "ĠØ¥Ø¯Ø±": 7885,
      "ĠØªØ®Ø²ÙĬÙĨ": 7886,
      "ĠØ§ÙĦØ³ÙĩÙĦ": 7887,
      "ĠÙħØ¤ÙĤØª": 7888,
      "ĠÙĬØ¹Ø·ÙĬ": 7889,
      "ĠØ§ÙĦØºÙĬØ§Ø±": 7890,
      "ĠØ§ÙĦØ£ÙĪØ¶Ø§Ø¹": 7891,
      "ĠÙĪØ¬ÙħÙĬØ¹": 7892,
      "Ø¦Ø§Ø¨": 7893,
      "ĠØªØ±ÙĬ": 7894,
      "ÙĩÙĪØ±ÙĬ": 7895,
      "ĠØ£Ø¨ÙĨ": 7896,
      "ĠÙĬØªÙĬØŃ": 7897,
      "ĠÙ£": 7898,
      "Ø¸ÙĬÙħØ©": 7899,
      "ĠØ¨Ø§ÙĦØµÙĪØ±": 7900,
      "ep": 7901,
      "ĠÙĪØªØ¹Ø§ÙĦÙī": 7902,
      "ĠØ¨ÙĤÙĬØ©": 7903,
      "ĠÙģØ¥ÙĨÙĩØ§": 7904,
      "ĠØ¥ÙĨØª": 7905,
      "ĠÙĦÙĨÙĤÙĦ": 7906,
      "ĠÙħØ¹ÙĤ": 7907,
      "ĠØ£Ø¨ÙĪØ§Ø¨": 7908,
      "ĠØ§ÙĦØ£ÙģÙĦØ§Ùħ": 7909,
      "ØªÙĬØ´": 7910,
      "ĠØ§ÙĦØ¨ÙĤØ§Ø¡": 7911,
      "ĠØ§ÙĦØ´Ø®ØµÙĬØ§Øª": 7912,
      "Ø§Ø³ÙĬØ§": 7913,
      "ĠØ¨ÙĪØ¶Ø¹": 7914,
      "ØªØ³Ø§Ø¨": 7915,
      "ĠÙĤØ±Ø±Øª": 7916,
      "ĠÙĦÙĦØ¹Ø§Ùħ": 7917,
      "ĠØ¹ÙĤÙĦ": 7918,
      "ĠØ§ÙĦØ³Ø§ØŃ": 7919,
      "ĠØ§ÙĦÙĩÙĨØ¯Ø³Ø©": 7920,
      "ĠØ¨ÙĨØ¸Ø§Ùħ": 7921,
      "ĠØ§ÙĦÙĨÙģØ§ÙĬØ§Øª": 7922,
      "ĠØ¬Ø±Ø§Ø¦Ùħ": 7923,
      "ĠØªØ¬Ø¯ÙĬØ¯": 7924,
      "Ø§ÙĦÙĬØ¯": 7925,
      "ĠÙħØ§Ø²": 7926,
      "ĠØ±Øº": 7927,
      "ØªÙħÙĦ": 7928,
      "ĠÙĪØ·ÙĨÙĬØ©": 7929,
      "ÙĨÙĬÙĩØ§": 7930,
      "Ø§ÙĦØ¨ØŃØ«": 7931,
      "ĠÙĬÙĦØ¹Ø¨": 7932,
      "ĠØ§ÙĦØµØ¹ÙĬØ¯": 7933,
      "ĠÙĨØ§Ø±": 7934,
      "ÙĪØŃÙĬØ¯": 7935,
      "ros": 7936,
      "ÙĦÙĬØ§Ùģ": 7937,
      "77": 7938,
      "ĠØ§ÙĦÙħØ·Ø¨Ø®": 7939,
      "ĠÙĦÙĦØ«": 7940,
      "ĠÙĤØ§Ø¨ÙĦ": 7941,
      "ĠØ«Ù": 7942,
      "ÙģØªØŃ": 7943,
      "ĠØ«ÙĦ": 7944,
      "ÙĤÙĬÙħØ©": 7945,
      "ĠØ§ÙĦØŃØ§Ø¬": 7946,
      "ĠØ§ÙĦØŃØ±Ø§Ø±ÙĬØ©": 7947,
      "ĠÙĬØªØ¹Ø±Ø¶": 7948,
      "Ø§Ø¶Ù": 7949,
      "Ø§Ø¶ÙĦ": 7950,
      "ĠØ§ÙĦÙĥÙĨÙĬØ³Ø©": 7951,
      "ĠØ°ÙĥØ±Øª": 7952,
      "ÙĥÙĦÙħ": 7953,
      "ĠÙĪÙĬÙĨØ¯ÙĪØ²": 7954,
      "ĠØ§ÙĦØºØ°Ø§Ø¡": 7955,
      "ĠØ¬Ø§Ùĥ": 7956,
      "ĠØªØ¨Ø§Ø¯ÙĦ": 7957,
      "ÙĪØ±Ùī": 7958,
      "ĠØ§ÙĦØ§ØªØŃ": 7959,
      "ĠØ´Ø§ÙħÙĦØ©": 7960,
      "Ù¬": 7961,
      "ĠØ§ÙĦØ¥Ø¬ØªÙħØ§Ø¹": 7962,
      "ĠÙĥÙĪÙĥ": 7963,
      "Ø¬ÙĩÙĪØ¯": 7964,
      "ĠÙĥØ§ÙģÙĬØ©": 7965,
      "ĠÙĩÙĪØ§ØªÙģ": 7966,
      "ĠÙħØ³ÙĬØ±Ø©": 7967,
      "ĠØ¨ÙĤØ¯Ø±": 7968,
      "ĠØ§ÙĦØµØŃÙĬØŃØ©": 7969,
      "Ø§ï»": 7970,
      "'s": 7971,
      "ĠØ§ÙĦØ±ØŃÙħ": 7972,
      "ĠØ§ÙĦØµØŃÙģ": 7973,
      "ĠÙĪÙĬÙĤÙĪÙĦ": 7974,
      "ÙĪÙĦÙĪØ¬ÙĬØ©": 7975,
      "ĠØ¨Ø¬Ø§ÙħØ¹Ø©": 7976,
      "ĠØ§ÙĦÙħØ®Ø±ÙĪØ·": 7977,
      "Ø§ÙĦÙģØ§Øª": 7978,
      "ĠØ§ÙĦØµÙĩÙĬÙĪÙĨÙĬ": 7979,
      "ĠÙħÙĪÙĤØ¹ÙĨØ§": 7980,
      "ĠÙĬØ³Ø¹Ùī": 7981,
      "ĠÙħØ¹Ùĥ": 7982,
      "https": 7983,
      "ĠÙĬØ¯Ø¹Ùħ": 7984,
      "ĠØ§ÙĦØ¯ÙĪØ§Ø¡": 7985,
      "ØºÙĪ": 7986,
      "ØŃØªÙī": 7987,
      "ĠØ§ÙĦØ³Ø¬ÙĨ": 7988,
      "ĠØªØªÙħÙĥÙĨ": 7989,
      "Ø¹Ø¯Ø©": 7990,
      "ĠÙĩÙħØ§": 7991,
      "ĠØŃØ¯ÙĬØ«Ø©": 7992,
      "ĠØŃÙĦÙĤØ©": 7993,
      "ĠØ§ÙĦØ±Ø§ØŃØ©": 7994,
      "ØŃØ¨Ø": 7995,
      "ØŃØ¨Ø§": 7996,
      "2013": 7997,
      "ÙģØ´": 7998,
      "ĠÙĬÙĤØ§ÙĦ": 7999,
      "ĠØ§ÙĦÙĦÙĤ": 8000,
      "ĠØ±ØµØ¯": 8001,
      "ne": 8002,
      "Ø¥Ø¶Ø§ÙģØ©": 8003,
      "ĠØªÙģØ¹ÙĦ": 8004,
      "ĠØ§ÙĦÙĥØ«": 8005,
      "ĠØ§ÙĦÙħØ´Ø§Ø±ÙĥÙĬÙĨ": 8006,
      "ĠØ§ÙĦØ¢ÙĦÙĬ": 8007,
      "eng": 8008,
      "ĠØ§ÙĦÙĤÙĨÙĪØ§Øª": 8009,
      "Ø¨Ùĥ": 8010,
      "ĠØ§ÙĦØ¥ÙĨØ¬ÙĦÙĬØ²ÙĬ": 8011,
      "ĠØ§ÙĦÙĨÙĩØ¶Ø©": 8012,
      "ĠØ§ÙĦÙħØ³Ø§Ø±": 8013,
      "ĠØ§ÙĦØ´ÙĩÙĬØ±Ø©": 8014,
      "Ø£Ø±": 8015,
      "ĠØ®Ø·ÙĬØ±Ø©": 8016,
      "ĠÙĦØªÙħ": 8017,
      "Ø§Ø¶Ø§ÙģØ©": 8018,
      "ĠØªØ¯Ø¹Ùħ": 8019,
      "ĠØ·ÙĩØ±Ø§ÙĨ": 8020,
      "Ġmore": 8021,
      "ĠÙĪØ¨ÙĨØ§Ø¡": 8022,
      "ĠØªÙĥØ§ÙĦÙĬÙģ": 8023,
      "ĠØ§ÙĦØ³ÙĬÙĦÙĬÙĥØ§": 8024,
      "ĠØ¨Ø¯ÙĤØ©": 8025,
      "ĠØ§ÙĦØªØ§Ø³Ø¹": 8026,
      "ĠÙħÙĪØ§ÙĤÙģ": 8027,
      "ĠÙĪØ¬Ø¹ÙĦ": 8028,
      "Ø·ÙĬÙĨ": 8029,
      "ĠØ§ÙĦÙħØ¹ÙĦ": 8030,
      "ok": 8031,
      "âĢª": 8032,
      "ĠÙģÙĪØ±ÙĬÙĥØ³": 8033,
      "ĠÙģØ§Ø²": 8034,
      "ĠØ§ÙĦØ¬Ø§Ùĩ": 8035,
      "ĠÙĦØªØ·ÙĪÙĬØ±": 8036,
      "ĠÙĬØ·ÙĦØ¨": 8037,
      "Ø§ÙĪØ§Ø©": 8038,
      "ĠØ³ØªÙĬ": 8039,
      "ĠØ§ÙĦÙħÙĤØ§Ø¨ÙĦ": 8040,
      "ØªØ¨Ø§Ø³": 8041,
      "ĠØ§ÙĬØ±Ø§ÙĨ": 8042,
      "ĠØ§ÙĦÙĨÙħÙĪØ°Ø¬": 8043,
      "ÙĬØ§Ø¡": 8044,
      "Ø¯Ø§Ùħ": 8045,
      "ĠØ¨Ø§ÙĦØ¥ÙĨ": 8046,
      "85": 8047,
      "ĠÙħÙĪØ³ÙĥÙĪ": 8048,
      "ïºĺ": 8049,
      "ĠÙĪØ§ÙĦØªÙī": 8050,
      "ĠØ·Ø§ÙĤØ©": 8051,
      "ĠØ§ÙĦØ³ÙĪÙĬØ¯": 8052,
      "Ø³ÙĬØ·Ø±Ø©": 8053,
      "ĠÙĨØ±": 8054,
      "ĠØ§ÙĦØ¬ÙĨÙĪØ¨ÙĬ": 8055,
      "ĠØ§ÙĦØ¶Ø±Ø§Ø¦Ø¨": 8056,
      "ĠØ·Ø§Ø±ÙĤ": 8057,
      "ĠØ¥Ø¬": 8058,
      "ĠØ³Ø¯": 8059,
      "ĠÙħØªØ³": 8060,
      "ĠØ£ÙĥØ¯Øª": 8061,
      "ĠØ§ÙĦÙħØªØ¹": 8062,
      "2011": 8063,
      "ĠØ§ÙĦØªØµÙĪÙĬØ±": 8064,
      "ĠÙĪØ§ØŃØ¯Ø§": 8065,
      "ĠÙĥÙħÙĬØ§Øª": 8066,
      "ÙĪÙģÙĬØ©": 8067,
      "Ġ120": 8068,
      "ĠÙĪÙĩÙī": 8069,
      "ĠÙĩØ±": 8070,
      "td": 8071,
      "ĠØ§ÙĦØ®Ø¶Ø±Ø§Ø¡": 8072,
      "ÙĪØ§Ø¶": 8073,
      "Ø§ÙĪØ³": 8074,
      "ĠØ§ÙĦØ«ÙĨØ§Ø¦ÙĬ": 8075,
      "Ø·Ø§ØŃÙĪÙĨØ©": 8076,
      "ĠÙĪÙĬØ¨": 8077,
      "Ø§ÙģÙĩ": 8078,
      "2012": 8079,
      "ĠØ§ÙĦÙħØªØ®ØµØµØ©": 8080,
      "oft": 8081,
      "ĠÙĪØ²Ø±Ø§Ø¡": 8082,
      "ØµØ±Ø©": 8083,
      "ĠØ£ÙħÙĪØ±": 8084,
      "ĠØ²ÙĪØ§Ø¬": 8085,
      "ĠâĢĿ": 8086,
      "ĠØ¥ÙĬØ¬Ø§Ø¯": 8087,
      "ĠØ¬ÙĦØ³": 8088,
      "ĠØ¨ÙĪØª": 8089,
      "ÙĪÙħÙĨÙĬÙĪÙħ": 8090,
      "ĠØªÙĦÙĤÙĬ": 8091,
      "ĠÙħÙĨØ¸ÙĪÙħØ©": 8092,
      "Ù§": 8093,
      "ĠÙĪØ°": 8094,
      "ĠØ§ÙĦØ¯Ø±Ø§Ø³ÙĬØ©": 8095,
      "ĠØºØ§ÙĬØ©": 8096,
      "Ø§ÙĦÙħØ³": 8097,
      "ĠØ§ÙĦØŃØ´Ø±Ø§Øª": 8098,
      "ĠØ§ÙĦØ³ÙĦÙħ": 8099,
      "ox": 8100,
      "ĠÙĦØ¨ÙĨØ§Ø¡": 8101,
      "ØªÙħØ§ÙĨ": 8102,
      "ĠØªØ¬Ø±Ø¨": 8103,
      "ĠØ§ÙĦØªÙĬØ§Ø±": 8104,
      "ĠØ§ÙĦÙĥØ§ÙĦØ³ÙĬÙĪÙħ": 8105,
      "Ø¬Ø§Ø²Ø§Øª": 8106,
      "ĠØ§ÙĦØ³ÙĦØ§ÙħØ©": 8107,
      "ÙĪØ¨Ø¹Ø¯": 8108,
      "ĠÙĦÙĦØ³ÙĦ": 8109,
      "rou": 8110,
      "ØªØ¶": 8111,
      "ĠØ§ÙĦØ¯ÙħÙĪÙĬØ©": 8112,
      "ÙħÙĬÙĩ": 8113,
      "ØŃÙģ": 8114,
      "ĠØ£ÙĨÙĬ": 8115,
      "ĠØŃØ¬Ø²": 8116,
      "Ø±ÙĬØ¶Ø©": 8117,
      "ĠØ§ÙĦØ¯Ø¬Ø§Ø¬": 8118,
      "ÙĩØ±Ø§Øª": 8119,
      "ĠØ£Ø±Ø¬": 8120,
      "ĠØ§Ø³ØªØºÙĦØ§ÙĦ": 8121,
      "Ġ82": 8122,
      "ĠÙħØ±Ùģ": 8123,
      "ĠÙĪØ§ÙĦØªØ¯": 8124,
      "ĠØŃØ±Ùģ": 8125,
      "Ø³ØªÙĪØ±": 8126,
      "ĠÙħØ¯ÙĬØ±ÙĬØ©": 8127,
      "ĠØ§Ø³Ø±Ø§Ø¦ÙĬÙĦ": 8128,
      "ĠÙħØ¤Ø´Ø±Ø§Øª": 8129,
      "ĠØ³ÙĦÙĪÙĥ": 8130,
      "ØºØ§ÙĨØ³ØªØ§ÙĨ": 8131,
      "ÙħØ¬Ø©": 8132,
      "ĠØ§ÙĦØµÙĨØ¯ÙĪÙĤ": 8133,
      "ĠØ¢ÙħÙĨ": 8134,
      "ĠØ¨Ø§ÙĦÙħØŃ": 8135,
      "Ø§Ø¨Ø±Ø§Øª": 8136,
      "ĠÙĪØªØ¹Ø²ÙĬØ²": 8137,
      "ĠØ¨ÙĦØ¯Ø©": 8138,
      "Ø§Ø¯ÙħÙĬØ©": 8139,
      "Ø±Ø¨Ø§Øª": 8140,
      "vi": 8141,
      "ĠÙĪØ¢Ø®Ø±": 8142,
      "ĠØ§ÙĦÙħÙģØ¶": 8143,
      "Ø¶Ø±Ø§Ø±": 8144,
      "ØĮØĮ": 8145,
      "ĠØ¨Ø§ÙĦØ·Ø¨Ø¹": 8146,
      "Ġch": 8147,
      "ĠØ§ÙĦØ¶ÙģØ©": 8148,
      "ĠØ¨ÙĬÙĦ": 8149,
      "ØµÙĪØµ": 8150,
      "Ø±ÙĬØ´": 8151,
      "Ġ2006": 8152,
      "ÙĪØ±ÙĬÙĨ": 8153,
      "Ø¹ÙĦÙĬ": 8154,
      "Ø§ÙĦØ²": 8155,
      "ĠØªØ±ÙĥÙĬØ²": 8156,
      "ĠÙĪÙĤØ¨ÙĦ": 8157,
      "ĠØ§ÙĦÙħØ¨ÙĦØº": 8158,
      "Ø±ÙĪØ¹Ø©": 8159,
      "ĠÙĬØ¹ÙĦÙĨ": 8160,
      "ĠÙģØªØ§Ø©": 8161,
      "ĠÙĬÙĥØªØ¨": 8162,
      "ĠØ§ÙĦÙħØµØ±Ùī": 8163,
      "ĠØ¨Ø§ØŃ": 8164,
      "ue": 8165,
      "ĠØ§ÙĦÙģØ±Øµ": 8166,
      "ĠÙĪØªÙĪÙģÙĬØ±": 8167,
      "ĠÙĤØ¯ÙħØª": 8168,
      "Ø¬Ø£": 8169,
      "ÙĪØ§ÙģÙĤ": 8170,
      "ĠØªØŃØ§ÙĪÙĦ": 8171,
      "ĠÙģÙĨØ§Ø¯ÙĤ": 8172,
      "ĠØ§ÙĦÙĨØ¬Ùħ": 8173,
      "ĠØ§ÙĦØ³Ø§ØŃØ©": 8174,
      "ØªÙģØ§Ø¡": 8175,
      "ĠØ§ÙĦØªÙĨØ³ÙĬÙĤ": 8176,
      "ĠØ§ÙĦØ®Ø¨Ø²": 8177,
      "ĠÙħÙģÙĬØ¯Ø©": 8178,
      "ØªÙģØ§ØµÙĬÙĦ": 8179,
      "ĠØ§ÙĦØŃÙĥÙĪÙħÙĬ": 8180,
      "ĠØ§ÙĦØ´ÙĩÙĬØ¯": 8181,
      "Ø§ÙĩØ¯Ø§Øª": 8182,
      "ĠÙħØ·Ø¹Ùħ": 8183,
      "ÙĬÙĥÙĬØ©": 8184,
      "ĠÙħÙģØªÙĪØŃØ©": 8185,
      "ĠØ§ÙĦÙħØ¬ØªÙħØ¹Ø§Øª": 8186,
      "Ġfrom": 8187,
      "Ø£Ø¹ÙĦÙĨ": 8188,
      "-%": 8189,
      "\"..": 8190,
      "Ø¯ÙĬØ³": 8191,
      "ĠØ§ÙĦÙĩØ§ÙħØ©": 8192,
      "ÙĪØªÙĩ": 8193,
      "ĠØ§ÙĦØ£Ø«Ø±": 8194,
      "ĠØ§ÙĦØ¥ÙĦÙĩ": 8195,
      "ĠØ¹Ø§ÙĦÙħÙĬØ§": 8196,
      "ock": 8197,
      "http": 8198,
      "ĠØ§ÙĦØ´Ø£ÙĨ": 8199,
      "ĠÙħØ¹Ø§ÙĬÙĬØ±": 8200,
      "Ġor": 8201,
      "ĠØ§ÙĦØ§Ø³ØªØ±": 8202,
      "ĠØ«Ø§ÙĨ": 8203,
      "ĠØ§ÙĦÙĤØ¶Ø§Ø¦ÙĬØ©": 8204,
      "ĠØ¥Ø·": 8205,
      "ĠÙĪØ¥Ø¹Ø§Ø¯Ø©": 8206,
      "ĠØ£Ø±ÙĬØ¯": 8207,
      "Ø¬Ø²Ø§Ø¦Ø±": 8208,
      "Ø±ÙĬØ§ÙĨ": 8209,
      "ĠØ§ØµØ¨ØŃ": 8210,
      "ĠÙĤÙĦÙĤ": 8211,
      "Ø¨ÙĦØ§Øº": 8212,
      "ĠØŃØ¸": 8213,
      "ĠØ±Ø¨Ø¹": 8214,
      "ĠØªÙĪÙĤ": 8215,
      "ĠÙĦØ§Ùħ": 8216,
      "ÙĨØ¯ÙĪÙĨ": 8217,
      "Ø¹ÙħÙĤ": 8218,
      "ĠØ§ÙĦÙħØªÙĤØ¯ÙħØ©": 8219,
      "ĠØ±Ø³ÙħÙĬØ§": 8220,
      "ĠØ¥Ø´Ø§Ø±Ø§Øª": 8221,
      "ĠØ§ÙĦØ¬ÙħÙĦØ©": 8222,
      "ĠØ³ÙĩÙħ": 8223,
      "ĠÙĬØ¹Ø±Ø¶": 8224,
      "Ø°ÙĬØ±": 8225,
      "ĠÙħÙĥØªØ¨Ø©": 8226,
      "75": 8227,
      "Ø®Ø§Ø¡": 8228,
      "ĠØ§Ø¯Ø§Ø±Ø©": 8229,
      "ÙĪØ£Ø¶Ø§ÙģØª": 8230,
      "ĠØ¹ÙĦÙħÙĬØ©": 8231,
      "IN": 8232,
      "Ø§ÙĦØ§ÙĨ": 8233,
      "ĠÙĪØ®ØµÙĪØµ": 8234,
      "ĠØ§ÙĦÙģØ¦Ø©": 8235,
      "Ø§ÙĥØ±Ø©": 8236,
      "ĠØ¹Ø§ÙĦÙħÙĬ": 8237,
      "ĠÙģØŃØ³Ø¨": 8238,
      "ĠØŃÙĥ": 8239,
      "ïº®": 8240,
      "ĠØ§ÙĦØ¥ÙĤØ§ÙħØ©": 8241,
      "ĠØ´ÙĥØ±Ø§": 8242,
      "ĠØ¯Ø¨": 8243,
      "Ġle": 8244,
      "ĠØ§ÙĦØ³Ø±Ø·Ø§ÙĨ": 8245,
      "ØŃÙħØ§ÙĬØ©": 8246,
      "ĠØ£Ø³ØªØ§Ø°": 8247,
      "ĠÙĦÙĦÙħØ´Ø§Ø±ÙĥØ©": 8248,
      "ÙĥØªÙĬØ±ÙĬØ§": 8249,
      "ĠØ§ÙĦØ®ÙĪÙģ": 8250,
      "ĠØ§ÙĦØ¨Ø·ÙĨ": 8251,
      "ĠØ¨ØªØ´": 8252,
      "ĠØ³Ø§ÙĦÙħ": 8253,
      "ĠØ§ÙĦÙħÙĨØ¸ÙħØ§Øª": 8254,
      "ÙĪÙģÙĤØ§": 8255,
      "ĠÙħÙĨÙĩÙħØ§": 8256,
      "ĠØ§ÙĦØ·ÙĪØ¨": 8257,
      "ĠØ§ÙĦØŃØ§ÙĥÙħ": 8258,
      "ĠØ§ÙĦÙħÙĥØ±ÙħØ©": 8259,
      "ĠØ§ÙĦØµØ§Ø¯Ø±": 8260,
      "ĠØ§ÙĦÙĥÙģØ§Ø¡Ø©": 8261,
      "ĠÙħÙĨØµØ¨": 8262,
      "Ø§ØªÙħ": 8263,
      "ĠØ§ÙĦØ·ÙĬÙĨ": 8264,
      "ash": 8265,
      "ÙĪØ§ÙĥÙĩ": 8266,
      "ĠØ£Ø³Ø¦ÙĦØ©": 8267,
      "ĠØ§ÙĦØ§Ø±Ø¶": 8268,
      "ĠÙĬÙĪØ§Ø¬Ùĩ": 8269,
      "ĠØ§ÙĦÙħØ±ØªØ¨Ø·Ø©": 8270,
      "ĠÙĪØŃÙĬ": 8271,
      "ØªØ¯Ø§Ø¯": 8272,
      "ĠÙĬØªÙħÙĬØ²": 8273,
      "ÙĬØ±ÙĪÙĨ": 8274,
      "ĠØ§ÙĦØ¢Ø¬ÙĦØ©": 8275,
      "ĠØ§ÙĦØ¥Ø³Ø¨Ø§ÙĨÙĬ": 8276,
      "ĠÙĪÙĬÙħ": 8277,
      "ĠØ²Ø§Ø¯": 8278,
      "ĠÙĬÙĨØªØ¸Ø±": 8279,
      "ĠØ¬ÙħÙĦØ©": 8280,
      "ĠÙĥØ¨Ø±Ùī": 8281,
      "ĠÙģÙĥÙĦ": 8282,
      "ĠØªÙħÙĦÙĥ": 8283,
      "Ø§ÙĤØ·": 8284,
      "ĠØ«ÙĤØ©": 8285,
      "ĠÙģÙĨÙĬ": 8286,
      "ĠØ¹Ø¯ÙĨ": 8287,
      "now": 8288,
      "ĠØ¨Ø§ÙĦÙħØ¦Ø©": 8289,
      "ĦÙĨØ¯Ø§": 8290,
      "ÙĦÙĨØ¯Ø§": 8291,
      "ĠØ§ÙĦÙħØªØ¯": 8292,
      "ĠØ±Ø¨ØŃ": 8293,
      "ÙĪØ¬Ø¨": 8294,
      "),": 8295,
      "Ø¹Ø§Ø±Ø¶": 8296,
      "ÙĪÙĩØ°Ø§": 8297,
      "Ø§Ø±ÙĬØª": 8298,
      "ĠØ§ÙĦÙħÙĦØŃ": 8299,
      "Ø¬ÙĩØ©": 8300,
      "ÙģØ§ÙĨ": 8301,
      "ĠEx": 8302,
      "ĠØ¬ÙĬÙĦ": 8303,
      "ĠØ§ÙĦÙħÙģØ§ÙĪØ¶Ø§Øª": 8304,
      "ĠØ¯ÙĪÙĨØ§ÙĦØ¯": 8305,
      "ï»ł": 8306,
      "ĠØ³ÙħÙĬ": 8307,
      "ĠØ§ÙĦØ¹Ø§Ø¯ÙĬ": 8308,
      "ĠØ§ÙĦØ¨Ø±Ø§Ø²ÙĬÙĦ": 8309,
      "ĠÙĦØŃÙ": 8310,
      "ĠÙĦØŃÙĦ": 8311,
      "ĠØ§ÙĦÙħÙĪØ³ÙĬÙĤÙī": 8312,
[...]
